unsigned char mnist_cnn_small_int8_tflite[] = {
  0x20, 0x00, 0x00, 0x00, 0x54, 0x46, 0x4c, 0x33, 0x00, 0x00, 0x00, 0x00,
  0x14, 0x00, 0x20, 0x00, 0x1c, 0x00, 0x18, 0x00, 0x14, 0x00, 0x10, 0x00,
  0x0c, 0x00, 0x00, 0x00, 0x08, 0x00, 0x04, 0x00, 0x14, 0x00, 0x00, 0x00,
  0x1c, 0x00, 0x00, 0x00, 0x98, 0x00, 0x00, 0x00, 0x18, 0x01, 0x00, 0x00,
  0x90, 0x0b, 0x00, 0x00, 0xa0, 0x0b, 0x00, 0x00, 0x78, 0x20, 0x00, 0x00,
  0x03, 0x00, 0x00, 0x00, 0x01, 0x00, 0x00, 0x00, 0x10, 0x00, 0x00, 0x00,
  0x00, 0x00, 0x0a, 0x00, 0x10, 0x00, 0x0c, 0x00, 0x08, 0x00, 0x04, 0x00,
  0x0a, 0x00, 0x00, 0x00, 0x0c, 0x00, 0x00, 0x00, 0x1c, 0x00, 0x00, 0x00,
  0x3c, 0x00, 0x00, 0x00, 0x0f, 0x00, 0x00, 0x00, 0x73, 0x65, 0x72, 0x76,
  0x69, 0x6e, 0x67, 0x5f, 0x64, 0x65, 0x66, 0x61, 0x75, 0x6c, 0x74, 0x00,
  0x01, 0x00, 0x00, 0x00, 0x04, 0x00, 0x00, 0x00, 0x68, 0xff, 0xff, 0xff,
  0x19, 0x00, 0x00, 0x00, 0x04, 0x00, 0x00, 0x00, 0x08, 0x00, 0x00, 0x00,
  0x6f, 0x75, 0x74, 0x70, 0x75, 0x74, 0x5f, 0x30, 0x00, 0x00, 0x00, 0x00,
  0x01, 0x00, 0x00, 0x00, 0x04, 0x00, 0x00, 0x00, 0x46, 0xf4, 0xff, 0xff,
  0x04, 0x00, 0x00, 0x00, 0x0c, 0x00, 0x00, 0x00, 0x6b, 0x65, 0x72, 0x61,
  0x73, 0x5f, 0x74, 0x65, 0x6e, 0x73, 0x6f, 0x72, 0x00, 0x00, 0x00, 0x00,
  0x03, 0x00, 0x00, 0x00, 0x5c, 0x00, 0x00, 0x00, 0x2c, 0x00, 0x00, 0x00,
  0x04, 0x00, 0x00, 0x00, 0xb8, 0xff, 0xff, 0xff, 0x1d, 0x00, 0x00, 0x00,
  0x04, 0x00, 0x00, 0x00, 0x13, 0x00, 0x00, 0x00, 0x43, 0x4f, 0x4e, 0x56,
  0x45, 0x52, 0x53, 0x49, 0x4f, 0x4e, 0x5f, 0x4d, 0x45, 0x54, 0x41, 0x44,
  0x41, 0x54, 0x41, 0x00, 0xdc, 0xff, 0xff, 0xff, 0x1c, 0x00, 0x00, 0x00,
  0x04, 0x00, 0x00, 0x00, 0x13, 0x00, 0x00, 0x00, 0x6d, 0x69, 0x6e, 0x5f,
  0x72, 0x75, 0x6e, 0x74, 0x69, 0x6d, 0x65, 0x5f, 0x76, 0x65, 0x72, 0x73,
  0x69, 0x6f, 0x6e, 0x00, 0x08, 0x00, 0x0c, 0x00, 0x08, 0x00, 0x04, 0x00,
  0x08, 0x00, 0x00, 0x00, 0x1b, 0x00, 0x00, 0x00, 0x04, 0x00, 0x00, 0x00,
  0x13, 0x00, 0x00, 0x00, 0x6d, 0x69, 0x6e, 0x5f, 0x72, 0x75, 0x6e, 0x74,
  0x69, 0x6d, 0x65, 0x5f, 0x76, 0x65, 0x72, 0x73, 0x69, 0x6f, 0x6e, 0x00,
  0x1e, 0x00, 0x00, 0x00, 0x74, 0x0a, 0x00, 0x00, 0x6c, 0x0a, 0x00, 0x00,
  0x54, 0x0a, 0x00, 0x00, 0x1c, 0x0a, 0x00, 0x00, 0x6c, 0x09, 0x00, 0x00,
  0x4c, 0x09, 0x00, 0x00, 0x2c, 0x09, 0x00, 0x00, 0xdc, 0x08, 0x00, 0x00,
  0x4c, 0x04, 0x00, 0x00, 0x1c, 0x04, 0x00, 0x00, 0xcc, 0x01, 0x00, 0x00,
  0xb4, 0x01, 0x00, 0x00, 0x9c, 0x01, 0x00, 0x00, 0x6c, 0x01, 0x00, 0x00,
  0x14, 0x01, 0x00, 0x00, 0x0c, 0x01, 0x00, 0x00, 0x04, 0x01, 0x00, 0x00,
  0xfc, 0x00, 0x00, 0x00, 0xf4, 0x00, 0x00, 0x00, 0xec, 0x00, 0x00, 0x00,
  0xe4, 0x00, 0x00, 0x00, 0xdc, 0x00, 0x00, 0x00, 0xd4, 0x00, 0x00, 0x00,
  0xcc, 0x00, 0x00, 0x00, 0xc4, 0x00, 0x00, 0x00, 0xbc, 0x00, 0x00, 0x00,
  0xb4, 0x00, 0x00, 0x00, 0x94, 0x00, 0x00, 0x00, 0x74, 0x00, 0x00, 0x00,
  0x04, 0x00, 0x00, 0x00, 0x62, 0xf5, 0xff, 0xff, 0x04, 0x00, 0x00, 0x00,
  0x60, 0x00, 0x00, 0x00, 0x0c, 0x00, 0x00, 0x00, 0x08, 0x00, 0x0e, 0x00,
  0x08, 0x00, 0x04, 0x00, 0x08, 0x00, 0x00, 0x00, 0x10, 0x00, 0x00, 0x00,
  0x28, 0x00, 0x00, 0x00, 0x00, 0x00, 0x06, 0x00, 0x08, 0x00, 0x04, 0x00,
  0x06, 0x00, 0x00, 0x00, 0x04, 0x00, 0x00, 0x00, 0x01, 0x00, 0x00, 0x00,
  0xeb, 0x03, 0x00, 0x00, 0x0c, 0x00, 0x18, 0x00, 0x14, 0x00, 0x10, 0x00,
  0x0c, 0x00, 0x04, 0x00, 0x0c, 0x00, 0x00, 0x00, 0x9a, 0xe1, 0xf9, 0x0c,
  0x0e, 0x39, 0x71, 0xf0, 0x02, 0x00, 0x00, 0x00, 0x02, 0x00, 0x00, 0x00,
  0x04, 0x00, 0x00, 0x00, 0x06, 0x00, 0x00, 0x00, 0x32, 0x2e, 0x31, 0x38,
  0x2e, 0x30, 0x00, 0x00, 0xce, 0xf5, 0xff, 0xff, 0x04, 0x00, 0x00, 0x00,
  0x10, 0x00, 0x00, 0x00, 0x00, 0x00, 0x00, 0x00, 0x00, 0x00, 0x00, 0x00,
  0x00, 0x00, 0x00, 0x00, 0x00, 0x00, 0x00, 0x00, 0xea, 0xf5, 0xff, 0xff,
  0x04, 0x00, 0x00, 0x00, 0x10, 0x00, 0x00, 0x00, 0x31, 0x2e, 0x31, 0x34,
  0x2e, 0x30, 0x00, 0x00, 0x00, 0x00, 0x00, 0x00, 0x00, 0x00, 0x00, 0x00,
  0x88, 0xe2, 0xff, 0xff, 0x8c, 0xe2, 0xff, 0xff, 0x90, 0xe2, 0xff, 0xff,
  0x94, 0xe2, 0xff, 0xff, 0x98, 0xe2, 0xff, 0xff, 0x9c, 0xe2, 0xff, 0xff,
  0xa0, 0xe2, 0xff, 0xff, 0xa4, 0xe2, 0xff, 0xff, 0xa8, 0xe2, 0xff, 0xff,
  0xac, 0xe2, 0xff, 0xff, 0xb0, 0xe2, 0xff, 0xff, 0xb4, 0xe2, 0xff, 0xff,
  0x36, 0xf6, 0xff, 0xff, 0x04, 0x00, 0x00, 0x00, 0x48, 0x00, 0x00, 0x00,
  0x11, 0x33, 0x7f, 0x03, 0xea, 0xe6, 0x42, 0xf5, 0x2d, 0xea, 0x9a, 0x0a,
  0xa0, 0xdc, 0x25, 0x81, 0x1d, 0x6c, 0xfb, 0x3d, 0x54, 0x28, 0x1c, 0x31,
  0x81, 0x8b, 0x96, 0x60, 0x01, 0xf9, 0x0f, 0xa1, 0xe7, 0xe8, 0xf1, 0x7f,
  0xc5, 0xad, 0x81, 0xea, 0x0e, 0xee, 0x1d, 0x37, 0xdb, 0xc4, 0xbb, 0x7f,
  0x58, 0xee, 0xc7, 0xfe, 0x06, 0xee, 0x4d, 0x6f, 0x0c, 0xeb, 0xeb, 0x21,
  0x18, 0xf2, 0x81, 0xe1, 0xec, 0x34, 0x55, 0xfd, 0xb9, 0x7f, 0xbc, 0xa7,
  0x8a, 0xf6, 0xff, 0xff, 0x04, 0x00, 0x00, 0x00, 0x20, 0x00, 0x00, 0x00,
  0xe1, 0x1d, 0x00, 0x00, 0x2c, 0x2c, 0x00, 0x00, 0x24, 0x09, 0x00, 0x00,
  0x7e, 0x01, 0x00, 0x00, 0xd3, 0x0b, 0x00, 0x00, 0x48, 0xfd, 0xff, 0xff,
  0x25, 0x07, 0x00, 0x00, 0x53, 0x01, 0x00, 0x00, 0xb6, 0xf6, 0xff, 0xff,
  0x04, 0x00, 0x00, 0x00, 0x08, 0x00, 0x00, 0x00, 0xb6, 0x1f, 0x03, 0xfb,
  0x7f, 0x57, 0xd5, 0xf7, 0xca, 0xf6, 0xff, 0xff, 0x04, 0x00, 0x00, 0x00,
  0x08, 0x00, 0x00, 0x00, 0x85, 0x80, 0x15, 0x2e, 0xbd, 0x56, 0x21, 0x11,
  0xde, 0xf6, 0xff, 0xff, 0x04, 0x00, 0x00, 0x00, 0x40, 0x02, 0x00, 0x00,
  0x48, 0xcc, 0x1f, 0x16, 0xec, 0xfb, 0xef, 0xd7, 0xe1, 0xee, 0xd8, 0x2d,
  0x18, 0xf1, 0xd1, 0x15, 0xfb, 0x27, 0xe5, 0x12, 0x12, 0xf0, 0x28, 0xe0,
  0x46, 0xa8, 0x16, 0x23, 0xda, 0x03, 0xf2, 0xb7, 0x53, 0x03, 0x14, 0x36,
  0x1f, 0xea, 0x2a, 0xb7, 0x48, 0xf8, 0x2a, 0x7f, 0x07, 0xd1, 0xd2, 0xff,
  0x08, 0x21, 0xcb, 0xdf, 0x3f, 0xfe, 0x1c, 0xd1, 0x22, 0xd7, 0x2f, 0x69,
  0x43, 0x1d, 0xc1, 0xe6, 0x5e, 0xad, 0x33, 0x51, 0x18, 0xfe, 0xc4, 0x03,
  0x45, 0xfe, 0x0e, 0x35, 0xb7, 0xf1, 0x02, 0x35, 0x22, 0x17, 0xb1, 0xf7,
  0xd7, 0x13, 0xdb, 0x2b, 0x22, 0x2a, 0xd4, 0xe7, 0x98, 0x14, 0x49, 0x17,
  0x16, 0x02, 0xea, 0xf0, 0xc0, 0x36, 0xcd, 0xf2, 0xdb, 0x2a, 0x9f, 0x1f,
  0xb9, 0x35, 0xfb, 0x22, 0x1f, 0x09, 0xe1, 0xf3, 0xff, 0x09, 0x0d, 0x44,
  0xe9, 0x06, 0xa1, 0x52, 0xf1, 0x39, 0xa3, 0x7f, 0x2a, 0xa8, 0xa6, 0x3d,
  0xd7, 0x45, 0xc3, 0x34, 0xfc, 0xed, 0xec, 0x13, 0x1a, 0x06, 0x0b, 0x25,
  0x0b, 0x16, 0xe9, 0xe9, 0x10, 0xf6, 0x19, 0xb9, 0xdf, 0x2a, 0x3e, 0x05,
  0xf7, 0xc3, 0x2e, 0xfb, 0xf8, 0xf4, 0x96, 0x1b, 0x05, 0xbe, 0x28, 0x23,
  0x41, 0x12, 0xef, 0xfb, 0xbc, 0xff, 0x13, 0x1b, 0x2d, 0x4a, 0x12, 0xcf,
  0xc5, 0xc5, 0x3b, 0x38, 0xf4, 0x3b, 0x88, 0xec, 0xeb, 0xbd, 0x3a, 0x18,
  0xef, 0x03, 0x2b, 0x1e, 0xd8, 0x0e, 0x2a, 0xe9, 0xf9, 0x32, 0xfb, 0xf0,
  0xc0, 0xdf, 0x56, 0x0e, 0xec, 0x7f, 0xc5, 0xf5, 0x8e, 0x09, 0x33, 0xf2,
  0x07, 0xb5, 0xfe, 0x74, 0xbd, 0x0a, 0x1b, 0x13, 0xbf, 0x81, 0xf5, 0x59,
  0x0a, 0x24, 0xff, 0x14, 0x1e, 0xdf, 0x6e, 0x1d, 0x9a, 0x67, 0xde, 0xd5,
  0xec, 0xb6, 0x2c, 0x1f, 0xff, 0xe9, 0xc7, 0xea, 0x05, 0xac, 0x15, 0x28,
  0x03, 0x1f, 0xe1, 0xd4, 0xdb, 0x17, 0x41, 0xef, 0xee, 0x64, 0xeb, 0xf4,
  0xab, 0xce, 0x21, 0x19, 0x24, 0xfd, 0xfd, 0xb6, 0xd7, 0x19, 0x1c, 0xe1,
  0x32, 0x1b, 0xfd, 0xc3, 0x22, 0xf2, 0x3c, 0xf4, 0xfe, 0x1e, 0xf4, 0xc4,
  0xff, 0x0e, 0x1a, 0x06, 0x12, 0xf5, 0xae, 0x0d, 0xd9, 0x42, 0x15, 0x12,
  0x10, 0xe7, 0xcc, 0x1c, 0xea, 0x2d, 0x1e, 0x0a, 0xf5, 0xfb, 0x52, 0x2d,
  0x17, 0xeb, 0x19, 0x35, 0x1b, 0x00, 0xbd, 0xf5, 0xe0, 0xfb, 0x0d, 0x25,
  0xe7, 0xf2, 0xf3, 0xf1, 0x22, 0x0d, 0x11, 0xea, 0x24, 0x1c, 0x33, 0xfa,
  0xf2, 0xc3, 0x41, 0xf7, 0x3c, 0xeb, 0x01, 0xe3, 0x08, 0xa5, 0x11, 0xed,
  0x43, 0xfe, 0xd1, 0xbf, 0x0e, 0x81, 0x45, 0x09, 0x1e, 0x09, 0x2d, 0xdf,
  0xf7, 0x0a, 0x06, 0xc9, 0x03, 0x18, 0xe7, 0xec, 0x20, 0xf7, 0xdc, 0xdf,
  0x3c, 0xf7, 0x51, 0xdc, 0xe9, 0xbb, 0x29, 0xe4, 0x7f, 0x33, 0x0c, 0xda,
  0xde, 0x31, 0xef, 0xf6, 0x34, 0xfb, 0xec, 0x11, 0xb4, 0xc2, 0xf6, 0xc4,
  0x52, 0x0c, 0x27, 0xe1, 0xce, 0xc9, 0xe7, 0xde, 0x5a, 0x04, 0x11, 0xc8,
  0xc8, 0x4c, 0x9f, 0x00, 0x3c, 0xbd, 0x32, 0x57, 0xd0, 0x24, 0xa7, 0xa2,
  0x57, 0x16, 0xf3, 0x37, 0xb6, 0xf4, 0xc3, 0xe6, 0x11, 0x0b, 0xcc, 0x47,
  0xcf, 0x5e, 0x20, 0x1e, 0x10, 0x0d, 0x2b, 0xf2, 0x95, 0x3a, 0xb7, 0xf1,
  0x62, 0xcf, 0xf7, 0xa1, 0x95, 0x43, 0x30, 0xbb, 0x7f, 0x8a, 0xd8, 0x8a,
  0xe1, 0x26, 0xf0, 0xf0, 0x2d, 0xba, 0xc1, 0xed, 0xec, 0xd3, 0xba, 0xe6,
  0xdb, 0x1a, 0xd8, 0xc7, 0xfd, 0x1f, 0xfd, 0x21, 0xee, 0xe9, 0xba, 0xa9,
  0x8f, 0x2a, 0xe0, 0xac, 0xc9, 0xa3, 0x8b, 0xcc, 0xe5, 0x0a, 0x0c, 0xbf,
  0xff, 0xea, 0xfd, 0xf0, 0x40, 0x38, 0x02, 0x1e, 0x22, 0x08, 0x3f, 0xba,
  0x1e, 0xc8, 0x05, 0x2a, 0x0f, 0x23, 0x3a, 0xe8, 0x11, 0xe8, 0x35, 0x04,
  0x32, 0x27, 0x33, 0xcc, 0x81, 0xd4, 0xce, 0xfa, 0x03, 0x44, 0xd7, 0xe2,
  0xcc, 0xf8, 0x33, 0x34, 0x32, 0xf6, 0x18, 0xe1, 0xcc, 0xfd, 0x19, 0xe5,
  0xfc, 0x0f, 0x0c, 0xb5, 0x1b, 0xde, 0xdb, 0xfb, 0x1f, 0x2b, 0xdf, 0xbc,
  0x20, 0xb5, 0x25, 0x22, 0x0a, 0x25, 0x21, 0x4f, 0x0e, 0xc5, 0xea, 0x1f,
  0xf6, 0x20, 0xfb, 0x24, 0x22, 0x9f, 0x0c, 0x1b, 0xff, 0x2c, 0x0a, 0x0d,
  0x2a, 0xf9, 0xff, 0xff, 0x04, 0x00, 0x00, 0x00, 0x20, 0x00, 0x00, 0x00,
  0x6d, 0xfa, 0xff, 0xff, 0x7e, 0xfd, 0xff, 0xff, 0x58, 0x01, 0x00, 0x00,
  0xea, 0x03, 0x00, 0x00, 0x55, 0xff, 0xff, 0xff, 0x22, 0x01, 0x00, 0x00,
  0x08, 0x03, 0x00, 0x00, 0xa2, 0x06, 0x00, 0x00, 0x56, 0xf9, 0xff, 0xff,
  0x04, 0x00, 0x00, 0x00, 0x80, 0x04, 0x00, 0x00, 0x00, 0xb3, 0x0c, 0xfe,
  0x0a, 0x30, 0xfa, 0x07, 0x07, 0xf9, 0x2b, 0x03, 0x1e, 0xf3, 0xde, 0x0b,
  0xf7, 0x06, 0xe8, 0x02, 0xd5, 0x1c, 0x1e, 0xfb, 0xea, 0x00, 0xed, 0xf6,
  0x0e, 0xe9, 0xf5, 0xed, 0xf1, 0x01, 0x29, 0xf4, 0x2b, 0x0d, 0xde, 0x0e,
  0xf9, 0xe7, 0x0b, 0xf5, 0xfd, 0xec, 0x06, 0xf6, 0xf5, 0x0a, 0x2e, 0xfe,
  0xf2, 0x08, 0x14, 0xf3, 0x0f, 0xba, 0xe9, 0xff, 0x15, 0x23, 0x09, 0x07,
  0xf5, 0x81, 0xfb, 0xfb, 0x09, 0xd5, 0x0a, 0xe9, 0x21, 0xde, 0xfc, 0x3e,
  0xea, 0xd8, 0xea, 0x1b, 0xf0, 0x1a, 0x03, 0x1a, 0xed, 0xdf, 0xe8, 0xf7,
  0xef, 0xf7, 0xfb, 0xf3, 0xde, 0xd3, 0xf7, 0x2b, 0x04, 0xa9, 0x0f, 0xd0,
  0x05, 0x14, 0xf8, 0xf5, 0xd3, 0xd1, 0xe3, 0xf3, 0xf6, 0x06, 0xe0, 0x1c,
  0xf4, 0xe9, 0xf5, 0xe0, 0xf3, 0xed, 0xe3, 0x35, 0x02, 0x0b, 0x0d, 0xf4,
  0x15, 0x0b, 0xf8, 0x0b, 0x18, 0x11, 0xe2, 0x04, 0xfd, 0x09, 0x2a, 0x13,
  0xc1, 0xda, 0x81, 0xbd, 0xef, 0x2e, 0xfc, 0xf4, 0x08, 0xfc, 0x13, 0x16,
  0x17, 0xde, 0xf6, 0xfe, 0xee, 0x1a, 0xf6, 0xec, 0xee, 0x10, 0x1c, 0xa9,
  0xe6, 0xda, 0x1b, 0x49, 0xae, 0xfe, 0x0f, 0x13, 0xf5, 0x81, 0xee, 0x1f,
  0xff, 0x08, 0xe2, 0x14, 0xc7, 0xc5, 0xb9, 0x19, 0xd9, 0xd8, 0xe7, 0xe5,
  0xfd, 0xdb, 0xb9, 0x14, 0xef, 0x05, 0xca, 0x36, 0xf3, 0x43, 0xe6, 0xf3,
  0xcb, 0xf6, 0xf5, 0x36, 0xe7, 0x4e, 0x3f, 0xf3, 0xa0, 0x1d, 0x08, 0x27,
  0x1a, 0x38, 0x41, 0xe4, 0x95, 0x3c, 0xee, 0x26, 0xef, 0x12, 0x02, 0xf0,
  0xf2, 0xde, 0x25, 0xe8, 0xf8, 0xf5, 0xe3, 0xd5, 0xfb, 0xe7, 0x2f, 0xff,
  0x1b, 0x0a, 0x1c, 0xdd, 0x41, 0x09, 0x1d, 0x07, 0x04, 0xd0, 0x27, 0xed,
  0x15, 0xde, 0xdd, 0xb2, 0x01, 0xfc, 0xf9, 0x0a, 0x0f, 0x0e, 0xe1, 0xfb,
  0xec, 0xc0, 0xf5, 0x01, 0x09, 0x0a, 0xc5, 0xf1, 0xf6, 0xb4, 0x32, 0xf8,
  0x02, 0xeb, 0x2b, 0x81, 0x26, 0xe4, 0x39, 0x2d, 0x04, 0x2d, 0xed, 0x0b,
  0xe9, 0xf4, 0x07, 0xdd, 0xe4, 0x00, 0x0c, 0xf9, 0xfd, 0x06, 0x04, 0xcc,
  0xc6, 0x19, 0xf9, 0x0f, 0xf0, 0xfa, 0x05, 0xf4, 0x01, 0xc7, 0xf4, 0x1e,
  0x0a, 0x1a, 0xe3, 0x0d, 0x28, 0x81, 0xc4, 0xf3, 0xea, 0x08, 0xfe, 0xe9,
  0x12, 0x08, 0xe8, 0x14, 0xfa, 0x15, 0xf8, 0xe5, 0xe3, 0x0f, 0x1e, 0x1c,
  0x36, 0xf3, 0x13, 0xe6, 0x00, 0x0d, 0xe5, 0xfb, 0xd6, 0x20, 0xf4, 0xd8,
  0xe0, 0x16, 0x07, 0xf9, 0xd6, 0x14, 0xec, 0x05, 0xcc, 0xd8, 0x14, 0x0e,
  0xf2, 0x07, 0x1e, 0xf3, 0xd6, 0x17, 0xdc, 0x19, 0xac, 0x0d, 0x04, 0xf2,
  0xe1, 0x81, 0x23, 0xde, 0x0f, 0x14, 0xf5, 0x0c, 0x28, 0xd5, 0xb8, 0xec,
  0xe9, 0xe6, 0xd7, 0x62, 0x34, 0xd4, 0x22, 0xf9, 0x04, 0x1a, 0xc1, 0x2c,
  0xed, 0x04, 0xe0, 0xde, 0xfa, 0x03, 0xce, 0x21, 0x0f, 0x23, 0xad, 0x18,
  0xda, 0xfb, 0xde, 0x08, 0x1c, 0xc6, 0x12, 0x13, 0xf3, 0x0c, 0xc8, 0xf8,
  0xff, 0x4b, 0x8c, 0xc7, 0x1a, 0x2c, 0xd8, 0x06, 0xf8, 0xf2, 0x88, 0x09,
  0x48, 0x2a, 0x42, 0xd5, 0xed, 0x02, 0xc0, 0x24, 0x03, 0xec, 0x09, 0xfc,
  0xe1, 0x10, 0x0c, 0x81, 0x19, 0xd9, 0x05, 0x07, 0xff, 0xf5, 0x11, 0xcd,
  0x1b, 0xc1, 0xea, 0xd5, 0xe1, 0x1b, 0x27, 0x38, 0x0b, 0xf4, 0xed, 0xf0,
  0xfa, 0xea, 0xfe, 0xaa, 0xe7, 0x16, 0xf0, 0x10, 0xf8, 0xec, 0xd1, 0xf7,
  0xc3, 0x29, 0xd3, 0xe7, 0xf0, 0xd9, 0xfb, 0xf4, 0x0b, 0x1e, 0xf0, 0xf7,
  0xef, 0xff, 0x0d, 0xf8, 0x12, 0x1d, 0x07, 0x14, 0xcb, 0xef, 0x0a, 0x0d,
  0x26, 0x0b, 0x13, 0xe9, 0x03, 0x16, 0x06, 0x0c, 0xe8, 0x4c, 0xf4, 0x81,
  0x34, 0x00, 0x4d, 0x0c, 0xe8, 0xbe, 0x0b, 0x0e, 0x07, 0xfc, 0xff, 0x27,
  0x10, 0xe3, 0xf3, 0xc6, 0xcf, 0xfd, 0x03, 0x1d, 0xec, 0x0e, 0x1c, 0x1e,
  0xfc, 0xc2, 0xff, 0x0b, 0xe1, 0x08, 0xb9, 0x4e, 0x0b, 0xf4, 0xbb, 0x18,
  0x6b, 0xfd, 0xd9, 0xe7, 0xa9, 0x32, 0x23, 0x09, 0x0e, 0xe7, 0xcb, 0x09,
  0x52, 0xc2, 0xe5, 0xa7, 0xd3, 0xf1, 0x06, 0xdd, 0x3e, 0xa9, 0xdd, 0x03,
  0xea, 0x10, 0x4e, 0x21, 0xcc, 0x8c, 0xe3, 0xc2, 0xfc, 0xc5, 0x7f, 0xdb,
  0x11, 0xdc, 0xe3, 0xb9, 0xe3, 0xaa, 0x01, 0x30, 0x1c, 0xf2, 0xd1, 0xfb,
  0xed, 0xdd, 0x45, 0x91, 0xf5, 0x77, 0xf1, 0x3b, 0xed, 0x10, 0x37, 0xdc,
  0xee, 0x75, 0x04, 0x30, 0xe3, 0x0e, 0xbe, 0x23, 0x43, 0x14, 0xfe, 0x05,
  0xa7, 0xf8, 0x52, 0xf9, 0xee, 0x16, 0xbe, 0x3b, 0xb4, 0x2d, 0xd9, 0xb8,
  0xa8, 0xe4, 0x11, 0xc2, 0xf6, 0xf8, 0xf1, 0xfd, 0xd3, 0x9d, 0xde, 0x1a,
  0x9b, 0xc9, 0x0d, 0xa7, 0x82, 0x06, 0xed, 0xf4, 0xc8, 0x33, 0x1c, 0xed,
  0x09, 0x9b, 0xfa, 0x17, 0xfb, 0xb3, 0x24, 0x41, 0x18, 0x0f, 0xba, 0x42,
  0xe3, 0xe7, 0xbb, 0xdc, 0xbe, 0x34, 0x04, 0x68, 0x39, 0xff, 0x86, 0x0a,
  0xe3, 0xbb, 0xc5, 0x09, 0xcc, 0x29, 0xb6, 0xfb, 0x15, 0x0b, 0x0c, 0x37,
  0x86, 0xce, 0x2a, 0xc2, 0xe6, 0xaa, 0xfa, 0xbd, 0xea, 0x7f, 0x91, 0xc0,
  0x18, 0xda, 0xe1, 0x2a, 0x0e, 0x58, 0xea, 0x11, 0x34, 0xa5, 0xe9, 0x18,
  0x0a, 0x26, 0x5d, 0xe7, 0xdc, 0xb2, 0xd1, 0x1d, 0xf8, 0x20, 0xcc, 0x53,
  0xb4, 0xe5, 0x02, 0xee, 0x14, 0xed, 0xe7, 0xf0, 0xc4, 0xda, 0xcb, 0x18,
  0xf5, 0x32, 0xcb, 0x41, 0xdd, 0xfe, 0xf3, 0xe6, 0xf0, 0x2e, 0xf7, 0xfe,
  0x26, 0xe9, 0x07, 0xe5, 0x0b, 0xf8, 0xe2, 0x14, 0xed, 0xe2, 0xf9, 0xfa,
  0x04, 0x91, 0x44, 0x05, 0x30, 0xcf, 0xe9, 0xff, 0xe4, 0xf2, 0xf4, 0x0a,
  0x81, 0xda, 0x26, 0xe3, 0x0a, 0x22, 0x0f, 0x2a, 0xb4, 0xd9, 0x2b, 0x09,
  0xdc, 0x02, 0xdb, 0xe7, 0xf1, 0xec, 0x69, 0x35, 0xd3, 0x1a, 0x38, 0x81,
  0xd5, 0x03, 0x34, 0xf6, 0x04, 0xd6, 0x25, 0xb6, 0xdd, 0x22, 0xf7, 0xea,
  0xc0, 0xfb, 0x19, 0xe0, 0xf1, 0xec, 0x22, 0x01, 0xcf, 0x12, 0x17, 0xa0,
  0x04, 0xe2, 0xf1, 0xf6, 0xe4, 0xe7, 0xd3, 0xc3, 0x47, 0xf6, 0xdb, 0x32,
  0xab, 0x23, 0xea, 0xfd, 0xd0, 0xdb, 0xfd, 0xe9, 0x50, 0x55, 0xe0, 0xc3,
  0xc8, 0x1a, 0xd8, 0x00, 0x0d, 0x0c, 0xee, 0xfa, 0xf6, 0x03, 0xe3, 0x07,
  0x55, 0xf8, 0x24, 0x0a, 0x00, 0x00, 0xee, 0xf3, 0xc4, 0xa8, 0x26, 0x14,
  0x0d, 0x39, 0x65, 0x86, 0xf9, 0xbb, 0xff, 0x0e, 0x26, 0x43, 0xfb, 0x04,
  0xe3, 0x10, 0x1c, 0x18, 0x3a, 0xdf, 0x12, 0xd8, 0x06, 0xd8, 0xc2, 0x19,
  0xb4, 0xba, 0xd5, 0xd9, 0xff, 0x14, 0xec, 0x0a, 0xe7, 0xca, 0xd8, 0x36,
  0xf4, 0xcb, 0x17, 0x14, 0x3e, 0xc2, 0xf4, 0x24, 0xd1, 0xe2, 0x22, 0xf4,
  0x0a, 0x30, 0x81, 0xe0, 0x07, 0xc9, 0x09, 0xd3, 0x28, 0xe0, 0xde, 0x23,
  0x09, 0xe3, 0x32, 0xbf, 0x71, 0x20, 0xf4, 0xeb, 0x01, 0x0d, 0xda, 0x14,
  0xf4, 0x11, 0xfe, 0x0c, 0x12, 0x43, 0xd3, 0x22, 0x02, 0xe4, 0xff, 0x17,
  0xbe, 0xe5, 0xdb, 0x53, 0xfe, 0xb3, 0xb6, 0xd9, 0xe5, 0xe4, 0xd4, 0x34,
  0xf0, 0xf8, 0x08, 0x05, 0xf1, 0xf9, 0xdd, 0xee, 0x1e, 0xee, 0xef, 0x1c,
  0xd6, 0xdf, 0xf6, 0xed, 0xee, 0x02, 0xed, 0xf1, 0x1f, 0x63, 0xf2, 0xcf,
  0x3c, 0xfc, 0xd0, 0x37, 0xd0, 0x24, 0x18, 0xf7, 0x11, 0xf1, 0xf9, 0xf5,
  0xae, 0x1e, 0x3d, 0xab, 0xcd, 0x0c, 0x81, 0xf6, 0x05, 0x1c, 0xdf, 0xe3,
  0x13, 0xed, 0x0b, 0xdd, 0x0a, 0xfa, 0x1a, 0xc4, 0x1d, 0xf3, 0x02, 0x0a,
  0x17, 0x39, 0x36, 0xd9, 0x26, 0xba, 0x19, 0xec, 0xe9, 0xe5, 0x1b, 0xfd,
  0x23, 0x03, 0x35, 0x18, 0x10, 0x0d, 0x18, 0x13, 0xd5, 0xf5, 0xef, 0x0e,
  0x0e, 0xfa, 0x07, 0xd7, 0xcf, 0x15, 0x0c, 0x08, 0xeb, 0xb5, 0x04, 0x1d,
  0xe4, 0xae, 0x01, 0xdd, 0xdb, 0xdf, 0x12, 0xd3, 0xd2, 0x81, 0xce, 0x08,
  0xcb, 0xf8, 0xdc, 0xe1, 0xac, 0x14, 0x17, 0xff, 0xf9, 0x05, 0xe7, 0x43,
  0xd1, 0xc6, 0x81, 0x7a, 0xed, 0x17, 0xe0, 0xdf, 0x91, 0xf0, 0xff, 0xf5,
  0x37, 0x26, 0x15, 0x5d, 0xd3, 0x19, 0xb6, 0xd8, 0x28, 0x49, 0x2e, 0xf2,
  0xb8, 0xc0, 0x03, 0xdd, 0x0e, 0x1f, 0xe5, 0x00, 0xcd, 0xb4, 0x12, 0xe9,
  0xd7, 0x58, 0x4a, 0x10, 0x03, 0xd9, 0xca, 0xd6, 0xbb, 0xef, 0xed, 0x13,
  0xb1, 0xec, 0x30, 0x9b, 0xee, 0xc4, 0xc8, 0xd2, 0xde, 0x09, 0x09, 0xbb,
  0x93, 0xc8, 0x19, 0x2b, 0x04, 0x48, 0x0e, 0xb9, 0xe2, 0xfd, 0xff, 0xff,
  0x04, 0x00, 0x00, 0x00, 0x40, 0x00, 0x00, 0x00, 0x09, 0xfc, 0xff, 0xff,
  0x64, 0xfc, 0xff, 0xff, 0xd4, 0xf9, 0xff, 0xff, 0x46, 0xfa, 0xff, 0xff,
  0xa0, 0x00, 0x00, 0x00, 0x01, 0xfc, 0xff, 0xff, 0xa7, 0xfe, 0xff, 0xff,
  0xf9, 0xfe, 0xff, 0xff, 0xde, 0xfb, 0xff, 0xff, 0xc8, 0xf6, 0xff, 0xff,
  0x66, 0xf7, 0xff, 0xff, 0x01, 0xfa, 0xff, 0xff, 0xbb, 0xfa, 0xff, 0xff,
  0x65, 0x03, 0x00, 0x00, 0x33, 0x01, 0x00, 0x00, 0xa3, 0xfb, 0xff, 0xff,
  0x2e, 0xfe, 0xff, 0xff, 0x04, 0x00, 0x00, 0x00, 0x10, 0x00, 0x00, 0x00,
  0x4e, 0x5d, 0x16, 0x60, 0x3b, 0x1c, 0x60, 0x45, 0x57, 0x09, 0x35, 0x1d,
  0x75, 0x22, 0x31, 0x7f, 0x4a, 0xfe, 0xff, 0xff, 0x04, 0x00, 0x00, 0x00,
  0x10, 0x00, 0x00, 0x00, 0xb0, 0x99, 0x80, 0xb7, 0xb5, 0xd6, 0xcd, 0xd8,
  0xb1, 0x8f, 0xbe, 0x9e, 0xa9, 0xd2, 0xb5, 0xe4, 0x66, 0xfe, 0xff, 0xff,
  0x04, 0x00, 0x00, 0x00, 0xa0, 0x00, 0x00, 0x00, 0x81, 0x0b, 0x32, 0x8b,
  0x52, 0xd9, 0xe1, 0xac, 0x96, 0xc2, 0x22, 0x4f, 0xab, 0x33, 0x50, 0x3a,
  0xd4, 0xde, 0x99, 0x22, 0x14, 0x83, 0x29, 0x91, 0x25, 0xa3, 0x81, 0x1c,
  0xc4, 0x99, 0x15, 0x8f, 0x08, 0x48, 0x1a, 0x38, 0xd6, 0xed, 0xc1, 0x53,
  0xb1, 0xc2, 0x32, 0xfa, 0xd9, 0x02, 0x81, 0x32, 0x04, 0xce, 0x41, 0x67,
  0x98, 0xf9, 0x81, 0x1e, 0xc3, 0x4b, 0xe0, 0x9a, 0x46, 0x1c, 0xc8, 0x8b,
  0x48, 0x95, 0x16, 0x56, 0xba, 0x29, 0x5c, 0xa3, 0x7f, 0xdb, 0xe6, 0x7e,
  0xa0, 0xec, 0xe1, 0x71, 0x58, 0x5d, 0x18, 0x07, 0xa2, 0x51, 0x5d, 0x85,
  0xac, 0x92, 0xca, 0x95, 0x32, 0x41, 0xde, 0x81, 0x24, 0x7e, 0xe7, 0x83,
  0x4d, 0x43, 0xf0, 0xf2, 0x48, 0x48, 0x2b, 0x18, 0x8a, 0xd3, 0x42, 0x81,
  0x32, 0x8f, 0xb8, 0x37, 0x1a, 0x81, 0xdb, 0x3e, 0xef, 0xb6, 0xfc, 0xcd,
  0x55, 0x85, 0x4f, 0x3f, 0xd2, 0xc7, 0x23, 0xa1, 0x1a, 0x6f, 0x11, 0xee,
  0xda, 0x7e, 0x09, 0x91, 0xa2, 0x55, 0x81, 0xba, 0xaa, 0xa0, 0xb2, 0x81,
  0x85, 0x49, 0x20, 0x38, 0x19, 0x13, 0xeb, 0xfd, 0x1f, 0x14, 0x4d, 0x49,
  0x12, 0xff, 0xff, 0xff, 0x04, 0x00, 0x00, 0x00, 0x28, 0x00, 0x00, 0x00,
  0x83, 0xfb, 0xff, 0xff, 0x32, 0x00, 0x00, 0x00, 0xfd, 0x07, 0x00, 0x00,
  0xf3, 0xfb, 0xff, 0xff, 0x13, 0xfd, 0xff, 0xff, 0xaf, 0xfe, 0xff, 0xff,
  0xb9, 0xfe, 0xff, 0xff, 0x0f, 0xfd, 0xff, 0xff, 0x75, 0xff, 0xff, 0xff,
  0x75, 0x04, 0x00, 0x00, 0x46, 0xff, 0xff, 0xff, 0x04, 0x00, 0x00, 0x00,
  0x08, 0x00, 0x00, 0x00, 0x01, 0x00, 0x00, 0x00, 0x02, 0x00, 0x00, 0x00,
  0xdc, 0xeb, 0xff, 0xff, 0xe0, 0xeb, 0xff, 0xff, 0x0f, 0x00, 0x00, 0x00,
  0x4d, 0x4c, 0x49, 0x52, 0x20, 0x43, 0x6f, 0x6e, 0x76, 0x65, 0x72, 0x74,
  0x65, 0x64, 0x2e, 0x00, 0x01, 0x00, 0x00, 0x00, 0x14, 0x00, 0x00, 0x00,
  0x00, 0x00, 0x0e, 0x00, 0x18, 0x00, 0x14, 0x00, 0x10, 0x00, 0x0c, 0x00,
  0x08, 0x00, 0x04, 0x00, 0x0e, 0x00, 0x00, 0x00, 0x14, 0x00, 0x00, 0x00,
  0x1c, 0x00, 0x00, 0x00, 0x18, 0x03, 0x00, 0x00, 0x1c, 0x03, 0x00, 0x00,
  0x20, 0x03, 0x00, 0x00, 0x04, 0x00, 0x00, 0x00, 0x6d, 0x61, 0x69, 0x6e,
  0x00, 0x00, 0x00, 0x00, 0x0c, 0x00, 0x00, 0x00, 0xb4, 0x02, 0x00, 0x00,
  0x70, 0x02, 0x00, 0x00, 0x2c, 0x02, 0x00, 0x00, 0xec, 0x01, 0x00, 0x00,
  0x98, 0x01, 0x00, 0x00, 0x58, 0x01, 0x00, 0x00, 0x24, 0x01, 0x00, 0x00,
  0xf0, 0x00, 0x00, 0x00, 0xac, 0x00, 0x00, 0x00, 0x78, 0x00, 0x00, 0x00,
  0x40, 0x00, 0x00, 0x00, 0x04, 0x00, 0x00, 0x00, 0xca, 0xfd, 0xff, 0xff,
  0x1c, 0x00, 0x00, 0x00, 0x00, 0x00, 0x00, 0x09, 0x1c, 0x00, 0x00, 0x00,
  0x20, 0x00, 0x00, 0x00, 0x06, 0x00, 0x00, 0x00, 0x00, 0x00, 0x06, 0x00,
  0x08, 0x00, 0x04, 0x00, 0x06, 0x00, 0x00, 0x00, 0x00, 0x00, 0x80, 0x3f,
  0x01, 0x00, 0x00, 0x00, 0x19, 0x00, 0x00, 0x00, 0x01, 0x00, 0x00, 0x00,
  0x18, 0x00, 0x00, 0x00, 0x02, 0xfe, 0xff, 0xff, 0x14, 0x00, 0x00, 0x00,
  0x00, 0x00, 0x00, 0x08, 0x10, 0x00, 0x00, 0x00, 0x14, 0x00, 0x00, 0x00,
  0x05, 0x00, 0x00, 0x00, 0xb8, 0xec, 0xff, 0xff, 0x01, 0x00, 0x00, 0x00,
  0x18, 0x00, 0x00, 0x00, 0x03, 0x00, 0x00, 0x00, 0x17, 0x00, 0x00, 0x00,
  0x03, 0x00, 0x00, 0x00, 0x02, 0x00, 0x00, 0x00, 0x36, 0xfe, 0xff, 0xff,
  0x14, 0x00, 0x00, 0x00, 0x00, 0x00, 0x00, 0x1b, 0x10, 0x00, 0x00, 0x00,
  0x14, 0x00, 0x00, 0x00, 0x04, 0x00, 0x00, 0x00, 0xec, 0xec, 0xff, 0xff,
  0x01, 0x00, 0x00, 0x00, 0x17, 0x00, 0x00, 0x00, 0x02, 0x00, 0x00, 0x00,
  0x16, 0x00, 0x00, 0x00, 0x01, 0x00, 0x00, 0x00, 0x66, 0xfe, 0xff, 0xff,
  0x14, 0x00, 0x00, 0x00, 0x00, 0x00, 0x00, 0x05, 0x24, 0x00, 0x00, 0x00,
  0x28, 0x00, 0x00, 0x00, 0x03, 0x00, 0x00, 0x00, 0x22, 0xff, 0xff, 0xff,
  0x02, 0x00, 0x00, 0x00, 0x02, 0x00, 0x00, 0x00, 0x02, 0x00, 0x00, 0x00,
  0x02, 0x00, 0x00, 0x00, 0x00, 0x00, 0x00, 0x01, 0x01, 0x00, 0x00, 0x00,
  0x16, 0x00, 0x00, 0x00, 0x01, 0x00, 0x00, 0x00, 0x15, 0x00, 0x00, 0x00,
  0xa6, 0xfe, 0xff, 0xff, 0x14, 0x00, 0x00, 0x00, 0x00, 0x00, 0x00, 0x0b,
  0x10, 0x00, 0x00, 0x00, 0x14, 0x00, 0x00, 0x00, 0x02, 0x00, 0x00, 0x00,
  0x5c, 0xed, 0xff, 0xff, 0x01, 0x00, 0x00, 0x00, 0x15, 0x00, 0x00, 0x00,
  0x02, 0x00, 0x00, 0x00, 0x14, 0x00, 0x00, 0x00, 0x04, 0x00, 0x00, 0x00,
  0xd6, 0xfe, 0xff, 0xff, 0x14, 0x00, 0x00, 0x00, 0x00, 0x00, 0x00, 0x15,
  0x10, 0x00, 0x00, 0x00, 0x14, 0x00, 0x00, 0x00, 0x01, 0x00, 0x00, 0x00,
  0x8c, 0xed, 0xff, 0xff, 0x01, 0x00, 0x00, 0x00, 0x14, 0x00, 0x00, 0x00,
  0x02, 0x00, 0x00, 0x00, 0x13, 0x00, 0x00, 0x00, 0x05, 0x00, 0x00, 0x00,
  0xc6, 0xfe, 0xff, 0xff, 0x10, 0x00, 0x00, 0x00, 0x00, 0x00, 0x00, 0x01,
  0x18, 0x00, 0x00, 0x00, 0x1c, 0x00, 0x00, 0x00, 0xb8, 0xfe, 0xff, 0xff,
  0x00, 0x00, 0x00, 0x01, 0x01, 0x00, 0x00, 0x00, 0x01, 0x00, 0x00, 0x00,
  0x01, 0x00, 0x00, 0x00, 0x13, 0x00, 0x00, 0x00, 0x03, 0x00, 0x00, 0x00,
  0x12, 0x00, 0x00, 0x00, 0x07, 0x00, 0x00, 0x00, 0x06, 0x00, 0x00, 0x00,
  0x42, 0xff, 0xff, 0xff, 0x24, 0x00, 0x00, 0x00, 0x00, 0x00, 0x00, 0x05,
  0x34, 0x00, 0x00, 0x00, 0x38, 0x00, 0x00, 0x00, 0x03, 0x00, 0x00, 0x00,
  0x00, 0x00, 0x0e, 0x00, 0x18, 0x00, 0x17, 0x00, 0x10, 0x00, 0x0c, 0x00,
  0x08, 0x00, 0x04, 0x00, 0x0e, 0x00, 0x00, 0x00, 0x02, 0x00, 0x00, 0x00,
  0x02, 0x00, 0x00, 0x00, 0x02, 0x00, 0x00, 0x00, 0x02, 0x00, 0x00, 0x00,
  0x00, 0x00, 0x00, 0x01, 0x01, 0x00, 0x00, 0x00, 0x12, 0x00, 0x00, 0x00,
  0x01, 0x00, 0x00, 0x00, 0x11, 0x00, 0x00, 0x00, 0x52, 0xff, 0xff, 0xff,
  0x10, 0x00, 0x00, 0x00, 0x00, 0x00, 0x00, 0x01, 0x18, 0x00, 0x00, 0x00,
  0x1c, 0x00, 0x00, 0x00, 0x44, 0xff, 0xff, 0xff, 0x00, 0x00, 0x00, 0x01,
  0x01, 0x00, 0x00, 0x00, 0x01, 0x00, 0x00, 0x00, 0x01, 0x00, 0x00, 0x00,
  0x11, 0x00, 0x00, 0x00, 0x03, 0x00, 0x00, 0x00, 0x10, 0x00, 0x00, 0x00,
  0x09, 0x00, 0x00, 0x00, 0x08, 0x00, 0x00, 0x00, 0xce, 0xff, 0xff, 0xff,
  0x14, 0x00, 0x00, 0x00, 0x00, 0x00, 0x00, 0x0b, 0x10, 0x00, 0x00, 0x00,
  0x14, 0x00, 0x00, 0x00, 0x02, 0x00, 0x00, 0x00, 0x84, 0xee, 0xff, 0xff,
  0x01, 0x00, 0x00, 0x00, 0x10, 0x00, 0x00, 0x00, 0x02, 0x00, 0x00, 0x00,
  0x0f, 0x00, 0x00, 0x00, 0x0a, 0x00, 0x00, 0x00, 0x00, 0x00, 0x0e, 0x00,
  0x18, 0x00, 0x14, 0x00, 0x10, 0x00, 0x0c, 0x00, 0x0b, 0x00, 0x04, 0x00,
  0x0e, 0x00, 0x00, 0x00, 0x14, 0x00, 0x00, 0x00, 0x00, 0x00, 0x00, 0x15,
  0x10, 0x00, 0x00, 0x00, 0x14, 0x00, 0x00, 0x00, 0x01, 0x00, 0x00, 0x00,
  0xc4, 0xee, 0xff, 0xff, 0x01, 0x00, 0x00, 0x00, 0x0f, 0x00, 0x00, 0x00,
  0x02, 0x00, 0x00, 0x00, 0x0e, 0x00, 0x00, 0x00, 0x0b, 0x00, 0x00, 0x00,
  0x00, 0x00, 0x0e, 0x00, 0x14, 0x00, 0x00, 0x00, 0x10, 0x00, 0x0c, 0x00,
  0x0b, 0x00, 0x04, 0x00, 0x0e, 0x00, 0x00, 0x00, 0x1c, 0x00, 0x00, 0x00,
  0x00, 0x00, 0x00, 0x01, 0x24, 0x00, 0x00, 0x00, 0x28, 0x00, 0x00, 0x00,
  0x0c, 0x00, 0x10, 0x00, 0x00, 0x00, 0x0c, 0x00, 0x08, 0x00, 0x07, 0x00,
  0x0c, 0x00, 0x00, 0x00, 0x00, 0x00, 0x00, 0x01, 0x01, 0x00, 0x00, 0x00,
  0x01, 0x00, 0x00, 0x00, 0x01, 0x00, 0x00, 0x00, 0x0e, 0x00, 0x00, 0x00,
  0x03, 0x00, 0x00, 0x00, 0x00, 0x00, 0x00, 0x00, 0x0d, 0x00, 0x00, 0x00,
  0x0c, 0x00, 0x00, 0x00, 0x01, 0x00, 0x00, 0x00, 0x19, 0x00, 0x00, 0x00,
  0x01, 0x00, 0x00, 0x00, 0x00, 0x00, 0x00, 0x00, 0x1a, 0x00, 0x00, 0x00,
  0xf4, 0x10, 0x00, 0x00, 0x98, 0x10, 0x00, 0x00, 0xb0, 0x0f, 0x00, 0x00,
  0xdc, 0x0e, 0x00, 0x00, 0x78, 0x0e, 0x00, 0x00, 0x14, 0x0e, 0x00, 0x00,
  0x00, 0x0d, 0x00, 0x00, 0xdc, 0x0b, 0x00, 0x00, 0x28, 0x0b, 0x00, 0x00,
  0x64, 0x0a, 0x00, 0x00, 0x00, 0x0a, 0x00, 0x00, 0x9c, 0x09, 0x00, 0x00,
  0xe8, 0x08, 0x00, 0x00, 0x24, 0x08, 0x00, 0x00, 0x50, 0x07, 0x00, 0x00,
  0xac, 0x06, 0x00, 0x00, 0x08, 0x06, 0x00, 0x00, 0x14, 0x05, 0x00, 0x00,
  0x78, 0x04, 0x00, 0x00, 0xa4, 0x03, 0x00, 0x00, 0xf8, 0x02, 0x00, 0x00,
  0x4c, 0x02, 0x00, 0x00, 0xb0, 0x01, 0x00, 0x00, 0x1c, 0x01, 0x00, 0x00,
  0x80, 0x00, 0x00, 0x00, 0x04, 0x00, 0x00, 0x00, 0x8a, 0xef, 0xff, 0xff,
  0x00, 0x00, 0x00, 0x01, 0x18, 0x00, 0x00, 0x00, 0x20, 0x00, 0x00, 0x00,
  0x3c, 0x00, 0x00, 0x00, 0x1a, 0x00, 0x00, 0x00, 0x00, 0x00, 0x00, 0x09,
  0x50, 0x00, 0x00, 0x00, 0x02, 0x00, 0x00, 0x00, 0xff, 0xff, 0xff, 0xff,
  0x0a, 0x00, 0x00, 0x00, 0x6c, 0xef, 0xff, 0xff, 0x08, 0x00, 0x00, 0x00,
  0x10, 0x00, 0x00, 0x00, 0x01, 0x00, 0x00, 0x00, 0x80, 0xff, 0xff, 0xff,
  0xff, 0xff, 0xff, 0xff, 0x01, 0x00, 0x00, 0x00, 0x00, 0x00, 0x80, 0x3b,
  0x1b, 0x00, 0x00, 0x00, 0x53, 0x74, 0x61, 0x74, 0x65, 0x66, 0x75, 0x6c,
  0x50, 0x61, 0x72, 0x74, 0x69, 0x74, 0x69, 0x6f, 0x6e, 0x65, 0x64, 0x43,
  0x61, 0x6c, 0x6c, 0x5f, 0x31, 0x3a, 0x30, 0x00, 0x02, 0x00, 0x00, 0x00,
  0x01, 0x00, 0x00, 0x00, 0x0a, 0x00, 0x00, 0x00, 0x02, 0xf0, 0xff, 0xff,
  0x00, 0x00, 0x00, 0x01, 0x18, 0x00, 0x00, 0x00, 0x20, 0x00, 0x00, 0x00,
  0x3c, 0x00, 0x00, 0x00, 0x19, 0x00, 0x00, 0x00, 0x00, 0x00, 0x00, 0x09,
  0x70, 0x00, 0x00, 0x00, 0x02, 0x00, 0x00, 0x00, 0xff, 0xff, 0xff, 0xff,
  0x0a, 0x00, 0x00, 0x00, 0xe4, 0xef, 0xff, 0xff, 0x08, 0x00, 0x00, 0x00,
  0x10, 0x00, 0x00, 0x00, 0x01, 0x00, 0x00, 0x00, 0x05, 0x00, 0x00, 0x00,
  0x00, 0x00, 0x00, 0x00, 0x01, 0x00, 0x00, 0x00, 0x7d, 0x4d, 0xeb, 0x3d,
  0x38, 0x00, 0x00, 0x00, 0x73, 0x65, 0x71, 0x75, 0x65, 0x6e, 0x74, 0x69,
  0x61, 0x6c, 0x5f, 0x31, 0x2f, 0x64, 0x65, 0x6e, 0x73, 0x65, 0x5f, 0x31,
  0x2f, 0x4d, 0x61, 0x74, 0x4d, 0x75, 0x6c, 0x3b, 0x73, 0x65, 0x71, 0x75,
  0x65, 0x6e, 0x74, 0x69, 0x61, 0x6c, 0x5f, 0x31, 0x2f, 0x64, 0x65, 0x6e,
  0x73, 0x65, 0x5f, 0x31, 0x2f, 0x42, 0x69, 0x61, 0x73, 0x41, 0x64, 0x64,
  0x00, 0x00, 0x00, 0x00, 0x02, 0x00, 0x00, 0x00, 0x01, 0x00, 0x00, 0x00,
  0x0a, 0x00, 0x00, 0x00, 0x9a, 0xf0, 0xff, 0xff, 0x00, 0x00, 0x00, 0x01,
  0x18, 0x00, 0x00, 0x00, 0x20, 0x00, 0x00, 0x00, 0x40, 0x00, 0x00, 0x00,
  0x18, 0x00, 0x00, 0x00, 0x00, 0x00, 0x00, 0x09, 0x68, 0x00, 0x00, 0x00,
  0x02, 0x00, 0x00, 0x00, 0xff, 0xff, 0xff, 0xff, 0x10, 0x00, 0x00, 0x00,
  0x7c, 0xf0, 0xff, 0xff, 0x08, 0x00, 0x00, 0x00, 0x14, 0x00, 0x00, 0x00,
  0x01, 0x00, 0x00, 0x00, 0xcc, 0xff, 0xff, 0xff, 0xff, 0xff, 0xff, 0xff,
  0x00, 0x00, 0x00, 0x00, 0x01, 0x00, 0x00, 0x00, 0x98, 0x6a, 0x8d, 0x3c,
  0x2c, 0x00, 0x00, 0x00, 0x73, 0x65, 0x71, 0x75, 0x65, 0x6e, 0x74, 0x69,
  0x61, 0x6c, 0x5f, 0x31, 0x2f, 0x67, 0x6c, 0x6f, 0x62, 0x61, 0x6c, 0x5f,
  0x61, 0x76, 0x65, 0x72, 0x61, 0x67, 0x65, 0x5f, 0x70, 0x6f, 0x6f, 0x6c,
  0x69, 0x6e, 0x67, 0x32, 0x64, 0x5f, 0x31, 0x2f, 0x4d, 0x65, 0x61, 0x6e,
  0x00, 0x00, 0x00, 0x00, 0x02, 0x00, 0x00, 0x00, 0x01, 0x00, 0x00, 0x00,
  0x10, 0x00, 0x00, 0x00, 0x2a, 0xf1, 0xff, 0xff, 0x00, 0x00, 0x00, 0x01,
  0x18, 0x00, 0x00, 0x00, 0x28, 0x00, 0x00, 0x00, 0x44, 0x00, 0x00, 0x00,
  0x17, 0x00, 0x00, 0x00, 0x00, 0x00, 0x00, 0x09, 0x68, 0x00, 0x00, 0x00,
  0x04, 0x00, 0x00, 0x00, 0xff, 0xff, 0xff, 0xff, 0x07, 0x00, 0x00, 0x00,
  0x07, 0x00, 0x00, 0x00, 0x10, 0x00, 0x00, 0x00, 0x14, 0xf1, 0xff, 0xff,
  0x08, 0x00, 0x00, 0x00, 0x10, 0x00, 0x00, 0x00, 0x01, 0x00, 0x00, 0x00,
  0x87, 0xff, 0xff, 0xff, 0xff, 0xff, 0xff, 0xff, 0x01, 0x00, 0x00, 0x00,
  0x86, 0x42, 0x57, 0x3e, 0x28, 0x00, 0x00, 0x00, 0x73, 0x65, 0x71, 0x75,
  0x65, 0x6e, 0x74, 0x69, 0x61, 0x6c, 0x5f, 0x31, 0x2f, 0x6d, 0x61, 0x78,
  0x5f, 0x70, 0x6f, 0x6f, 0x6c, 0x69, 0x6e, 0x67, 0x32, 0x64, 0x5f, 0x31,
  0x5f, 0x32, 0x2f, 0x4d, 0x61, 0x78, 0x50, 0x6f, 0x6f, 0x6c, 0x32, 0x64,
  0x00, 0x00, 0x00, 0x00, 0x04, 0x00, 0x00, 0x00, 0x01, 0x00, 0x00, 0x00,
  0x07, 0x00, 0x00, 0x00, 0x07, 0x00, 0x00, 0x00, 0x10, 0x00, 0x00, 0x00,
  0xc2, 0xf1, 0xff, 0xff, 0x00, 0x00, 0x00, 0x01, 0x18, 0x00, 0x00, 0x00,
  0x28, 0x00, 0x00, 0x00, 0x48, 0x00, 0x00, 0x00, 0x16, 0x00, 0x00, 0x00,
  0x00, 0x00, 0x00, 0x09, 0x78, 0x00, 0x00, 0x00, 0x04, 0x00, 0x00, 0x00,
  0xff, 0xff, 0xff, 0xff, 0x0e, 0x00, 0x00, 0x00, 0x0e, 0x00, 0x00, 0x00,
  0x10, 0x00, 0x00, 0x00, 0xac, 0xf1, 0xff, 0xff, 0x08, 0x00, 0x00, 0x00,
  0x14, 0x00, 0x00, 0x00, 0x01, 0x00, 0x00, 0x00, 0x87, 0xff, 0xff, 0xff,
  0xff, 0xff, 0xff, 0xff, 0x00, 0x00, 0x00, 0x00, 0x01, 0x00, 0x00, 0x00,
  0x86, 0x42, 0x57, 0x3e, 0x34, 0x00, 0x00, 0x00, 0x73, 0x65, 0x71, 0x75,
  0x65, 0x6e, 0x74, 0x69, 0x61, 0x6c, 0x5f, 0x31, 0x2f, 0x62, 0x61, 0x74,
  0x63, 0x68, 0x5f, 0x6e, 0x6f, 0x72, 0x6d, 0x61, 0x6c, 0x69, 0x7a, 0x61,
  0x74, 0x69, 0x6f, 0x6e, 0x5f, 0x31, 0x5f, 0x32, 0x2f, 0x62, 0x61, 0x74,
  0x63, 0x68, 0x6e, 0x6f, 0x72, 0x6d, 0x2f, 0x61, 0x64, 0x64, 0x5f, 0x31,
  0x00, 0x00, 0x00, 0x00, 0x04, 0x00, 0x00, 0x00, 0x01, 0x00, 0x00, 0x00,
  0x0e, 0x00, 0x00, 0x00, 0x0e, 0x00, 0x00, 0x00, 0x10, 0x00, 0x00, 0x00,
  0x6a, 0xf2, 0xff, 0xff, 0x00, 0x00, 0x00, 0x01, 0x18, 0x00, 0x00, 0x00,
  0x28, 0x00, 0x00, 0x00, 0x48, 0x00, 0x00, 0x00, 0x15, 0x00, 0x00, 0x00,
  0x00, 0x00, 0x00, 0x09, 0x78, 0x00, 0x00, 0x00, 0x04, 0x00, 0x00, 0x00,
  0xff, 0xff, 0xff, 0xff, 0x0e, 0x00, 0x00, 0x00, 0x0e, 0x00, 0x00, 0x00,
  0x10, 0x00, 0x00, 0x00, 0x54, 0xf2, 0xff, 0xff, 0x08, 0x00, 0x00, 0x00,
  0x14, 0x00, 0x00, 0x00, 0x01, 0x00, 0x00, 0x00, 0x86, 0xff, 0xff, 0xff,
  0xff, 0xff, 0xff, 0xff, 0x00, 0x00, 0x00, 0x00, 0x01, 0x00, 0x00, 0x00,
  0x5a, 0x1c, 0x5b, 0x3e, 0x34, 0x00, 0x00, 0x00, 0x73, 0x65, 0x71, 0x75,
  0x65, 0x6e, 0x74, 0x69, 0x61, 0x6c, 0x5f, 0x31, 0x2f, 0x62, 0x61, 0x74,
  0x63, 0x68, 0x5f, 0x6e, 0x6f, 0x72, 0x6d, 0x61, 0x6c, 0x69, 0x7a, 0x61,
  0x74, 0x69, 0x6f, 0x6e, 0x5f, 0x31, 0x5f, 0x32, 0x2f, 0x62, 0x61, 0x74,
  0x63, 0x68, 0x6e, 0x6f, 0x72, 0x6d, 0x2f, 0x6d, 0x75, 0x6c, 0x5f, 0x31,
  0x00, 0x00, 0x00, 0x00, 0x04, 0x00, 0x00, 0x00, 0x01, 0x00, 0x00, 0x00,
  0x0e, 0x00, 0x00, 0x00, 0x0e, 0x00, 0x00, 0x00, 0x10, 0x00, 0x00, 0x00,
  0x12, 0xf3, 0xff, 0xff, 0x00, 0x00, 0x00, 0x01, 0x18, 0x00, 0x00, 0x00,
  0x28, 0x00, 0x00, 0x00, 0x44, 0x00, 0x00, 0x00, 0x14, 0x00, 0x00, 0x00,
  0x00, 0x00, 0x00, 0x09, 0xa0, 0x00, 0x00, 0x00, 0x04, 0x00, 0x00, 0x00,
  0xff, 0xff, 0xff, 0xff, 0x0e, 0x00, 0x00, 0x00, 0x0e, 0x00, 0x00, 0x00,
  0x10, 0x00, 0x00, 0x00, 0xfc, 0xf2, 0xff, 0xff, 0x08, 0x00, 0x00, 0x00,
  0x10, 0x00, 0x00, 0x00, 0x01, 0x00, 0x00, 0x00, 0x80, 0xff, 0xff, 0xff,
  0xff, 0xff, 0xff, 0xff, 0x01, 0x00, 0x00, 0x00, 0x1a, 0x98, 0x55, 0x3e,
  0x61, 0x00, 0x00, 0x00, 0x73, 0x65, 0x71, 0x75, 0x65, 0x6e, 0x74, 0x69,
  0x61, 0x6c, 0x5f, 0x31, 0x2f, 0x63, 0x6f, 0x6e, 0x76, 0x32, 0x64, 0x5f,
  0x32, 0x5f, 0x31, 0x2f, 0x52, 0x65, 0x6c, 0x75, 0x3b, 0x73, 0x65, 0x71,
  0x75, 0x65, 0x6e, 0x74, 0x69, 0x61, 0x6c, 0x5f, 0x31, 0x2f, 0x63, 0x6f,
  0x6e, 0x76, 0x32, 0x64, 0x5f, 0x32, 0x5f, 0x31, 0x2f, 0x42, 0x69, 0x61,
  0x73, 0x41, 0x64, 0x64, 0x3b, 0x73, 0x65, 0x71, 0x75, 0x65, 0x6e, 0x74,
  0x69, 0x61, 0x6c, 0x5f, 0x31, 0x2f, 0x63, 0x6f, 0x6e, 0x76, 0x32, 0x64,
  0x5f, 0x32, 0x5f, 0x31, 0x2f, 0x63, 0x6f, 0x6e, 0x76, 0x6f, 0x6c, 0x75,
  0x74, 0x69, 0x6f, 0x6e, 0x3b, 0x00, 0x00, 0x00, 0x04, 0x00, 0x00, 0x00,
  0x01, 0x00, 0x00, 0x00, 0x0e, 0x00, 0x00, 0x00, 0x0e, 0x00, 0x00, 0x00,
  0x10, 0x00, 0x00, 0x00, 0xe2, 0xf3, 0xff, 0xff, 0x00, 0x00, 0x00, 0x01,
  0x18, 0x00, 0x00, 0x00, 0x28, 0x00, 0x00, 0x00, 0x48, 0x00, 0x00, 0x00,
  0x13, 0x00, 0x00, 0x00, 0x00, 0x00, 0x00, 0x09, 0x68, 0x00, 0x00, 0x00,
  0x04, 0x00, 0x00, 0x00, 0xff, 0xff, 0xff, 0xff, 0x0e, 0x00, 0x00, 0x00,
  0x0e, 0x00, 0x00, 0x00, 0x08, 0x00, 0x00, 0x00, 0xcc, 0xf3, 0xff, 0xff,
  0x08, 0x00, 0x00, 0x00, 0x14, 0x00, 0x00, 0x00, 0x01, 0x00, 0x00, 0x00,
  0x80, 0xff, 0xff, 0xff, 0xff, 0xff, 0xff, 0xff, 0x00, 0x00, 0x00, 0x00,
  0x01, 0x00, 0x00, 0x00, 0x99, 0x02, 0x3b, 0x3d, 0x26, 0x00, 0x00, 0x00,
  0x73, 0x65, 0x71, 0x75, 0x65, 0x6e, 0x74, 0x69, 0x61, 0x6c, 0x5f, 0x31,
  0x2f, 0x6d, 0x61, 0x78, 0x5f, 0x70, 0x6f, 0x6f, 0x6c, 0x69, 0x6e, 0x67,
  0x32, 0x64, 0x5f, 0x31, 0x2f, 0x4d, 0x61, 0x78, 0x50, 0x6f, 0x6f, 0x6c,
  0x32, 0x64, 0x00, 0x00, 0x04, 0x00, 0x00, 0x00, 0x01, 0x00, 0x00, 0x00,
  0x0e, 0x00, 0x00, 0x00, 0x0e, 0x00, 0x00, 0x00, 0x08, 0x00, 0x00, 0x00,
  0x7a, 0xf4, 0xff, 0xff, 0x00, 0x00, 0x00, 0x01, 0x18, 0x00, 0x00, 0x00,
  0x28, 0x00, 0x00, 0x00, 0x44, 0x00, 0x00, 0x00, 0x12, 0x00, 0x00, 0x00,
  0x00, 0x00, 0x00, 0x09, 0xc0, 0x00, 0x00, 0x00, 0x04, 0x00, 0x00, 0x00,
  0xff, 0xff, 0xff, 0xff, 0x1c, 0x00, 0x00, 0x00, 0x1c, 0x00, 0x00, 0x00,
  0x08, 0x00, 0x00, 0x00, 0x64, 0xf4, 0xff, 0xff, 0x08, 0x00, 0x00, 0x00,
  0x10, 0x00, 0x00, 0x00, 0x01, 0x00, 0x00, 0x00, 0x80, 0xff, 0xff, 0xff,
  0xff, 0xff, 0xff, 0xff, 0x01, 0x00, 0x00, 0x00, 0x99, 0x02, 0x3b, 0x3d,
  0x80, 0x00, 0x00, 0x00, 0x73, 0x65, 0x71, 0x75, 0x65, 0x6e, 0x74, 0x69,
  0x61, 0x6c, 0x5f, 0x31, 0x2f, 0x63, 0x6f, 0x6e, 0x76, 0x32, 0x64, 0x5f,
  0x31, 0x5f, 0x32, 0x2f, 0x52, 0x65, 0x6c, 0x75, 0x3b, 0x73, 0x65, 0x71,
  0x75, 0x65, 0x6e, 0x74, 0x69, 0x61, 0x6c, 0x5f, 0x31, 0x2f, 0x63, 0x6f,
  0x6e, 0x76, 0x32, 0x64, 0x5f, 0x31, 0x5f, 0x32, 0x2f, 0x42, 0x69, 0x61,
  0x73, 0x41, 0x64, 0x64, 0x3b, 0x73, 0x65, 0x71, 0x75, 0x65, 0x6e, 0x74,
  0x69, 0x61, 0x6c, 0x5f, 0x31, 0x2f, 0x63, 0x6f, 0x6e, 0x76, 0x32, 0x64,
  0x5f, 0x31, 0x5f, 0x32, 0x2f, 0x63, 0x6f, 0x6e, 0x76, 0x6f, 0x6c, 0x75,
  0x74, 0x69, 0x6f, 0x6e, 0x3b, 0x73, 0x65, 0x71, 0x75, 0x65, 0x6e, 0x74,
  0x69, 0x61, 0x6c, 0x5f, 0x31, 0x2f, 0x63, 0x6f, 0x6e, 0x76, 0x32, 0x64,
  0x5f, 0x31, 0x5f, 0x32, 0x2f, 0x53, 0x71, 0x75, 0x65, 0x65, 0x7a, 0x65,
  0x00, 0x00, 0x00, 0x00, 0x04, 0x00, 0x00, 0x00, 0x01, 0x00, 0x00, 0x00,
  0x1c, 0x00, 0x00, 0x00, 0x1c, 0x00, 0x00, 0x00, 0x08, 0x00, 0x00, 0x00,
  0x6a, 0xf5, 0xff, 0xff, 0x00, 0x00, 0x00, 0x01, 0x18, 0x00, 0x00, 0x00,
  0x28, 0x00, 0x00, 0x00, 0x44, 0x00, 0x00, 0x00, 0x11, 0x00, 0x00, 0x00,
  0x00, 0x00, 0x00, 0x09, 0x70, 0x00, 0x00, 0x00, 0x04, 0x00, 0x00, 0x00,
  0xff, 0xff, 0xff, 0xff, 0x1c, 0x00, 0x00, 0x00, 0x1c, 0x00, 0x00, 0x00,
  0x08, 0x00, 0x00, 0x00, 0x54, 0xf5, 0xff, 0xff, 0x08, 0x00, 0x00, 0x00,
  0x10, 0x00, 0x00, 0x00, 0x01, 0x00, 0x00, 0x00, 0xa1, 0xff, 0xff, 0xff,
  0xff, 0xff, 0xff, 0xff, 0x01, 0x00, 0x00, 0x00, 0x4f, 0x99, 0x34, 0x3d,
  0x32, 0x00, 0x00, 0x00, 0x73, 0x65, 0x71, 0x75, 0x65, 0x6e, 0x74, 0x69,
  0x61, 0x6c, 0x5f, 0x31, 0x2f, 0x62, 0x61, 0x74, 0x63, 0x68, 0x5f, 0x6e,
  0x6f, 0x72, 0x6d, 0x61, 0x6c, 0x69, 0x7a, 0x61, 0x74, 0x69, 0x6f, 0x6e,
  0x5f, 0x31, 0x2f, 0x62, 0x61, 0x74, 0x63, 0x68, 0x6e, 0x6f, 0x72, 0x6d,
  0x2f, 0x61, 0x64, 0x64, 0x5f, 0x31, 0x00, 0x00, 0x04, 0x00, 0x00, 0x00,
  0x01, 0x00, 0x00, 0x00, 0x1c, 0x00, 0x00, 0x00, 0x1c, 0x00, 0x00, 0x00,
  0x08, 0x00, 0x00, 0x00, 0x0a, 0xf6, 0xff, 0xff, 0x00, 0x00, 0x00, 0x01,
  0x18, 0x00, 0x00, 0x00, 0x28, 0x00, 0x00, 0x00, 0x44, 0x00, 0x00, 0x00,
  0x10, 0x00, 0x00, 0x00, 0x00, 0x00, 0x00, 0x09, 0x70, 0x00, 0x00, 0x00,
  0x04, 0x00, 0x00, 0x00, 0xff, 0xff, 0xff, 0xff, 0x1c, 0x00, 0x00, 0x00,
  0x1c, 0x00, 0x00, 0x00, 0x08, 0x00, 0x00, 0x00, 0xf4, 0xf5, 0xff, 0xff,
  0x08, 0x00, 0x00, 0x00, 0x10, 0x00, 0x00, 0x00, 0x01, 0x00, 0x00, 0x00,
  0x9e, 0xff, 0xff, 0xff, 0xff, 0xff, 0xff, 0xff, 0x01, 0x00, 0x00, 0x00,
  0x0d, 0x9d, 0x46, 0x3d, 0x32, 0x00, 0x00, 0x00, 0x73, 0x65, 0x71, 0x75,
  0x65, 0x6e, 0x74, 0x69, 0x61, 0x6c, 0x5f, 0x31, 0x2f, 0x62, 0x61, 0x74,
  0x63, 0x68, 0x5f, 0x6e, 0x6f, 0x72, 0x6d, 0x61, 0x6c, 0x69, 0x7a, 0x61,
  0x74, 0x69, 0x6f, 0x6e, 0x5f, 0x31, 0x2f, 0x62, 0x61, 0x74, 0x63, 0x68,
  0x6e, 0x6f, 0x72, 0x6d, 0x2f, 0x6d, 0x75, 0x6c, 0x5f, 0x31, 0x00, 0x00,
  0x04, 0x00, 0x00, 0x00, 0x01, 0x00, 0x00, 0x00, 0x1c, 0x00, 0x00, 0x00,
  0x1c, 0x00, 0x00, 0x00, 0x08, 0x00, 0x00, 0x00, 0xaa, 0xf6, 0xff, 0xff,
  0x00, 0x00, 0x00, 0x01, 0x18, 0x00, 0x00, 0x00, 0x28, 0x00, 0x00, 0x00,
  0x48, 0x00, 0x00, 0x00, 0x0f, 0x00, 0x00, 0x00, 0x00, 0x00, 0x00, 0x09,
  0xa0, 0x00, 0x00, 0x00, 0x04, 0x00, 0x00, 0x00, 0xff, 0xff, 0xff, 0xff,
  0x1c, 0x00, 0x00, 0x00, 0x1c, 0x00, 0x00, 0x00, 0x08, 0x00, 0x00, 0x00,
  0x94, 0xf6, 0xff, 0xff, 0x08, 0x00, 0x00, 0x00, 0x14, 0x00, 0x00, 0x00,
  0x01, 0x00, 0x00, 0x00, 0x80, 0xff, 0xff, 0xff, 0xff, 0xff, 0xff, 0xff,
  0x00, 0x00, 0x00, 0x00, 0x01, 0x00, 0x00, 0x00, 0x59, 0xfb, 0x2e, 0x3d,
  0x5c, 0x00, 0x00, 0x00, 0x73, 0x65, 0x71, 0x75, 0x65, 0x6e, 0x74, 0x69,
  0x61, 0x6c, 0x5f, 0x31, 0x2f, 0x63, 0x6f, 0x6e, 0x76, 0x32, 0x64, 0x5f,
  0x31, 0x2f, 0x52, 0x65, 0x6c, 0x75, 0x3b, 0x73, 0x65, 0x71, 0x75, 0x65,
  0x6e, 0x74, 0x69, 0x61, 0x6c, 0x5f, 0x31, 0x2f, 0x63, 0x6f, 0x6e, 0x76,
  0x32, 0x64, 0x5f, 0x31, 0x2f, 0x42, 0x69, 0x61, 0x73, 0x41, 0x64, 0x64,
  0x3b, 0x73, 0x65, 0x71, 0x75, 0x65, 0x6e, 0x74, 0x69, 0x61, 0x6c, 0x5f,
  0x31, 0x2f, 0x63, 0x6f, 0x6e, 0x76, 0x32, 0x64, 0x5f, 0x31, 0x2f, 0x63,
  0x6f, 0x6e, 0x76, 0x6f, 0x6c, 0x75, 0x74, 0x69, 0x6f, 0x6e, 0x3b, 0x31,
  0x00, 0x00, 0x00, 0x00, 0x04, 0x00, 0x00, 0x00, 0x01, 0x00, 0x00, 0x00,
  0x1c, 0x00, 0x00, 0x00, 0x1c, 0x00, 0x00, 0x00, 0x08, 0x00, 0x00, 0x00,
  0xd2, 0xf7, 0xff, 0xff, 0x00, 0x00, 0x00, 0x01, 0x14, 0x00, 0x00, 0x00,
  0x88, 0x00, 0x00, 0x00, 0x0e, 0x00, 0x00, 0x00, 0x00, 0x00, 0x00, 0x09,
  0x94, 0x00, 0x00, 0x00, 0x4c, 0xf7, 0xff, 0xff, 0x08, 0x00, 0x00, 0x00,
  0x4c, 0x00, 0x00, 0x00, 0x08, 0x00, 0x00, 0x00, 0x00, 0x00, 0x00, 0x00,
  0x00, 0x00, 0x00, 0x00, 0x00, 0x00, 0x00, 0x00, 0x00, 0x00, 0x00, 0x00,
  0x00, 0x00, 0x00, 0x00, 0x00, 0x00, 0x00, 0x00, 0x00, 0x00, 0x00, 0x00,
  0x00, 0x00, 0x00, 0x00, 0x00, 0x00, 0x00, 0x00, 0x00, 0x00, 0x00, 0x00,
  0x00, 0x00, 0x00, 0x00, 0x00, 0x00, 0x00, 0x00, 0x00, 0x00, 0x00, 0x00,
  0x00, 0x00, 0x00, 0x00, 0x00, 0x00, 0x00, 0x00, 0x00, 0x00, 0x00, 0x00,
  0x00, 0x00, 0x00, 0x00, 0x08, 0x00, 0x00, 0x00, 0xba, 0x16, 0x50, 0x3b,
  0x82, 0xbd, 0x0e, 0x3b, 0x85, 0x81, 0x22, 0x3b, 0xd3, 0x52, 0x2e, 0x3b,
  0xc2, 0x29, 0x84, 0x3b, 0x8a, 0xa1, 0x17, 0x3b, 0xc5, 0xf8, 0x2d, 0x3b,
  0xf1, 0xad, 0x39, 0x3b, 0x13, 0x00, 0x00, 0x00, 0x74, 0x66, 0x6c, 0x2e,
  0x70, 0x73, 0x65, 0x75, 0x64, 0x6f, 0x5f, 0x71, 0x63, 0x6f, 0x6e, 0x73,
  0x74, 0x31, 0x31, 0x00, 0x04, 0x00, 0x00, 0x00, 0x08, 0x00, 0x00, 0x00,
  0x03, 0x00, 0x00, 0x00, 0x03, 0x00, 0x00, 0x00, 0x01, 0x00, 0x00, 0x00,
  0x92, 0xf8, 0xff, 0xff, 0x00, 0x00, 0x00, 0x01, 0x14, 0x00, 0x00, 0x00,
  0x84, 0x00, 0x00, 0x00, 0x0d, 0x00, 0x00, 0x00, 0x00, 0x00, 0x00, 0x02,
  0x90, 0x00, 0x00, 0x00, 0x0c, 0xf8, 0xff, 0xff, 0x08, 0x00, 0x00, 0x00,
  0x48, 0x00, 0x00, 0x00, 0x08, 0x00, 0x00, 0x00, 0x00, 0x00, 0x00, 0x00,
  0x00, 0x00, 0x00, 0x00, 0x00, 0x00, 0x00, 0x00, 0x00, 0x00, 0x00, 0x00,
  0x00, 0x00, 0x00, 0x00, 0x00, 0x00, 0x00, 0x00, 0x00, 0x00, 0x00, 0x00,
  0x00, 0x00, 0x00, 0x00, 0x00, 0x00, 0x00, 0x00, 0x00, 0x00, 0x00, 0x00,
  0x00, 0x00, 0x00, 0x00, 0x00, 0x00, 0x00, 0x00, 0x00, 0x00, 0x00, 0x00,
  0x00, 0x00, 0x00, 0x00, 0x00, 0x00, 0x00, 0x00, 0x00, 0x00, 0x00, 0x00,
  0x08, 0x00, 0x00, 0x00, 0xa2, 0xe7, 0x50, 0x37, 0xcf, 0x4c, 0x0f, 0x37,
  0xaa, 0x24, 0x23, 0x37, 0xd6, 0x01, 0x2f, 0x37, 0x71, 0xae, 0x84, 0x37,
  0xc4, 0x39, 0x18, 0x37, 0x6d, 0xa7, 0x2e, 0x37, 0x5a, 0x68, 0x3a, 0x37,
  0x13, 0x00, 0x00, 0x00, 0x74, 0x66, 0x6c, 0x2e, 0x70, 0x73, 0x65, 0x75,
  0x64, 0x6f, 0x5f, 0x71, 0x63, 0x6f, 0x6e, 0x73, 0x74, 0x31, 0x30, 0x00,
  0x01, 0x00, 0x00, 0x00, 0x08, 0x00, 0x00, 0x00, 0x42, 0xf9, 0xff, 0xff,
  0x00, 0x00, 0x00, 0x01, 0x14, 0x00, 0x00, 0x00, 0x34, 0x00, 0x00, 0x00,
  0x0c, 0x00, 0x00, 0x00, 0x00, 0x00, 0x00, 0x09, 0x40, 0x00, 0x00, 0x00,
  0xbc, 0xf8, 0xff, 0xff, 0x08, 0x00, 0x00, 0x00, 0x14, 0x00, 0x00, 0x00,
  0x01, 0x00, 0x00, 0x00, 0x80, 0xff, 0xff, 0xff, 0xff, 0xff, 0xff, 0xff,
  0x00, 0x00, 0x00, 0x00, 0x01, 0x00, 0x00, 0x00, 0x50, 0x91, 0xdd, 0x3d,
  0x12, 0x00, 0x00, 0x00, 0x74, 0x66, 0x6c, 0x2e, 0x70, 0x73, 0x65, 0x75,
  0x64, 0x6f, 0x5f, 0x71, 0x63, 0x6f, 0x6e, 0x73, 0x74, 0x39, 0x00, 0x00,
  0x01, 0x00, 0x00, 0x00, 0x08, 0x00, 0x00, 0x00, 0xa2, 0xf9, 0xff, 0xff,
  0x00, 0x00, 0x00, 0x01, 0x14, 0x00, 0x00, 0x00, 0x34, 0x00, 0x00, 0x00,
  0x0b, 0x00, 0x00, 0x00, 0x00, 0x00, 0x00, 0x09, 0x40, 0x00, 0x00, 0x00,
  0x1c, 0xf9, 0xff, 0xff, 0x08, 0x00, 0x00, 0x00, 0x14, 0x00, 0x00, 0x00,
  0x01, 0x00, 0x00, 0x00, 0x7f, 0x00, 0x00, 0x00, 0x00, 0x00, 0x00, 0x00,
  0x00, 0x00, 0x00, 0x00, 0x01, 0x00, 0x00, 0x00, 0x9e, 0x0d, 0xbd, 0x3b,
  0x12, 0x00, 0x00, 0x00, 0x74, 0x66, 0x6c, 0x2e, 0x70, 0x73, 0x65, 0x75,
  0x64, 0x6f, 0x5f, 0x71, 0x63, 0x6f, 0x6e, 0x73, 0x74, 0x38, 0x00, 0x00,
  0x01, 0x00, 0x00, 0x00, 0x08, 0x00, 0x00, 0x00, 0x02, 0xfa, 0xff, 0xff,
  0x00, 0x00, 0x00, 0x01, 0x14, 0x00, 0x00, 0x00, 0x88, 0x00, 0x00, 0x00,
  0x0a, 0x00, 0x00, 0x00, 0x00, 0x00, 0x00, 0x09, 0x94, 0x00, 0x00, 0x00,
  0x7c, 0xf9, 0xff, 0xff, 0x08, 0x00, 0x00, 0x00, 0x4c, 0x00, 0x00, 0x00,
  0x08, 0x00, 0x00, 0x00, 0x00, 0x00, 0x00, 0x00, 0x00, 0x00, 0x00, 0x00,
  0x00, 0x00, 0x00, 0x00, 0x00, 0x00, 0x00, 0x00, 0x00, 0x00, 0x00, 0x00,
  0x00, 0x00, 0x00, 0x00, 0x00, 0x00, 0x00, 0x00, 0x00, 0x00, 0x00, 0x00,
  0x00, 0x00, 0x00, 0x00, 0x00, 0x00, 0x00, 0x00, 0x00, 0x00, 0x00, 0x00,
  0x00, 0x00, 0x00, 0x00, 0x00, 0x00, 0x00, 0x00, 0x00, 0x00, 0x00, 0x00,
  0x00, 0x00, 0x00, 0x00, 0x00, 0x00, 0x00, 0x00, 0x00, 0x00, 0x00, 0x00,
  0x08, 0x00, 0x00, 0x00, 0x49, 0x3f, 0x40, 0x3b, 0x25, 0x14, 0x50, 0x3b,
  0xff, 0xfd, 0x46, 0x3b, 0x0e, 0x79, 0x64, 0x3b, 0x09, 0x48, 0x8c, 0x3b,
  0x0a, 0x8b, 0x5a, 0x3b, 0x27, 0x0e, 0x37, 0x3b, 0xd1, 0x3e, 0x81, 0x3b,
  0x12, 0x00, 0x00, 0x00, 0x74, 0x66, 0x6c, 0x2e, 0x70, 0x73, 0x65, 0x75,
  0x64, 0x6f, 0x5f, 0x71, 0x63, 0x6f, 0x6e, 0x73, 0x74, 0x37, 0x00, 0x00,
  0x04, 0x00, 0x00, 0x00, 0x08, 0x00, 0x00, 0x00, 0x03, 0x00, 0x00, 0x00,
  0x03, 0x00, 0x00, 0x00, 0x08, 0x00, 0x00, 0x00, 0xc2, 0xfa, 0xff, 0xff,
  0x00, 0x00, 0x00, 0x01, 0x14, 0x00, 0x00, 0x00, 0x84, 0x00, 0x00, 0x00,
  0x09, 0x00, 0x00, 0x00, 0x00, 0x00, 0x00, 0x02, 0x90, 0x00, 0x00, 0x00,
  0x3c, 0xfa, 0xff, 0xff, 0x08, 0x00, 0x00, 0x00, 0x48, 0x00, 0x00, 0x00,
  0x08, 0x00, 0x00, 0x00, 0x00, 0x00, 0x00, 0x00, 0x00, 0x00, 0x00, 0x00,
  0x00, 0x00, 0x00, 0x00, 0x00, 0x00, 0x00, 0x00, 0x00, 0x00, 0x00, 0x00,
  0x00, 0x00, 0x00, 0x00, 0x00, 0x00, 0x00, 0x00, 0x00, 0x00, 0x00, 0x00,
  0x00, 0x00, 0x00, 0x00, 0x00, 0x00, 0x00, 0x00, 0x00, 0x00, 0x00, 0x00,
  0x00, 0x00, 0x00, 0x00, 0x00, 0x00, 0x00, 0x00, 0x00, 0x00, 0x00, 0x00,
  0x00, 0x00, 0x00, 0x00, 0x00, 0x00, 0x00, 0x00, 0x08, 0x00, 0x00, 0x00,
  0xa0, 0x9f, 0x07, 0x39, 0xc6, 0xca, 0x12, 0x39, 0xc3, 0x61, 0x0c, 0x39,
  0xf1, 0x2d, 0x21, 0x39, 0x51, 0xed, 0x45, 0x39, 0xa4, 0x2c, 0x1a, 0x39,
  0x93, 0x23, 0x01, 0x39, 0x23, 0x5b, 0x36, 0x39, 0x12, 0x00, 0x00, 0x00,
  0x74, 0x66, 0x6c, 0x2e, 0x70, 0x73, 0x65, 0x75, 0x64, 0x6f, 0x5f, 0x71,
  0x63, 0x6f, 0x6e, 0x73, 0x74, 0x36, 0x00, 0x00, 0x01, 0x00, 0x00, 0x00,
  0x08, 0x00, 0x00, 0x00, 0x72, 0xfb, 0xff, 0xff, 0x00, 0x00, 0x00, 0x01,
  0x14, 0x00, 0x00, 0x00, 0xe8, 0x00, 0x00, 0x00, 0x08, 0x00, 0x00, 0x00,
  0x00, 0x00, 0x00, 0x09, 0xf4, 0x00, 0x00, 0x00, 0xec, 0xfa, 0xff, 0xff,
  0x08, 0x00, 0x00, 0x00, 0x8c, 0x00, 0x00, 0x00, 0x10, 0x00, 0x00, 0x00,
  0x00, 0x00, 0x00, 0x00, 0x00, 0x00, 0x00, 0x00, 0x00, 0x00, 0x00, 0x00,
  0x00, 0x00, 0x00, 0x00, 0x00, 0x00, 0x00, 0x00, 0x00, 0x00, 0x00, 0x00,
  0x00, 0x00, 0x00, 0x00, 0x00, 0x00, 0x00, 0x00, 0x00, 0x00, 0x00, 0x00,
  0x00, 0x00, 0x00, 0x00, 0x00, 0x00, 0x00, 0x00, 0x00, 0x00, 0x00, 0x00,
  0x00, 0x00, 0x00, 0x00, 0x00, 0x00, 0x00, 0x00, 0x00, 0x00, 0x00, 0x00,
  0x00, 0x00, 0x00, 0x00, 0x00, 0x00, 0x00, 0x00, 0x00, 0x00, 0x00, 0x00,
  0x00, 0x00, 0x00, 0x00, 0x00, 0x00, 0x00, 0x00, 0x00, 0x00, 0x00, 0x00,
  0x00, 0x00, 0x00, 0x00, 0x00, 0x00, 0x00, 0x00, 0x00, 0x00, 0x00, 0x00,
  0x00, 0x00, 0x00, 0x00, 0x00, 0x00, 0x00, 0x00, 0x00, 0x00, 0x00, 0x00,
  0x00, 0x00, 0x00, 0x00, 0x00, 0x00, 0x00, 0x00, 0x00, 0x00, 0x00, 0x00,
  0x00, 0x00, 0x00, 0x00, 0x00, 0x00, 0x00, 0x00, 0x00, 0x00, 0x00, 0x00,
  0x10, 0x00, 0x00, 0x00, 0x00, 0x4f, 0xa9, 0x3b, 0xa8, 0xbe, 0xa4, 0x3b,
  0x14, 0xad, 0x48, 0x3b, 0x45, 0xe0, 0x82, 0x3b, 0xce, 0xf9, 0xb0, 0x3b,
  0x93, 0x7c, 0x49, 0x3b, 0x5a, 0xbd, 0x9e, 0x3b, 0x95, 0x9b, 0x3e, 0x3b,
  0x78, 0x2a, 0x2a, 0x3b, 0xe2, 0x23, 0x1d, 0x3b, 0x16, 0x1f, 0x4c, 0x3b,
  0xd4, 0x75, 0x64, 0x3b, 0x59, 0x12, 0x42, 0x3b, 0x38, 0xb4, 0x53, 0x3b,
  0x7f, 0x96, 0x88, 0x3b, 0x98, 0x79, 0x2a, 0x3b, 0x12, 0x00, 0x00, 0x00,
  0x74, 0x66, 0x6c, 0x2e, 0x70, 0x73, 0x65, 0x75, 0x64, 0x6f, 0x5f, 0x71,
  0x63, 0x6f, 0x6e, 0x73, 0x74, 0x35, 0x00, 0x00, 0x04, 0x00, 0x00, 0x00,
  0x10, 0x00, 0x00, 0x00, 0x03, 0x00, 0x00, 0x00, 0x03, 0x00, 0x00, 0x00,
  0x08, 0x00, 0x00, 0x00, 0x92, 0xfc, 0xff, 0xff, 0x00, 0x00, 0x00, 0x01,
  0x14, 0x00, 0x00, 0x00, 0xe4, 0x00, 0x00, 0x00, 0x07, 0x00, 0x00, 0x00,
  0x00, 0x00, 0x00, 0x02, 0xf0, 0x00, 0x00, 0x00, 0x0c, 0xfc, 0xff, 0xff,
  0x08, 0x00, 0x00, 0x00, 0x88, 0x00, 0x00, 0x00, 0x10, 0x00, 0x00, 0x00,
  0x00, 0x00, 0x00, 0x00, 0x00, 0x00, 0x00, 0x00, 0x00, 0x00, 0x00, 0x00,
  0x00, 0x00, 0x00, 0x00, 0x00, 0x00, 0x00, 0x00, 0x00, 0x00, 0x00, 0x00,
  0x00, 0x00, 0x00, 0x00, 0x00, 0x00, 0x00, 0x00, 0x00, 0x00, 0x00, 0x00,
  0x00, 0x00, 0x00, 0x00, 0x00, 0x00, 0x00, 0x00, 0x00, 0x00, 0x00, 0x00,
  0x00, 0x00, 0x00, 0x00, 0x00, 0x00, 0x00, 0x00, 0x00, 0x00, 0x00, 0x00,
  0x00, 0x00, 0x00, 0x00, 0x00, 0x00, 0x00, 0x00, 0x00, 0x00, 0x00, 0x00,
  0x00, 0x00, 0x00, 0x00, 0x00, 0x00, 0x00, 0x00, 0x00, 0x00, 0x00, 0x00,
  0x00, 0x00, 0x00, 0x00, 0x00, 0x00, 0x00, 0x00, 0x00, 0x00, 0x00, 0x00,
  0x00, 0x00, 0x00, 0x00, 0x00, 0x00, 0x00, 0x00, 0x00, 0x00, 0x00, 0x00,
  0x00, 0x00, 0x00, 0x00, 0x00, 0x00, 0x00, 0x00, 0x00, 0x00, 0x00, 0x00,
  0x00, 0x00, 0x00, 0x00, 0x00, 0x00, 0x00, 0x00, 0x10, 0x00, 0x00, 0x00,
  0xda, 0x5c, 0x77, 0x39, 0xe1, 0xb1, 0x70, 0x39, 0x77, 0x98, 0x12, 0x39,
  0x4d, 0x36, 0x3f, 0x39, 0x45, 0x48, 0x81, 0x39, 0x0b, 0x30, 0x13, 0x39,
  0xda, 0xeb, 0x67, 0x39, 0x95, 0x3d, 0x0b, 0x39, 0x7f, 0x9d, 0xf8, 0x38,
  0x9d, 0x95, 0xe5, 0x38, 0xc7, 0x1c, 0x15, 0x39, 0x63, 0xe4, 0x26, 0x39,
  0x5f, 0xc5, 0x0d, 0x39, 0xcb, 0xa6, 0x1a, 0x39, 0xa3, 0x8e, 0x47, 0x39,
  0x1a, 0x11, 0xf9, 0x38, 0x12, 0x00, 0x00, 0x00, 0x74, 0x66, 0x6c, 0x2e,
  0x70, 0x73, 0x65, 0x75, 0x64, 0x6f, 0x5f, 0x71, 0x63, 0x6f, 0x6e, 0x73,
  0x74, 0x34, 0x00, 0x00, 0x01, 0x00, 0x00, 0x00, 0x10, 0x00, 0x00, 0x00,
  0xa2, 0xfd, 0xff, 0xff, 0x00, 0x00, 0x00, 0x01, 0x14, 0x00, 0x00, 0x00,
  0x34, 0x00, 0x00, 0x00, 0x06, 0x00, 0x00, 0x00, 0x00, 0x00, 0x00, 0x09,
  0x40, 0x00, 0x00, 0x00, 0x1c, 0xfd, 0xff, 0xff, 0x08, 0x00, 0x00, 0x00,
  0x14, 0x00, 0x00, 0x00, 0x01, 0x00, 0x00, 0x00, 0x80, 0xff, 0xff, 0xff,
  0xff, 0xff, 0xff, 0xff, 0x00, 0x00, 0x00, 0x00, 0x01, 0x00, 0x00, 0x00,
  0xe3, 0x3e, 0x5b, 0x3d, 0x12, 0x00, 0x00, 0x00, 0x74, 0x66, 0x6c, 0x2e,
  0x70, 0x73, 0x65, 0x75, 0x64, 0x6f, 0x5f, 0x71, 0x63, 0x6f, 0x6e, 0x73,
  0x74, 0x33, 0x00, 0x00, 0x01, 0x00, 0x00, 0x00, 0x10, 0x00, 0x00, 0x00,
  0x02, 0xfe, 0xff, 0xff, 0x00, 0x00, 0x00, 0x01, 0x14, 0x00, 0x00, 0x00,
  0x34, 0x00, 0x00, 0x00, 0x05, 0x00, 0x00, 0x00, 0x00, 0x00, 0x00, 0x09,
  0x40, 0x00, 0x00, 0x00, 0x7c, 0xfd, 0xff, 0xff, 0x08, 0x00, 0x00, 0x00,
  0x14, 0x00, 0x00, 0x00, 0x01, 0x00, 0x00, 0x00, 0x7f, 0x00, 0x00, 0x00,
  0x00, 0x00, 0x00, 0x00, 0x00, 0x00, 0x00, 0x00, 0x01, 0x00, 0x00, 0x00,
  0x03, 0x88, 0xb0, 0x3b, 0x12, 0x00, 0x00, 0x00, 0x74, 0x66, 0x6c, 0x2e,
  0x70, 0x73, 0x65, 0x75, 0x64, 0x6f, 0x5f, 0x71, 0x63, 0x6f, 0x6e, 0x73,
  0x74, 0x32, 0x00, 0x00, 0x01, 0x00, 0x00, 0x00, 0x10, 0x00, 0x00, 0x00,
  0x62, 0xfe, 0xff, 0xff, 0x00, 0x00, 0x00, 0x01, 0x14, 0x00, 0x00, 0x00,
  0xa0, 0x00, 0x00, 0x00, 0x04, 0x00, 0x00, 0x00, 0x00, 0x00, 0x00, 0x09,
  0xac, 0x00, 0x00, 0x00, 0xdc, 0xfd, 0xff, 0xff, 0x08, 0x00, 0x00, 0x00,
  0x5c, 0x00, 0x00, 0x00, 0x0a, 0x00, 0x00, 0x00, 0x00, 0x00, 0x00, 0x00,
  0x00, 0x00, 0x00, 0x00, 0x00, 0x00, 0x00, 0x00, 0x00, 0x00, 0x00, 0x00,
  0x00, 0x00, 0x00, 0x00, 0x00, 0x00, 0x00, 0x00, 0x00, 0x00, 0x00, 0x00,
  0x00, 0x00, 0x00, 0x00, 0x00, 0x00, 0x00, 0x00, 0x00, 0x00, 0x00, 0x00,
  0x00, 0x00, 0x00, 0x00, 0x00, 0x00, 0x00, 0x00, 0x00, 0x00, 0x00, 0x00,
  0x00, 0x00, 0x00, 0x00, 0x00, 0x00, 0x00, 0x00, 0x00, 0x00, 0x00, 0x00,
  0x00, 0x00, 0x00, 0x00, 0x00, 0x00, 0x00, 0x00, 0x00, 0x00, 0x00, 0x00,
  0x00, 0x00, 0x00, 0x00, 0x00, 0x00, 0x00, 0x00, 0x0a, 0x00, 0x00, 0x00,
  0xe4, 0xbf, 0x48, 0x3c, 0x25, 0x5c, 0x61, 0x3c, 0xa1, 0x20, 0x6b, 0x3c,
  0x69, 0x31, 0x58, 0x3c, 0x52, 0x9f, 0x29, 0x3c, 0xd0, 0x7b, 0x44, 0x3c,
  0x93, 0x2a, 0x4b, 0x3c, 0x2c, 0xd8, 0x4d, 0x3c, 0x8a, 0x7b, 0x3e, 0x3c,
  0x65, 0x23, 0x5d, 0x3c, 0x12, 0x00, 0x00, 0x00, 0x74, 0x66, 0x6c, 0x2e,
  0x70, 0x73, 0x65, 0x75, 0x64, 0x6f, 0x5f, 0x71, 0x63, 0x6f, 0x6e, 0x73,
  0x74, 0x31, 0x00, 0x00, 0x02, 0x00, 0x00, 0x00, 0x0a, 0x00, 0x00, 0x00,
  0x10, 0x00, 0x00, 0x00, 0x32, 0xff, 0xff, 0xff, 0x00, 0x00, 0x00, 0x01,
  0x14, 0x00, 0x00, 0x00, 0xa0, 0x00, 0x00, 0x00, 0x03, 0x00, 0x00, 0x00,
  0x00, 0x00, 0x00, 0x02, 0xac, 0x00, 0x00, 0x00, 0xac, 0xfe, 0xff, 0xff,
  0x08, 0x00, 0x00, 0x00, 0x5c, 0x00, 0x00, 0x00, 0x0a, 0x00, 0x00, 0x00,
  0x00, 0x00, 0x00, 0x00, 0x00, 0x00, 0x00, 0x00, 0x00, 0x00, 0x00, 0x00,
  0x00, 0x00, 0x00, 0x00, 0x00, 0x00, 0x00, 0x00, 0x00, 0x00, 0x00, 0x00,
  0x00, 0x00, 0x00, 0x00, 0x00, 0x00, 0x00, 0x00, 0x00, 0x00, 0x00, 0x00,
  0x00, 0x00, 0x00, 0x00, 0x00, 0x00, 0x00, 0x00, 0x00, 0x00, 0x00, 0x00,
  0x00, 0x00, 0x00, 0x00, 0x00, 0x00, 0x00, 0x00, 0x00, 0x00, 0x00, 0x00,
  0x00, 0x00, 0x00, 0x00, 0x00, 0x00, 0x00, 0x00, 0x00, 0x00, 0x00, 0x00,
  0x00, 0x00, 0x00, 0x00, 0x00, 0x00, 0x00, 0x00, 0x00, 0x00, 0x00, 0x00,
  0x0a, 0x00, 0x00, 0x00, 0x8e, 0xca, 0x5d, 0x39, 0x2d, 0xfb, 0x78, 0x39,
  0xe0, 0xe2, 0x81, 0x39, 0x77, 0xda, 0x6e, 0x39, 0xc2, 0x66, 0x3b, 0x39,
  0x03, 0x14, 0x59, 0x39, 0x16, 0x76, 0x60, 0x39, 0x8c, 0x6b, 0x63, 0x39,
  0xb7, 0x72, 0x52, 0x39, 0x25, 0x51, 0x74, 0x39, 0x11, 0x00, 0x00, 0x00,
  0x74, 0x66, 0x6c, 0x2e, 0x70, 0x73, 0x65, 0x75, 0x64, 0x6f, 0x5f, 0x71,
  0x63, 0x6f, 0x6e, 0x73, 0x74, 0x00, 0x00, 0x00, 0x01, 0x00, 0x00, 0x00,
  0x0a, 0x00, 0x00, 0x00, 0x00, 0x00, 0x16, 0x00, 0x1c, 0x00, 0x18, 0x00,
  0x17, 0x00, 0x10, 0x00, 0x0c, 0x00, 0x08, 0x00, 0x00, 0x00, 0x00, 0x00,
  0x00, 0x00, 0x07, 0x00, 0x16, 0x00, 0x00, 0x00, 0x00, 0x00, 0x00, 0x01,
  0x18, 0x00, 0x00, 0x00, 0x18, 0x00, 0x00, 0x00, 0x02, 0x00, 0x00, 0x00,
  0x00, 0x00, 0x00, 0x02, 0x20, 0x00, 0x00, 0x00, 0x04, 0x00, 0x04, 0x00,
  0x04, 0x00, 0x00, 0x00, 0x0e, 0x00, 0x00, 0x00, 0x61, 0x72, 0x69, 0x74,
  0x68, 0x2e, 0x63, 0x6f, 0x6e, 0x73, 0x74, 0x61, 0x6e, 0x74, 0x00, 0x00,
  0x01, 0x00, 0x00, 0x00, 0x02, 0x00, 0x00, 0x00, 0x00, 0x00, 0x16, 0x00,
  0x20, 0x00, 0x1c, 0x00, 0x1b, 0x00, 0x14, 0x00, 0x10, 0x00, 0x0c, 0x00,
  0x00, 0x00, 0x00, 0x00, 0x08, 0x00, 0x07, 0x00, 0x16, 0x00, 0x00, 0x00,
  0x00, 0x00, 0x00, 0x01, 0x18, 0x00, 0x00, 0x00, 0x34, 0x00, 0x00, 0x00,
  0x50, 0x00, 0x00, 0x00, 0x01, 0x00, 0x00, 0x00, 0x00, 0x00, 0x00, 0x09,
  0x68, 0x00, 0x00, 0x00, 0x04, 0x00, 0x00, 0x00, 0xff, 0xff, 0xff, 0xff,
  0x1c, 0x00, 0x00, 0x00, 0x1c, 0x00, 0x00, 0x00, 0x01, 0x00, 0x00, 0x00,
  0x0c, 0x00, 0x0c, 0x00, 0x00, 0x00, 0x00, 0x00, 0x08, 0x00, 0x04, 0x00,
  0x0c, 0x00, 0x00, 0x00, 0x08, 0x00, 0x00, 0x00, 0x10, 0x00, 0x00, 0x00,
  0x01, 0x00, 0x00, 0x00, 0x80, 0xff, 0xff, 0xff, 0xff, 0xff, 0xff, 0xff,
  0x01, 0x00, 0x00, 0x00, 0x81, 0x80, 0x80, 0x3b, 0x1e, 0x00, 0x00, 0x00,
  0x73, 0x65, 0x72, 0x76, 0x69, 0x6e, 0x67, 0x5f, 0x64, 0x65, 0x66, 0x61,
  0x75, 0x6c, 0x74, 0x5f, 0x6b, 0x65, 0x72, 0x61, 0x73, 0x5f, 0x74, 0x65,
  0x6e, 0x73, 0x6f, 0x72, 0x3a, 0x30, 0x00, 0x00, 0x04, 0x00, 0x00, 0x00,
  0x01, 0x00, 0x00, 0x00, 0x1c, 0x00, 0x00, 0x00, 0x1c, 0x00, 0x00, 0x00,
  0x01, 0x00, 0x00, 0x00, 0x07, 0x00, 0x00, 0x00, 0x94, 0x00, 0x00, 0x00,
  0x74, 0x00, 0x00, 0x00, 0x68, 0x00, 0x00, 0x00, 0x4c, 0x00, 0x00, 0x00,
  0x2c, 0x00, 0x00, 0x00, 0x18, 0x00, 0x00, 0x00, 0x04, 0x00, 0x00, 0x00,
  0x94, 0xff, 0xff, 0xff, 0x19, 0x00, 0x00, 0x00, 0x02, 0x00, 0x00, 0x00,
  0x00, 0x00, 0x00, 0x19, 0xa4, 0xff, 0xff, 0xff, 0x09, 0x00, 0x00, 0x00,
  0x04, 0x00, 0x00, 0x00, 0x00, 0x00, 0x00, 0x09, 0xb4, 0xff, 0xff, 0xff,
  0x28, 0x00, 0x00, 0x00, 0x02, 0x00, 0x00, 0x00, 0x00, 0x00, 0x00, 0x28,
  0x0c, 0x00, 0x0e, 0x00, 0x0d, 0x00, 0x00, 0x00, 0x08, 0x00, 0x04, 0x00,
  0x0c, 0x00, 0x00, 0x00, 0x11, 0x00, 0x00, 0x00, 0x02, 0x00, 0x00, 0x00,
  0x00, 0x11, 0x0a, 0x00, 0x08, 0x00, 0x00, 0x00, 0x00, 0x00, 0x04, 0x00,
  0x0a, 0x00, 0x00, 0x00, 0x02, 0x00, 0x00, 0x00, 0xf0, 0xff, 0xff, 0xff,
  0x12, 0x00, 0x00, 0x00, 0x02, 0x00, 0x00, 0x00, 0x00, 0x00, 0x00, 0x12,
  0x0c, 0x00, 0x10, 0x00, 0x0f, 0x00, 0x00, 0x00, 0x08, 0x00, 0x04, 0x00,
  0x0c, 0x00, 0x00, 0x00, 0x03, 0x00, 0x00, 0x00, 0x03, 0x00, 0x00, 0x00,
  0x00, 0x00, 0x00, 0x03
};
unsigned int mnist_cnn_small_int8_tflite_len = 8536;
