unsigned char modelo_seno_float32_tflite[] = {
  0x1c, 0x00, 0x00, 0x00, 0x54, 0x46, 0x4c, 0x33, 0x14, 0x00, 0x20, 0x00,
  0x1c, 0x00, 0x18, 0x00, 0x14, 0x00, 0x10, 0x00, 0x0c, 0x00, 0x00, 0x00,
  0x08, 0x00, 0x04, 0x00, 0x14, 0x00, 0x00, 0x00, 0x1c, 0x00, 0x00, 0x00,
  0x8c, 0x00, 0x00, 0x00, 0xe4, 0x00, 0x00, 0x00, 0x48, 0x2c, 0x00, 0x00,
  0x58, 0x2c, 0x00, 0x00, 0x08, 0x32, 0x00, 0x00, 0x03, 0x00, 0x00, 0x00,
  0x01, 0x00, 0x00, 0x00, 0x04, 0x00, 0x00, 0x00, 0xe6, 0xd2, 0xff, 0xff,
  0x0c, 0x00, 0x00, 0x00, 0x1c, 0x00, 0x00, 0x00, 0x3c, 0x00, 0x00, 0x00,
  0x0f, 0x00, 0x00, 0x00, 0x73, 0x65, 0x72, 0x76, 0x69, 0x6e, 0x67, 0x5f,
  0x64, 0x65, 0x66, 0x61, 0x75, 0x6c, 0x74, 0x00, 0x01, 0x00, 0x00, 0x00,
  0x04, 0x00, 0x00, 0x00, 0x90, 0xff, 0xff, 0xff, 0x0b, 0x00, 0x00, 0x00,
  0x04, 0x00, 0x00, 0x00, 0x08, 0x00, 0x00, 0x00, 0x6f, 0x75, 0x74, 0x70,
  0x75, 0x74, 0x5f, 0x30, 0x00, 0x00, 0x00, 0x00, 0x01, 0x00, 0x00, 0x00,
  0x04, 0x00, 0x00, 0x00, 0x02, 0xd5, 0xff, 0xff, 0x04, 0x00, 0x00, 0x00,
  0x0c, 0x00, 0x00, 0x00, 0x6b, 0x65, 0x72, 0x61, 0x73, 0x5f, 0x74, 0x65,
  0x6e, 0x73, 0x6f, 0x72, 0x00, 0x00, 0x00, 0x00, 0x02, 0x00, 0x00, 0x00,
  0x34, 0x00, 0x00, 0x00, 0x04, 0x00, 0x00, 0x00, 0xdc, 0xff, 0xff, 0xff,
  0x0e, 0x00, 0x00, 0x00, 0x04, 0x00, 0x00, 0x00, 0x13, 0x00, 0x00, 0x00,
  0x43, 0x4f, 0x4e, 0x56, 0x45, 0x52, 0x53, 0x49, 0x4f, 0x4e, 0x5f, 0x4d,
  0x45, 0x54, 0x41, 0x44, 0x41, 0x54, 0x41, 0x00, 0x08, 0x00, 0x0c, 0x00,
  0x08, 0x00, 0x04, 0x00, 0x08, 0x00, 0x00, 0x00, 0x0d, 0x00, 0x00, 0x00,
  0x04, 0x00, 0x00, 0x00, 0x13, 0x00, 0x00, 0x00, 0x6d, 0x69, 0x6e, 0x5f,
  0x72, 0x75, 0x6e, 0x74, 0x69, 0x6d, 0x65, 0x5f, 0x76, 0x65, 0x72, 0x73,
  0x69, 0x6f, 0x6e, 0x00, 0x0f, 0x00, 0x00, 0x00, 0x60, 0x2b, 0x00, 0x00,
  0x58, 0x2b, 0x00, 0x00, 0x80, 0x2a, 0x00, 0x00, 0x58, 0x03, 0x00, 0x00,
  0x44, 0x03, 0x00, 0x00, 0x6c, 0x02, 0x00, 0x00, 0x94, 0x01, 0x00, 0x00,
  0xbc, 0x00, 0x00, 0x00, 0xb4, 0x00, 0x00, 0x00, 0xac, 0x00, 0x00, 0x00,
  0xa4, 0x00, 0x00, 0x00, 0x9c, 0x00, 0x00, 0x00, 0x94, 0x00, 0x00, 0x00,
  0x74, 0x00, 0x00, 0x00, 0x04, 0x00, 0x00, 0x00, 0xba, 0xd5, 0xff, 0xff,
  0x04, 0x00, 0x00, 0x00, 0x60, 0x00, 0x00, 0x00, 0x10, 0x00, 0x00, 0x00,
  0x00, 0x00, 0x00, 0x00, 0x08, 0x00, 0x0e, 0x00, 0x08, 0x00, 0x04, 0x00,
  0x08, 0x00, 0x00, 0x00, 0x10, 0x00, 0x00, 0x00, 0x24, 0x00, 0x00, 0x00,
  0x00, 0x00, 0x06, 0x00, 0x08, 0x00, 0x04, 0x00, 0x06, 0x00, 0x00, 0x00,
  0x04, 0x00, 0x00, 0x00, 0x00, 0x00, 0x00, 0x00, 0x0c, 0x00, 0x18, 0x00,
  0x14, 0x00, 0x10, 0x00, 0x0c, 0x00, 0x04, 0x00, 0x0c, 0x00, 0x00, 0x00,
  0x4e, 0x58, 0xc8, 0xed, 0x2f, 0x8f, 0xaa, 0x03, 0x02, 0x00, 0x00, 0x00,
  0x02, 0x00, 0x00, 0x00, 0x04, 0x00, 0x00, 0x00, 0x06, 0x00, 0x00, 0x00,
  0x32, 0x2e, 0x31, 0x38, 0x2e, 0x30, 0x00, 0x00, 0x26, 0xd6, 0xff, 0xff,
  0x04, 0x00, 0x00, 0x00, 0x10, 0x00, 0x00, 0x00, 0x31, 0x2e, 0x31, 0x34,
  0x2e, 0x30, 0x00, 0x00, 0x00, 0x00, 0x00, 0x00, 0x00, 0x00, 0x00, 0x00,
  0xd0, 0xcf, 0xff, 0xff, 0xd4, 0xcf, 0xff, 0xff, 0xd8, 0xcf, 0xff, 0xff,
  0xdc, 0xcf, 0xff, 0xff, 0xe0, 0xcf, 0xff, 0xff, 0x56, 0xd6, 0xff, 0xff,
  0x04, 0x00, 0x00, 0x00, 0xc8, 0x00, 0x00, 0x00, 0x9a, 0x0d, 0xc1, 0x3d,
  0xc8, 0xd7, 0xf8, 0xbd, 0xc1, 0x5e, 0x18, 0xbe, 0xc9, 0x3a, 0x95, 0xbd,
  0xa3, 0xf9, 0x08, 0x3e, 0x4b, 0x3b, 0xf8, 0x3e, 0x82, 0x6e, 0x1d, 0xbe,
  0xdb, 0xe5, 0xb7, 0x3e, 0x76, 0x75, 0x9a, 0xbd, 0xa4, 0xe1, 0xdb, 0xbd,
  0x9a, 0xe8, 0x4c, 0x3e, 0x2a, 0x41, 0xea, 0xbd, 0x7a, 0x42, 0xed, 0x3b,
  0xe8, 0xcb, 0xd0, 0x3d, 0x2c, 0xb4, 0xe6, 0xbd, 0x7d, 0x82, 0xc8, 0x3d,
  0xa8, 0x19, 0xe6, 0x3d, 0x18, 0x3e, 0xdb, 0x3d, 0x7d, 0x83, 0xcc, 0x3d,
  0xb2, 0x45, 0x84, 0xbd, 0x78, 0x29, 0xed, 0xbd, 0x25, 0x0f, 0x15, 0x3e,
  0xad, 0x55, 0xd6, 0xbe, 0x6c, 0x51, 0xaf, 0xbc, 0x75, 0x96, 0xed, 0x3d,
  0xbc, 0xb4, 0x37, 0x3d, 0x80, 0xea, 0xcd, 0xbd, 0xbf, 0x3f, 0xf5, 0x3d,
  0x77, 0xab, 0xa3, 0xbd, 0x31, 0xa5, 0xf4, 0xbd, 0x72, 0x82, 0xaf, 0xbd,
  0x13, 0x42, 0xbf, 0xbd, 0xbb, 0x64, 0xc9, 0xbd, 0x94, 0x29, 0x22, 0xbd,
  0x43, 0xd3, 0x05, 0x3e, 0xf8, 0x08, 0xf1, 0xbd, 0xdf, 0x91, 0x39, 0x3d,
  0x9b, 0x0b, 0xf5, 0xbd, 0xe4, 0xfa, 0x24, 0xbd, 0xaa, 0xf9, 0x10, 0x3c,
  0xc2, 0x8b, 0xf5, 0xbd, 0xad, 0x49, 0x0b, 0xbe, 0x46, 0xa6, 0x02, 0x3f,
  0x04, 0x5b, 0x2b, 0x3e, 0xb4, 0xde, 0xdd, 0xbd, 0xf7, 0x11, 0xe1, 0x3d,
  0x89, 0x68, 0xf3, 0x3d, 0xc2, 0x85, 0x3d, 0x3c, 0x52, 0xbf, 0xfb, 0x3e,
  0xb5, 0x27, 0xb8, 0xbd, 0x2a, 0xd7, 0xff, 0xff, 0x04, 0x00, 0x00, 0x00,
  0xc8, 0x00, 0x00, 0x00, 0x76, 0x30, 0xe0, 0xb9, 0x3a, 0x75, 0x86, 0x3c,
  0x4f, 0x37, 0xb7, 0xbc, 0x99, 0x63, 0x57, 0x3d, 0x27, 0xec, 0x9d, 0xbd,
  0x73, 0x8e, 0x64, 0xbd, 0x1d, 0x66, 0x3e, 0x3c, 0x5e, 0x87, 0x0c, 0xbd,
  0x32, 0x98, 0x24, 0xbc, 0xa1, 0x45, 0x9d, 0x3d, 0x8c, 0x7a, 0x2e, 0xba,
  0x9c, 0x98, 0x72, 0x3e, 0x88, 0xa3, 0xc8, 0x3b, 0x0f, 0xb5, 0x9a, 0xbc,
  0x5f, 0xe9, 0x6f, 0x3c, 0xc9, 0x3f, 0x98, 0x3b, 0x09, 0xa2, 0x96, 0x3c,
  0xba, 0xe7, 0x04, 0x3d, 0xc5, 0xcf, 0x13, 0x3d, 0x4a, 0x87, 0x36, 0x3c,
  0x01, 0x9a, 0x33, 0xbd, 0xa6, 0x89, 0x3a, 0xbb, 0xad, 0x3f, 0x15, 0xbc,
  0x68, 0x05, 0x28, 0x3c, 0x41, 0x14, 0x61, 0x3c, 0xe4, 0x8f, 0x1c, 0x3c,
  0x15, 0xf6, 0xcb, 0xbc, 0x9a, 0xaf, 0x59, 0x3d, 0xbc, 0xa7, 0x86, 0xbc,
  0x4f, 0x51, 0x95, 0xbc, 0xeb, 0x17, 0xcf, 0xbb, 0x7a, 0x0a, 0xb8, 0xbc,
  0x21, 0x8e, 0x62, 0x3d, 0x71, 0xa6, 0x06, 0xbd, 0x0f, 0xa4, 0x6b, 0x3d,
  0xf0, 0x79, 0x50, 0x3c, 0x47, 0x46, 0xd4, 0xbb, 0x74, 0x36, 0x36, 0x3c,
  0xaf, 0xdf, 0x43, 0x3d, 0x7b, 0x37, 0xc4, 0x3c, 0x89, 0x3a, 0x0b, 0x3e,
  0xbd, 0x91, 0xa5, 0x3c, 0xbf, 0xd4, 0x0b, 0xbd, 0x04, 0x28, 0x86, 0x3d,
  0x70, 0x51, 0x5c, 0x3d, 0xdd, 0x71, 0x54, 0x3c, 0xbd, 0xf8, 0xb8, 0xbd,
  0xf0, 0x62, 0xb2, 0x3c, 0x2e, 0x22, 0x58, 0x3d, 0x24, 0xec, 0x91, 0x3a,
  0xfe, 0xd7, 0xff, 0xff, 0x04, 0x00, 0x00, 0x00, 0xc8, 0x00, 0x00, 0x00,
  0x91, 0xb7, 0x9f, 0x3c, 0x3e, 0xf1, 0x6a, 0xbc, 0x93, 0x1a, 0x97, 0xbc,
  0x2f, 0x89, 0x90, 0x3c, 0xc7, 0x5e, 0x15, 0x3c, 0xa7, 0x2f, 0x23, 0x3c,
  0x68, 0x22, 0x2e, 0x3c, 0x56, 0xfd, 0x5d, 0xbc, 0x26, 0xce, 0x94, 0x3c,
  0xde, 0x48, 0x72, 0x3c, 0x1a, 0x43, 0x5b, 0xbc, 0xdd, 0x60, 0x43, 0x3c,
  0xd8, 0x51, 0x8a, 0x3c, 0x07, 0xfd, 0x8e, 0x3c, 0x2a, 0x3b, 0x1b, 0x3c,
  0xe6, 0x1a, 0x25, 0xbc, 0xf5, 0x88, 0xac, 0xbb, 0xa1, 0x92, 0x37, 0xbc,
  0x52, 0xa3, 0x8b, 0xbc, 0xca, 0x0f, 0x29, 0xbc, 0xa7, 0x53, 0x55, 0x3c,
  0x7a, 0xa1, 0x22, 0x3c, 0xcf, 0xef, 0x23, 0x3c, 0xdd, 0x69, 0xb8, 0x3c,
  0x53, 0x63, 0xd1, 0xbb, 0xa9, 0xc2, 0xdf, 0x3c, 0x14, 0x88, 0x15, 0xbe,
  0xa6, 0x27, 0x70, 0xbb, 0xa7, 0x30, 0xa8, 0x3b, 0xf3, 0x62, 0x31, 0xbd,
  0x1b, 0x39, 0x23, 0x3c, 0x26, 0x1d, 0x31, 0xbd, 0x01, 0x81, 0x14, 0xbb,
  0x95, 0x80, 0x38, 0xbc, 0x8d, 0x88, 0x19, 0x3c, 0x47, 0xcc, 0x23, 0x3d,
  0x33, 0x3f, 0x23, 0xbc, 0xb4, 0xae, 0x43, 0xbd, 0x8a, 0x90, 0x95, 0xba,
  0x9b, 0xae, 0x3d, 0x3b, 0x78, 0x5d, 0x42, 0x3c, 0xed, 0xbe, 0x2f, 0xbc,
  0x33, 0x7b, 0x2a, 0x3c, 0x5d, 0xcf, 0x09, 0xbc, 0x24, 0xb3, 0x01, 0xbc,
  0x5b, 0x13, 0x8b, 0x3b, 0x8f, 0x39, 0x91, 0xbc, 0x58, 0xdf, 0x33, 0x3c,
  0xd1, 0xc7, 0x0a, 0x3e, 0x20, 0x1b, 0x9a, 0xbc, 0xd2, 0xd8, 0xff, 0xff,
  0x04, 0x00, 0x00, 0x00, 0x04, 0x00, 0x00, 0x00, 0x72, 0xba, 0x0b, 0xbc,
  0xe2, 0xd8, 0xff, 0xff, 0x04, 0x00, 0x00, 0x00, 0x10, 0x27, 0x00, 0x00,
  0xc6, 0x27, 0x57, 0x3d, 0x38, 0x64, 0x82, 0x3e, 0x40, 0xfc, 0x89, 0xbd,
  0xf3, 0x20, 0x65, 0xbe, 0x5f, 0x54, 0x6e, 0xbe, 0x03, 0xae, 0x94, 0xbe,
  0x1b, 0xd3, 0x1f, 0x3e, 0x3d, 0xaf, 0x10, 0xbe, 0x61, 0x8f, 0x3a, 0xbe,
  0x64, 0x80, 0x31, 0x3e, 0x0f, 0x9e, 0x6f, 0xbe, 0x30, 0x73, 0x0b, 0x3e,
  0xcf, 0x1e, 0x36, 0x3e, 0xcb, 0x9f, 0xce, 0x3d, 0x54, 0x9a, 0x84, 0x3e,
  0x73, 0xe3, 0x94, 0xbe, 0x3b, 0xd6, 0x33, 0xbe, 0x45, 0x17, 0xf3, 0xbd,
  0x82, 0x1c, 0xc1, 0x3b, 0x3e, 0x52, 0xa7, 0x3d, 0x91, 0x18, 0x83, 0x3e,
  0x86, 0xf9, 0x36, 0x3e, 0x89, 0x30, 0x2b, 0xbe, 0x46, 0xb9, 0xf2, 0x3d,
  0xc4, 0x09, 0x26, 0xbe, 0x08, 0x98, 0xfa, 0x3c, 0xa9, 0x52, 0x82, 0xbc,
  0xbb, 0xb6, 0x96, 0xbd, 0xf6, 0x14, 0x31, 0x3e, 0x9f, 0x51, 0x4c, 0x3c,
  0xe2, 0xeb, 0x0d, 0xbe, 0x9e, 0x10, 0xf7, 0xbd, 0x97, 0xc3, 0x3e, 0x3e,
  0x89, 0x4b, 0x50, 0x3d, 0x67, 0x7d, 0xc5, 0xbd, 0xa6, 0x25, 0x47, 0x3e,
  0x42, 0x16, 0x8c, 0xbd, 0x06, 0x1f, 0x7d, 0x3e, 0xf3, 0x71, 0xec, 0xbc,
  0x3f, 0x82, 0x3e, 0x3e, 0x62, 0xb7, 0xea, 0xbd, 0x53, 0xda, 0xbf, 0x3c,
  0xe2, 0xfe, 0xbb, 0xbd, 0xb2, 0x57, 0x2b, 0xbe, 0xdb, 0xb7, 0x7b, 0xbd,
  0x21, 0xfc, 0x1a, 0x3e, 0xad, 0x7f, 0xc9, 0x3d, 0xb6, 0xb7, 0x5b, 0x3e,
  0x29, 0x59, 0xd8, 0xbc, 0xcb, 0xf6, 0x74, 0x3c, 0xf2, 0x2a, 0x06, 0xbe,
  0x22, 0x3f, 0xf1, 0x3c, 0x54, 0xde, 0x1b, 0xbe, 0x5d, 0x51, 0xe2, 0x3d,
  0x84, 0xe6, 0xe1, 0xbd, 0x2c, 0x44, 0xcf, 0x3d, 0x62, 0x5a, 0xa1, 0xbd,
  0xd8, 0x86, 0xa6, 0xbb, 0xc0, 0xc1, 0xae, 0xbd, 0xa8, 0x48, 0xaa, 0xbd,
  0xde, 0xd0, 0x32, 0xbd, 0xa1, 0xb4, 0x8e, 0x3c, 0x13, 0x56, 0x28, 0x3e,
  0xe5, 0x23, 0x47, 0x3b, 0xaf, 0xf8, 0x08, 0xbe, 0xb3, 0xf3, 0xcf, 0xbd,
  0xcb, 0x7b, 0x5b, 0xbd, 0x43, 0xb9, 0x32, 0x3e, 0xd7, 0xff, 0x6e, 0x3c,
  0xbc, 0x0b, 0x08, 0x3e, 0x77, 0x46, 0x18, 0x3e, 0x84, 0xed, 0x7c, 0xbe,
  0xf0, 0xa8, 0x40, 0xbe, 0x08, 0xc7, 0x86, 0xbd, 0x65, 0xd9, 0x68, 0x3e,
  0xf0, 0x92, 0x19, 0xbc, 0xc6, 0xd7, 0x4e, 0xbe, 0x8a, 0x58, 0xff, 0xbc,
  0xc2, 0x40, 0x8d, 0x3d, 0x8d, 0xff, 0xdd, 0x3d, 0x33, 0x3f, 0x3c, 0xbe,
  0x6b, 0x46, 0x1f, 0x3e, 0x0d, 0xd0, 0xdb, 0x3d, 0xd9, 0x11, 0x09, 0x3d,
  0xa4, 0x4d, 0xbe, 0xbd, 0xfa, 0xe4, 0xc6, 0x3d, 0xbd, 0x9c, 0x4a, 0x3e,
  0xa1, 0x79, 0x30, 0xbe, 0x8d, 0xdd, 0xfa, 0x3d, 0xb1, 0x9b, 0x3f, 0xbe,
  0x2d, 0x81, 0x22, 0xbe, 0xd8, 0xc9, 0x29, 0x3d, 0x38, 0x00, 0xd9, 0xbd,
  0xe2, 0xb5, 0xd2, 0x3d, 0xb5, 0x86, 0x53, 0x3e, 0x3d, 0x0d, 0x67, 0x3e,
  0x1e, 0x88, 0xff, 0xbc, 0xd5, 0x6f, 0x24, 0xbe, 0x1c, 0x21, 0xfa, 0xbd,
  0xfc, 0x9f, 0x24, 0x3c, 0x4e, 0x9b, 0x11, 0x3e, 0x5f, 0x64, 0xbf, 0x3d,
  0x02, 0x74, 0x7c, 0x3e, 0x44, 0x3b, 0x4a, 0x3e, 0x2b, 0x0f, 0xf6, 0x3c,
  0x22, 0x1c, 0xa9, 0x3e, 0x0a, 0x94, 0x20, 0xbc, 0xab, 0xd2, 0x8d, 0xbd,
  0x4f, 0xec, 0x2a, 0x3e, 0x1e, 0x53, 0x2d, 0x3e, 0x5a, 0xeb, 0x01, 0x3c,
  0x4f, 0x49, 0x32, 0x3e, 0xd8, 0x09, 0x94, 0x3d, 0x3b, 0xa6, 0x0d, 0x3e,
  0x25, 0xa2, 0x3f, 0x3e, 0x47, 0x02, 0x2c, 0x3c, 0x15, 0x9c, 0x43, 0x3d,
  0x83, 0x45, 0x02, 0xbe, 0x76, 0x44, 0x17, 0x3e, 0xb5, 0x4d, 0xa3, 0x3d,
  0xd7, 0xf1, 0x57, 0x3e, 0xab, 0x83, 0x82, 0xbe, 0x31, 0x04, 0x9d, 0xbe,
  0x7b, 0xb4, 0x2d, 0xbd, 0x83, 0x60, 0x94, 0xbe, 0xf8, 0x06, 0x27, 0xbe,
  0x7c, 0x56, 0xad, 0xbd, 0xfb, 0xc0, 0x45, 0xbe, 0xbb, 0x2a, 0x2a, 0x3e,
  0xf0, 0x9e, 0xc6, 0x3d, 0x3c, 0xe2, 0x46, 0x3e, 0x0e, 0x07, 0x75, 0x3e,
  0xb8, 0x06, 0x0b, 0x3e, 0x89, 0xdf, 0x7b, 0xbd, 0xba, 0x5a, 0x35, 0xbd,
  0xb3, 0x73, 0x92, 0x3d, 0xfa, 0x5c, 0x25, 0x3e, 0x45, 0x33, 0x51, 0x3e,
  0x2a, 0xe4, 0xf9, 0xbd, 0xec, 0xbe, 0xbb, 0x3d, 0x43, 0xea, 0xfd, 0x3d,
  0xf9, 0xdd, 0x30, 0x3e, 0xb9, 0x0a, 0x57, 0x3e, 0x3f, 0x24, 0x43, 0x3d,
  0x1b, 0xf3, 0xd8, 0xbc, 0xfb, 0x25, 0x10, 0xbe, 0x69, 0x67, 0x4c, 0xbe,
  0x5e, 0x14, 0x3f, 0xbe, 0xb1, 0xd3, 0xa9, 0x3e, 0x18, 0xa1, 0x78, 0x3e,
  0xaf, 0x67, 0x02, 0x3d, 0x6c, 0x11, 0x53, 0x3e, 0x52, 0x05, 0x6a, 0x3c,
  0x39, 0x3a, 0xed, 0x3d, 0xaf, 0xa2, 0x0d, 0x3e, 0x3f, 0x4b, 0xdd, 0xbd,
  0x27, 0x2c, 0x1a, 0xbe, 0x95, 0xf1, 0xbd, 0x3d, 0x0d, 0xb3, 0x07, 0x3e,
  0x0b, 0x8b, 0xd6, 0xbd, 0x70, 0x60, 0x02, 0xbe, 0xbd, 0xab, 0x8e, 0xbd,
  0xdb, 0xc3, 0xd8, 0x3d, 0x50, 0xdf, 0x91, 0x3d, 0xc1, 0xfa, 0x53, 0xbc,
  0x8e, 0x8c, 0x9c, 0x3c, 0xa7, 0x7c, 0x65, 0xbe, 0x04, 0xda, 0x0f, 0x3b,
  0x5b, 0x6d, 0x69, 0xbc, 0xc2, 0x4d, 0x0b, 0x3d, 0xac, 0x7f, 0x8a, 0xbc,
  0x26, 0xaa, 0x25, 0xbe, 0x6f, 0xf9, 0x3b, 0x3d, 0x8a, 0xbb, 0x96, 0xbd,
  0xf5, 0xd9, 0x98, 0xbd, 0x1a, 0x51, 0x24, 0xbe, 0x0e, 0xe8, 0x65, 0x3e,
  0x2a, 0x8c, 0xe2, 0x3d, 0x4d, 0xd5, 0x3f, 0x3c, 0x21, 0x23, 0xde, 0x3d,
  0x12, 0x6d, 0x6b, 0xbe, 0x6c, 0x90, 0x0d, 0x3e, 0xeb, 0x11, 0xdb, 0xbd,
  0x7d, 0xb4, 0x14, 0x3e, 0xf7, 0xf3, 0xf8, 0x3d, 0x68, 0xce, 0x65, 0xbe,
  0xf3, 0x4e, 0x5d, 0x3e, 0xcc, 0xb7, 0x34, 0x3e, 0x86, 0x22, 0x7d, 0xbe,
  0xa0, 0xff, 0xc5, 0xbd, 0x9f, 0x80, 0x64, 0xbd, 0xce, 0x07, 0x92, 0xbd,
  0x27, 0x66, 0x85, 0xbe, 0xc6, 0xff, 0xc7, 0xbd, 0x4b, 0x75, 0x4b, 0xbe,
  0x2a, 0x73, 0x91, 0xbd, 0xb4, 0x8e, 0xbf, 0x3d, 0xad, 0x97, 0x60, 0x3e,
  0x6e, 0xc0, 0x9a, 0xbe, 0xab, 0xcf, 0x0c, 0xbe, 0xa0, 0x8e, 0x15, 0xbd,
  0x94, 0x0e, 0xbc, 0xbd, 0xdf, 0x22, 0x73, 0xbe, 0x66, 0xbc, 0x68, 0xbe,
  0xaf, 0xe5, 0xe6, 0x3d, 0xde, 0xd3, 0xd4, 0xbd, 0x20, 0xcd, 0x4f, 0x3e,
  0xcb, 0xa4, 0x64, 0xbe, 0xff, 0xcf, 0x32, 0xbe, 0x88, 0xc5, 0x37, 0xbe,
  0x11, 0x8b, 0x01, 0xbe, 0xd1, 0x94, 0xd7, 0x3d, 0xfc, 0xbd, 0xd3, 0x3c,
  0x3c, 0xb8, 0x80, 0x3e, 0xc6, 0xe9, 0x03, 0x3d, 0xc1, 0xfc, 0x71, 0x3d,
  0xf7, 0x11, 0x80, 0x3e, 0xdf, 0xcc, 0x2f, 0x3e, 0x8f, 0x54, 0xc9, 0x3d,
  0x6f, 0xe8, 0x67, 0xbd, 0x90, 0xf6, 0x37, 0x3e, 0x7a, 0xa3, 0x19, 0x3e,
  0x05, 0x9f, 0x41, 0xbc, 0xe4, 0x9a, 0x2b, 0x3c, 0xac, 0x33, 0x08, 0xbd,
  0x46, 0x23, 0xb9, 0xb9, 0x07, 0x33, 0x82, 0x3d, 0xff, 0x7d, 0x5d, 0x3e,
  0x8f, 0xc5, 0x50, 0x3e, 0x82, 0x52, 0x15, 0x3c, 0x9f, 0x5d, 0xc3, 0xbd,
  0xe2, 0xd7, 0x8f, 0x3c, 0x57, 0x9c, 0xea, 0xbd, 0x14, 0x96, 0x17, 0xbe,
  0x3a, 0x71, 0x0d, 0x3e, 0x99, 0xb2, 0x00, 0x3e, 0x09, 0x5f, 0x35, 0x3e,
  0x17, 0xb8, 0x52, 0xbd, 0x51, 0x50, 0x84, 0x3d, 0xaf, 0x03, 0xf8, 0x3d,
  0x2d, 0x62, 0x35, 0xbe, 0xc4, 0x5c, 0x36, 0xbe, 0x0a, 0xa9, 0x39, 0xbc,
  0x83, 0x35, 0x20, 0xbe, 0x34, 0xe4, 0x81, 0xbd, 0x93, 0xee, 0x5b, 0x3d,
  0xb3, 0x06, 0x2b, 0x3e, 0x07, 0x26, 0x47, 0x3d, 0x24, 0xb1, 0x61, 0xbe,
  0xda, 0x5e, 0xee, 0xbd, 0x15, 0x15, 0xfd, 0x3b, 0x7b, 0x7f, 0x14, 0x3e,
  0xfb, 0x4b, 0xb1, 0xbd, 0xa2, 0x53, 0x0c, 0xbd, 0x6e, 0xf4, 0x8e, 0xbb,
  0xf1, 0xa4, 0x03, 0xbe, 0x8a, 0xb5, 0x07, 0x3e, 0x43, 0xd6, 0x13, 0x3d,
  0xa4, 0x6b, 0x2b, 0xbe, 0x66, 0x50, 0x5d, 0xbe, 0x65, 0xbd, 0xcd, 0xbd,
  0x6c, 0xc8, 0x1c, 0xbe, 0x1a, 0xed, 0x68, 0xbd, 0x57, 0xff, 0x72, 0x3d,
  0xe4, 0xd9, 0xfc, 0xbd, 0xfe, 0x74, 0x1e, 0x3e, 0xb6, 0xdf, 0x7f, 0x3d,
  0xc3, 0x76, 0x38, 0xbe, 0x70, 0xe0, 0x4c, 0x3e, 0x3e, 0xc8, 0x41, 0xbe,
  0x3e, 0xbb, 0x0b, 0xbe, 0xee, 0xd8, 0xce, 0xbc, 0x43, 0xdd, 0x07, 0xbe,
  0xe6, 0xbb, 0x78, 0xbe, 0x57, 0x4e, 0xd9, 0x3d, 0x5d, 0x0d, 0x5f, 0x3e,
  0x55, 0x47, 0xe2, 0xbd, 0x44, 0xab, 0x5c, 0x3e, 0x58, 0x8e, 0xb6, 0xbb,
  0x0a, 0xe8, 0x33, 0xbe, 0x10, 0x34, 0x1f, 0x3d, 0x28, 0xd8, 0xa6, 0x3d,
  0x18, 0x45, 0x6f, 0xbe, 0x64, 0xfe, 0x23, 0xbb, 0xa3, 0xc8, 0xbb, 0x3b,
  0x67, 0x0d, 0x69, 0xbc, 0x14, 0xfd, 0x77, 0xbd, 0x3f, 0xe0, 0x57, 0xbe,
  0xfe, 0x86, 0x54, 0x3d, 0x7e, 0xe0, 0xba, 0x3d, 0xd8, 0x55, 0x3c, 0x3e,
  0x4e, 0xb7, 0x38, 0xbe, 0x63, 0xa0, 0x77, 0xbe, 0xe9, 0x16, 0x43, 0xbe,
  0xeb, 0xa5, 0x29, 0xbe, 0x57, 0x7b, 0x3e, 0xbe, 0x67, 0x1e, 0x52, 0xbd,
  0x54, 0x54, 0x69, 0x3e, 0x5e, 0x1b, 0x4f, 0xbd, 0x06, 0x33, 0xe3, 0xbc,
  0x56, 0x75, 0x89, 0x3e, 0xed, 0x11, 0x95, 0x3c, 0x7f, 0xc6, 0xa3, 0xbd,
  0x08, 0x7e, 0x39, 0xbe, 0x96, 0x0d, 0x52, 0x3d, 0x59, 0x71, 0xca, 0xbd,
  0x81, 0xe3, 0x75, 0x3e, 0xfa, 0x68, 0x12, 0x3d, 0x5a, 0xe0, 0x8d, 0xbe,
  0x7f, 0xe8, 0xba, 0x3b, 0x30, 0x82, 0xcd, 0xbd, 0x5b, 0xb9, 0xf0, 0xbd,
  0xca, 0x9e, 0x45, 0x3e, 0x4f, 0x45, 0x7f, 0x3d, 0xe4, 0x35, 0x22, 0x3d,
  0x51, 0x1b, 0xb8, 0x3d, 0xf1, 0x69, 0xed, 0x3d, 0xdc, 0x73, 0x75, 0x3e,
  0xf3, 0xd2, 0xfd, 0x3c, 0x4a, 0x37, 0x68, 0xbe, 0x22, 0xb8, 0xee, 0xbd,
  0xfc, 0x61, 0xf1, 0xbd, 0x49, 0xa8, 0x9d, 0xbd, 0xcf, 0x75, 0x60, 0x3e,
  0x6e, 0xd2, 0xec, 0x3d, 0xd7, 0x79, 0x0f, 0xbe, 0x2d, 0xc8, 0xe1, 0x3d,
  0xab, 0xd9, 0x65, 0x3e, 0xa3, 0xd4, 0xf5, 0xbc, 0x23, 0x7e, 0xfe, 0xbc,
  0x42, 0x91, 0xac, 0x3d, 0xac, 0x65, 0x13, 0xbe, 0x64, 0x85, 0xed, 0xbd,
  0x2e, 0xe3, 0x54, 0xbe, 0x71, 0xfa, 0x11, 0x3d, 0x62, 0xc5, 0x6e, 0xbe,
  0x6f, 0x39, 0x3b, 0xbd, 0xc7, 0xeb, 0x00, 0x3e, 0x39, 0xd6, 0x81, 0xbe,
  0xac, 0x8c, 0xce, 0xbd, 0x82, 0xe4, 0xbc, 0xba, 0xa3, 0x45, 0x4e, 0xbc,
  0x40, 0xd5, 0x04, 0xbe, 0x7d, 0x1e, 0x92, 0x3c, 0x01, 0x7c, 0x4e, 0x3e,
  0xa6, 0xd8, 0xd3, 0x3d, 0x02, 0x30, 0x19, 0x3e, 0xa0, 0x37, 0x9b, 0x3d,
  0xc7, 0xd2, 0x98, 0xbe, 0x49, 0xb4, 0x82, 0xbe, 0x94, 0xf4, 0xaa, 0x3c,
  0xfb, 0xf2, 0x11, 0x3e, 0xf5, 0xdf, 0x11, 0xbe, 0x27, 0xf2, 0x9a, 0x3d,
  0xb7, 0xa7, 0x51, 0x3d, 0xf6, 0xf9, 0xab, 0x3d, 0x4e, 0xc4, 0x63, 0x3e,
  0x4d, 0xdc, 0x45, 0x3e, 0xb2, 0xc0, 0x8b, 0x3d, 0x0f, 0x86, 0x71, 0x3e,
  0xfb, 0x92, 0xe6, 0xbb, 0x0f, 0x2c, 0x4b, 0xbe, 0xd9, 0x6d, 0xe5, 0x3d,
  0x19, 0xd2, 0x52, 0x3b, 0x0d, 0x2d, 0x91, 0x3e, 0xed, 0x62, 0xcc, 0xba,
  0xe1, 0xc4, 0x16, 0xbe, 0x99, 0xab, 0x3e, 0x3e, 0xba, 0xa3, 0xdf, 0x3c,
  0x26, 0xe5, 0x61, 0xbc, 0xc3, 0x49, 0xc3, 0x3d, 0xdd, 0x92, 0x5e, 0xbe,
  0xef, 0xa5, 0xfc, 0xbd, 0xfd, 0xb4, 0xc6, 0xbd, 0xc0, 0xef, 0xf9, 0x3c,
  0x41, 0xc0, 0x36, 0x3d, 0x14, 0x81, 0x16, 0x3d, 0x98, 0x24, 0x2d, 0x3e,
  0x16, 0x5c, 0x17, 0x3e, 0xd6, 0x3a, 0xeb, 0xbd, 0x87, 0x51, 0x40, 0xbe,
  0xac, 0x89, 0xcb, 0xbd, 0x41, 0xe5, 0x81, 0x3e, 0x36, 0xd5, 0x64, 0x3e,
  0x45, 0x83, 0xe1, 0xbd, 0x1b, 0x75, 0x02, 0x3e, 0xf7, 0x80, 0x86, 0xbd,
  0xf2, 0x38, 0x23, 0x3e, 0x9c, 0x97, 0x48, 0x3d, 0x57, 0x83, 0x9c, 0x3d,
  0x8f, 0xa6, 0x5a, 0x3e, 0x95, 0x06, 0x51, 0x3d, 0xde, 0x38, 0xc1, 0x3d,
  0xda, 0x96, 0x80, 0xbe, 0xb6, 0xe2, 0xc9, 0x3d, 0x3d, 0xab, 0xe2, 0x3d,
  0x11, 0x88, 0x45, 0xbe, 0x2f, 0x0e, 0x49, 0x3e, 0x9e, 0x79, 0x19, 0x3d,
  0x06, 0x74, 0xe3, 0xbd, 0x3c, 0x5f, 0xf2, 0xbd, 0x5c, 0x71, 0x6e, 0xbe,
  0x5b, 0x13, 0x4c, 0x3e, 0x5b, 0x78, 0x28, 0xbe, 0x50, 0x83, 0x76, 0xbd,
  0xfd, 0x06, 0x88, 0xbe, 0xcf, 0xa4, 0x97, 0x3d, 0x77, 0x7a, 0xa7, 0x3d,
  0x98, 0xf0, 0x29, 0x3c, 0x67, 0x98, 0x68, 0x3e, 0x4f, 0x1a, 0x6c, 0x3b,
  0x64, 0xbc, 0xa8, 0xbd, 0xd8, 0x72, 0xcb, 0xbb, 0x01, 0xfa, 0xbf, 0x3c,
  0x9c, 0x71, 0x3e, 0xbe, 0xc3, 0x1c, 0x26, 0x3d, 0xf1, 0x06, 0x72, 0xba,
  0xf5, 0x54, 0x14, 0x3e, 0xd9, 0x7e, 0x0d, 0xbd, 0xa8, 0xd2, 0x3b, 0xbe,
  0xc0, 0x4f, 0xf3, 0x3d, 0x6d, 0x96, 0xce, 0xbc, 0x4c, 0x97, 0xd7, 0xbc,
  0x0a, 0x11, 0xb3, 0x3c, 0x50, 0xd3, 0xc7, 0x3d, 0x00, 0xcd, 0x49, 0xbe,
  0x58, 0xca, 0xc5, 0xbd, 0xac, 0x74, 0x82, 0x3d, 0xde, 0x02, 0x05, 0x3e,
  0x11, 0x26, 0x3b, 0x3e, 0x0c, 0x5c, 0x81, 0x3e, 0x52, 0xa0, 0xb6, 0x3c,
  0xb2, 0xaf, 0x60, 0xbd, 0x28, 0x96, 0x21, 0xbd, 0xca, 0xe9, 0xc0, 0xbc,
  0x93, 0xa7, 0x9e, 0x3d, 0xa0, 0x24, 0x52, 0xbe, 0x79, 0x93, 0x88, 0xbc,
  0x50, 0xdc, 0x77, 0xbe, 0x3f, 0x07, 0x37, 0xbd, 0xb5, 0xa9, 0x54, 0x3e,
  0x14, 0x17, 0x1a, 0xbe, 0xe4, 0xc2, 0x8d, 0xbe, 0x6b, 0xa8, 0x52, 0xbc,
  0xd9, 0x9e, 0x90, 0xbc, 0x55, 0x71, 0x86, 0x3d, 0xc4, 0x67, 0xb2, 0xbd,
  0xfb, 0xc3, 0x54, 0x3c, 0x45, 0x8f, 0x77, 0xbe, 0xbb, 0x47, 0xd3, 0x3d,
  0xea, 0x7f, 0xf3, 0x3b, 0xe6, 0x07, 0x70, 0x3e, 0xb3, 0x49, 0x36, 0x3d,
  0x5e, 0x4d, 0xf8, 0x3d, 0xa8, 0x59, 0xe0, 0xbd, 0x31, 0xed, 0x1d, 0x3d,
  0xb6, 0xd0, 0x21, 0xbe, 0x28, 0x2f, 0xe8, 0x3d, 0xf1, 0xdf, 0x28, 0xbe,
  0x63, 0xf6, 0x7d, 0x3e, 0x16, 0x65, 0x25, 0xbe, 0x3f, 0x2b, 0x11, 0x3e,
  0xa9, 0x3b, 0xb3, 0xbd, 0xfe, 0x4c, 0x28, 0x3e, 0xa5, 0x9a, 0x30, 0xbd,
  0x45, 0x0e, 0x3e, 0x3c, 0x4e, 0xb3, 0x8a, 0xbe, 0x81, 0xf2, 0xa3, 0xbd,
  0x72, 0x3f, 0xbf, 0xbd, 0xc5, 0xeb, 0x39, 0x3e, 0xab, 0xa6, 0x3a, 0xbe,
  0xfa, 0x39, 0x23, 0xbc, 0x01, 0x4d, 0x55, 0x3e, 0x48, 0x44, 0xd7, 0x3d,
  0xc9, 0x64, 0x8b, 0xbe, 0x78, 0x7a, 0x75, 0xbe, 0x65, 0xac, 0xb9, 0x3d,
  0xe3, 0xc6, 0x7f, 0xbe, 0xc9, 0xc8, 0x48, 0x3e, 0x85, 0x25, 0x9b, 0xbd,
  0x27, 0x07, 0xf8, 0x3d, 0x0c, 0x83, 0x46, 0x3e, 0x4e, 0x56, 0x23, 0x3e,
  0xf3, 0xf1, 0x78, 0x3d, 0x60, 0x88, 0xd8, 0x3d, 0x78, 0xe2, 0xfe, 0x3c,
  0x47, 0x56, 0x05, 0x3d, 0xe5, 0xcc, 0x9a, 0x3d, 0x1f, 0xe2, 0x99, 0x3d,
  0xdc, 0x2d, 0x9e, 0xbc, 0x66, 0xcd, 0xee, 0xbd, 0x23, 0x25, 0xbc, 0xbd,
  0x34, 0xba, 0xd0, 0xbd, 0x34, 0x4b, 0x60, 0xbd, 0x51, 0xe8, 0x5f, 0x3e,
  0x75, 0x1a, 0x70, 0xbe, 0x2c, 0x53, 0xf3, 0xbd, 0x79, 0x39, 0x85, 0xbe,
  0xb1, 0x1a, 0x50, 0xbe, 0x7b, 0x40, 0xb4, 0x3d, 0xe4, 0x54, 0xef, 0xbd,
  0x4a, 0x99, 0x9e, 0xbc, 0xbb, 0x76, 0x83, 0x3d, 0xee, 0xe1, 0x5d, 0xbe,
  0x38, 0x4f, 0x33, 0x3e, 0x64, 0x3f, 0xc6, 0xbd, 0x38, 0xca, 0x91, 0x3d,
  0x33, 0x49, 0x56, 0x3e, 0xce, 0xa4, 0x16, 0x3e, 0x1f, 0x15, 0xb3, 0xbd,
  0x75, 0x46, 0x88, 0xbe, 0xe3, 0x65, 0x01, 0x3e, 0x4b, 0x07, 0x48, 0xbe,
  0x4b, 0x6b, 0x53, 0x3e, 0xa0, 0x2e, 0x43, 0x3e, 0x2f, 0x15, 0x01, 0xbe,
  0xf4, 0x2c, 0xf7, 0x3d, 0x64, 0x0e, 0x85, 0x3d, 0xcf, 0xbf, 0x28, 0x3e,
  0x4d, 0x32, 0xc8, 0xbd, 0x73, 0x56, 0xe9, 0xbc, 0xc7, 0xcb, 0x48, 0xbd,
  0x6e, 0x36, 0xaa, 0xbd, 0xb8, 0x00, 0x4d, 0x3e, 0x3f, 0x7c, 0xe8, 0x3d,
  0x47, 0x26, 0x6f, 0xbe, 0xfb, 0xab, 0xa6, 0xbd, 0xc2, 0xf7, 0x48, 0xbe,
  0xf6, 0x9c, 0xf2, 0x3d, 0xde, 0xb0, 0x87, 0xbd, 0xf8, 0x21, 0x91, 0xbd,
  0xfb, 0xd2, 0x05, 0xbe, 0x42, 0x57, 0x51, 0xbe, 0x79, 0x39, 0xf8, 0x3d,
  0xd5, 0xb1, 0x70, 0xbe, 0x06, 0x2b, 0x5f, 0x3b, 0x2f, 0x0c, 0xa9, 0xbd,
  0xe0, 0x26, 0xbf, 0xbd, 0x79, 0x75, 0xdf, 0x3c, 0x18, 0xa6, 0xcc, 0xbc,
  0xc8, 0x41, 0x41, 0x3d, 0x82, 0xdb, 0xb4, 0x3d, 0xc7, 0x46, 0x1d, 0xbe,
  0x04, 0x25, 0x59, 0x3d, 0xf8, 0xce, 0x15, 0x3c, 0x15, 0xe1, 0x1a, 0xbe,
  0x33, 0x9d, 0x17, 0xbe, 0x5f, 0x67, 0x78, 0x3e, 0x2f, 0x81, 0x3e, 0xbe,
  0xe8, 0x43, 0xbf, 0x3d, 0xb9, 0xad, 0xca, 0xbd, 0x95, 0x41, 0x9c, 0x3d,
  0xd5, 0xf8, 0x0d, 0xbe, 0xd7, 0x11, 0x3b, 0x3b, 0xca, 0x10, 0x1c, 0xbe,
  0xa2, 0xf9, 0xc0, 0xbd, 0x02, 0x91, 0x0c, 0xbe, 0x2e, 0x83, 0x17, 0x3e,
  0x7b, 0xcf, 0xd8, 0x3d, 0x5f, 0x4f, 0x69, 0xbd, 0xaa, 0x3b, 0x79, 0x3e,
  0x9d, 0x01, 0x95, 0xbd, 0x82, 0x9e, 0x36, 0x3d, 0xb3, 0x8e, 0xb8, 0x3d,
  0x1a, 0x10, 0x18, 0x3e, 0x0d, 0xc9, 0x41, 0xbd, 0xb3, 0x22, 0x97, 0x3d,
  0xb3, 0x76, 0x93, 0x3c, 0x2d, 0x07, 0x93, 0x3d, 0x58, 0x1d, 0xa9, 0x3d,
  0x09, 0x77, 0x34, 0xbe, 0x25, 0x48, 0x63, 0xbe, 0xf5, 0x5e, 0xe0, 0xbd,
  0x6e, 0x70, 0x05, 0xbd, 0xba, 0xcc, 0xfe, 0xbd, 0x75, 0xb5, 0x48, 0x3d,
  0xbc, 0x08, 0x48, 0xbe, 0xb6, 0x6f, 0x5c, 0xbe, 0xe5, 0xa6, 0x00, 0xbd,
  0x8f, 0x85, 0x06, 0xbe, 0x48, 0x61, 0x61, 0xbe, 0xd9, 0xb3, 0xe2, 0xbd,
  0xa3, 0x13, 0x04, 0x3e, 0x9c, 0xde, 0x3e, 0x3e, 0x65, 0x84, 0x46, 0x3e,
  0x70, 0x73, 0xbb, 0xbd, 0x83, 0x88, 0xbc, 0xbd, 0x15, 0xeb, 0x42, 0xbd,
  0x68, 0x00, 0xe0, 0x3d, 0x6b, 0xa1, 0xb0, 0xbd, 0x0b, 0x19, 0xb2, 0x3b,
  0x19, 0x67, 0x1d, 0xbe, 0xf7, 0xe6, 0x0c, 0xbe, 0xcf, 0xf2, 0xbf, 0x3b,
  0x4c, 0xea, 0x36, 0xbe, 0xc2, 0x95, 0x17, 0xbe, 0x0b, 0x01, 0x21, 0xbe,
  0x13, 0xb0, 0x69, 0x3e, 0x21, 0x17, 0x26, 0x3e, 0xab, 0xdb, 0x00, 0x3e,
  0x3d, 0x54, 0x80, 0x3e, 0x9f, 0x05, 0x6a, 0xbe, 0x17, 0x0a, 0x2a, 0xbe,
  0x08, 0xd3, 0x66, 0xbe, 0x6d, 0xd5, 0x73, 0xbd, 0x0b, 0x7a, 0x2b, 0x3d,
  0x76, 0x78, 0x54, 0xbe, 0x3a, 0x10, 0x1c, 0x3e, 0xcc, 0x3d, 0xd9, 0xbd,
  0x5d, 0x3d, 0x65, 0xbe, 0x34, 0x56, 0x50, 0xbe, 0xb7, 0xeb, 0x18, 0xbe,
  0xff, 0x86, 0x30, 0xbe, 0xc0, 0x4d, 0x6f, 0x3e, 0xc2, 0xd3, 0x64, 0xbd,
  0xbb, 0x98, 0x6b, 0x3e, 0xc6, 0x9b, 0x92, 0x3d, 0x2c, 0x46, 0x4e, 0x3d,
  0x35, 0x83, 0x0d, 0xbd, 0x74, 0x2a, 0x49, 0xbe, 0x1b, 0xcb, 0x0c, 0x3d,
  0x68, 0x29, 0x0b, 0xbd, 0xd1, 0x7d, 0x47, 0x3d, 0x8b, 0xdd, 0x61, 0x3e,
  0x6e, 0x3b, 0x45, 0xbe, 0x72, 0xc3, 0x72, 0x3e, 0xca, 0x83, 0xa0, 0x3b,
  0xb8, 0x4c, 0xb2, 0x3c, 0xac, 0xde, 0x31, 0xbe, 0x74, 0xf6, 0xae, 0x3d,
  0x8d, 0xb1, 0x85, 0xbe, 0xea, 0x9c, 0x1c, 0x3e, 0x00, 0x4c, 0xd2, 0xbd,
  0xff, 0x4f, 0xa2, 0xbb, 0x3d, 0x14, 0x96, 0x3d, 0xe9, 0x14, 0x20, 0xbe,
  0x1d, 0xe4, 0x53, 0xbe, 0x75, 0x04, 0x45, 0x3e, 0x89, 0x1b, 0x28, 0xbb,
  0x48, 0x0c, 0x6e, 0x3e, 0x5a, 0x94, 0x08, 0xbd, 0x47, 0xec, 0x67, 0x3d,
  0xfa, 0x74, 0x8d, 0xbe, 0xd5, 0xa3, 0x94, 0xbc, 0x65, 0xe1, 0xa7, 0x3d,
  0x39, 0x0c, 0x2a, 0xbe, 0x94, 0x1f, 0xb2, 0xbd, 0x9c, 0xf8, 0xdc, 0xbd,
  0x7d, 0xec, 0x00, 0xbe, 0x52, 0x92, 0xa8, 0xbd, 0xd2, 0x5c, 0x04, 0x3e,
  0x6a, 0xfc, 0x9b, 0xbd, 0x1b, 0x64, 0x19, 0xbe, 0xd0, 0x5c, 0x2c, 0x3c,
  0xbf, 0xc6, 0x4d, 0xbe, 0xb1, 0x41, 0x48, 0x3c, 0xc0, 0xf2, 0xd4, 0xbd,
  0x65, 0xff, 0xe1, 0xbd, 0x00, 0xa1, 0x88, 0xbe, 0xf1, 0xce, 0xfe, 0x3d,
  0x0b, 0xe4, 0x50, 0xbe, 0xa8, 0x84, 0x54, 0xbe, 0x3a, 0x84, 0xf6, 0xbd,
  0xf0, 0x80, 0x7c, 0x3e, 0xa4, 0x1f, 0x68, 0xbe, 0x7d, 0x93, 0x87, 0x3e,
  0x77, 0x52, 0xa4, 0x3d, 0xcb, 0xe7, 0xd8, 0x3d, 0x3f, 0xa8, 0x2b, 0x3e,
  0x3e, 0xa3, 0x3b, 0x3d, 0xb5, 0x85, 0x94, 0x3c, 0x62, 0xdd, 0x30, 0x3e,
  0x45, 0x69, 0xd3, 0xbd, 0x98, 0xd9, 0x21, 0x3e, 0x62, 0x1e, 0x76, 0x3e,
  0x62, 0x68, 0x24, 0xbd, 0x54, 0x0c, 0x53, 0xbe, 0xf8, 0x21, 0x69, 0xbe,
  0x5a, 0xed, 0x92, 0xbd, 0x04, 0x64, 0x26, 0x3e, 0x24, 0x79, 0x12, 0xbd,
  0xe7, 0x5d, 0xfb, 0x3d, 0x0d, 0x18, 0x62, 0x3d, 0x56, 0xff, 0x9d, 0x3c,
  0x78, 0x2b, 0x1e, 0x3e, 0x6e, 0x88, 0x44, 0xbd, 0xc7, 0x2d, 0x42, 0x3e,
  0xe5, 0x03, 0x06, 0xbd, 0x53, 0x9e, 0x5c, 0x3e, 0x9a, 0x1b, 0xc6, 0xbd,
  0x5c, 0x53, 0xd1, 0x3d, 0x70, 0x16, 0x6e, 0x3c, 0x0f, 0x14, 0x8f, 0xbd,
  0xa0, 0xf0, 0x02, 0xbe, 0xc2, 0x21, 0x64, 0x3e, 0x57, 0x6a, 0x7a, 0x3e,
  0x94, 0x7e, 0x07, 0xbd, 0x15, 0x9e, 0x79, 0x3d, 0x5f, 0x01, 0x40, 0xbd,
  0x05, 0x8f, 0xe2, 0xbd, 0x7a, 0xc0, 0x93, 0x3e, 0x7f, 0xbe, 0x0b, 0xbe,
  0xaa, 0x34, 0x99, 0xbd, 0xab, 0xa1, 0x0f, 0x3d, 0x78, 0x26, 0xf4, 0xbd,
  0x6a, 0x1f, 0x9a, 0xbe, 0x62, 0x7e, 0x41, 0xbe, 0x8d, 0xb2, 0x46, 0xbe,
  0x4a, 0x92, 0xca, 0xbd, 0x9e, 0xc2, 0x8a, 0xbe, 0x3f, 0x68, 0x08, 0xbe,
  0x15, 0xc8, 0x5d, 0x3d, 0x7c, 0xc0, 0xf4, 0x3d, 0xd8, 0x74, 0x66, 0x3c,
  0x2b, 0xcc, 0x10, 0x3d, 0xaa, 0xd4, 0xb8, 0xbd, 0xbd, 0xcb, 0x28, 0xbe,
  0x50, 0x9d, 0x21, 0x3c, 0x65, 0xcf, 0x91, 0x3d, 0xaa, 0xa9, 0x8a, 0xbd,
  0x1f, 0x86, 0x86, 0xbe, 0x10, 0x79, 0x25, 0x3e, 0xb0, 0x7c, 0xe0, 0x3d,
  0x6c, 0x13, 0xcb, 0xbc, 0xa7, 0x3c, 0x67, 0x3e, 0xef, 0x34, 0x0b, 0xbe,
  0x37, 0x04, 0x11, 0xbe, 0x41, 0xcc, 0x36, 0xbd, 0xfe, 0x26, 0xd4, 0xbd,
  0xf5, 0xf3, 0x64, 0xbe, 0x8e, 0x4b, 0x33, 0x3e, 0xd0, 0xf6, 0x6d, 0x3d,
  0x28, 0x9a, 0x04, 0x3d, 0x13, 0x7c, 0x6e, 0xbe, 0x88, 0x18, 0x62, 0x3e,
  0xb6, 0x85, 0x15, 0xbe, 0x95, 0xd6, 0x16, 0x3e, 0xe2, 0xb1, 0x72, 0xbc,
  0x09, 0xbc, 0x8b, 0xbe, 0x80, 0x46, 0x17, 0x3e, 0x77, 0x0b, 0x0a, 0xbe,
  0x04, 0x01, 0x75, 0xbe, 0xf2, 0x10, 0xd7, 0xbd, 0x0e, 0x18, 0x69, 0x3e,
  0xe4, 0xf3, 0x93, 0x3b, 0xfb, 0x39, 0x42, 0x3e, 0x3b, 0xd9, 0x0f, 0xbd,
  0xc4, 0x85, 0xe2, 0x3c, 0x29, 0x57, 0x13, 0xbe, 0x74, 0x93, 0x96, 0x3d,
  0x5c, 0xbf, 0xa6, 0xbd, 0xc3, 0x99, 0x01, 0xbd, 0x3a, 0x59, 0x89, 0xbc,
  0x6a, 0x5d, 0x94, 0xbc, 0x95, 0x18, 0x9b, 0xbc, 0x2c, 0x20, 0x39, 0xbd,
  0xe6, 0xd3, 0xc1, 0xbc, 0xab, 0x0e, 0x31, 0x3d, 0xf5, 0xba, 0x66, 0x3e,
  0x5d, 0x12, 0x1e, 0x3e, 0x40, 0x6d, 0xfa, 0x3c, 0xa0, 0xee, 0x3e, 0x3d,
  0x99, 0x18, 0xf3, 0x3d, 0x92, 0x81, 0xc3, 0x3d, 0xa7, 0x52, 0xec, 0x3d,
  0x38, 0x92, 0x48, 0xbd, 0xc6, 0xec, 0x25, 0xbe, 0x62, 0x66, 0x18, 0x3e,
  0xe1, 0x57, 0xe3, 0xbd, 0x61, 0x1d, 0x8f, 0xbd, 0x44, 0xed, 0x1b, 0xbe,
  0x45, 0xf9, 0x47, 0xbe, 0xc8, 0x3b, 0x56, 0xbd, 0xdb, 0xb7, 0xcf, 0xbb,
  0xd0, 0x08, 0xd2, 0x3d, 0x43, 0x6d, 0x29, 0x3e, 0xe6, 0x39, 0x39, 0x3e,
  0x3d, 0x0b, 0x3d, 0xbe, 0x94, 0x46, 0x44, 0x3d, 0x78, 0xad, 0x60, 0x3e,
  0x75, 0xb7, 0xe8, 0xbb, 0x7b, 0x0b, 0xe3, 0x3d, 0xe2, 0x66, 0x37, 0xbe,
  0xc2, 0x17, 0xd3, 0xbc, 0x38, 0x15, 0x75, 0xbb, 0xc9, 0xc6, 0x8f, 0x3d,
  0xf4, 0xab, 0x30, 0xbe, 0x1a, 0xbb, 0x7e, 0xbb, 0x74, 0xba, 0x1f, 0xbe,
  0x7b, 0xb6, 0x01, 0xbc, 0x14, 0xaf, 0x5c, 0xbe, 0x68, 0x4f, 0xa1, 0x3d,
  0x30, 0x48, 0x32, 0x3e, 0x02, 0x68, 0xd8, 0x3d, 0x58, 0xc6, 0x1e, 0x3e,
  0xc5, 0x16, 0x16, 0xbe, 0xa0, 0x65, 0x61, 0xbe, 0x1e, 0x8e, 0x36, 0xbe,
  0x68, 0xce, 0x88, 0xbc, 0xf0, 0x5b, 0xab, 0x3c, 0x44, 0x34, 0xd6, 0xbd,
  0x98, 0xcc, 0x13, 0x3e, 0x01, 0xa4, 0xd3, 0x3c, 0xf5, 0x1b, 0xce, 0x3b,
  0xa4, 0x5d, 0x62, 0x3e, 0x20, 0xca, 0x82, 0xbe, 0x55, 0x82, 0x10, 0xbc,
  0xf3, 0x6e, 0x6e, 0xbe, 0x08, 0xfe, 0x0f, 0x3e, 0x7e, 0xa5, 0x4d, 0xbd,
  0x68, 0x95, 0x1f, 0xbe, 0x57, 0x05, 0x0d, 0xbe, 0x57, 0xd0, 0xee, 0xbd,
  0x1b, 0x4e, 0xaa, 0xbd, 0x00, 0xee, 0xc3, 0x3c, 0xad, 0x74, 0x87, 0x3e,
  0x1b, 0x5e, 0x57, 0x3e, 0x11, 0x10, 0x35, 0xbd, 0xd3, 0x39, 0x13, 0xbd,
  0xb8, 0xff, 0x6a, 0xbd, 0x6b, 0x5f, 0x83, 0xbe, 0x5e, 0x43, 0x3c, 0x3e,
  0xdc, 0x4c, 0xcc, 0xbc, 0xf6, 0x60, 0x4c, 0x3d, 0x78, 0x63, 0x34, 0x3e,
  0x4c, 0xd8, 0xf3, 0x3d, 0x67, 0x54, 0x58, 0xbe, 0xfe, 0x42, 0xb0, 0x3d,
  0xe9, 0x7e, 0x50, 0xbe, 0xd7, 0x36, 0x01, 0x3e, 0x38, 0x38, 0xf3, 0x3c,
  0xc1, 0xde, 0x21, 0xbd, 0xf7, 0x9c, 0x03, 0xbd, 0x7a, 0x38, 0xac, 0x3d,
  0x86, 0x43, 0xb7, 0xbd, 0x89, 0xb7, 0x55, 0xbe, 0x8e, 0x7a, 0x34, 0x3e,
  0x6f, 0x4c, 0x3b, 0xbc, 0x6f, 0xf8, 0x28, 0xbd, 0xc2, 0xe5, 0x57, 0x3d,
  0xde, 0x88, 0x90, 0xbd, 0x3f, 0xff, 0xc2, 0x3d, 0x6f, 0x7e, 0x9b, 0xbe,
  0xce, 0x9a, 0x88, 0x3e, 0x45, 0x45, 0x5e, 0xbe, 0x6f, 0x25, 0x94, 0xbd,
  0xd6, 0x52, 0x1c, 0x3e, 0xef, 0xf7, 0xf9, 0x3d, 0xc3, 0x5c, 0x28, 0x3e,
  0x86, 0x49, 0xe8, 0xbd, 0x48, 0xeb, 0x00, 0xbe, 0x08, 0xc5, 0x06, 0xbe,
  0x55, 0x00, 0x2f, 0xbe, 0x27, 0xd8, 0x4f, 0xbe, 0x93, 0xb6, 0xfe, 0x3d,
  0x8d, 0xc7, 0x31, 0x3d, 0x28, 0x76, 0xb0, 0x3d, 0x2f, 0x53, 0x15, 0xbe,
  0xc2, 0x3e, 0x2a, 0x3e, 0x6f, 0x3f, 0x7c, 0x3e, 0xee, 0x35, 0x6f, 0x3c,
  0x4a, 0x36, 0x25, 0x3e, 0xc7, 0xb1, 0x34, 0x3e, 0xd6, 0x55, 0x04, 0x3e,
  0x4c, 0xc4, 0x90, 0x3e, 0x97, 0x5e, 0x16, 0xbe, 0x6a, 0x86, 0x6b, 0x3e,
  0x0b, 0x2f, 0x6b, 0xbe, 0x2f, 0xa9, 0xa7, 0xbb, 0x8c, 0xfc, 0x68, 0x3e,
  0xca, 0xd2, 0x7c, 0x3e, 0x37, 0x38, 0xee, 0x3d, 0xc8, 0x74, 0xef, 0x3d,
  0xd1, 0x68, 0x4b, 0x3e, 0xeb, 0x8f, 0x30, 0x3c, 0xe7, 0xd9, 0xf9, 0xbd,
  0xda, 0x09, 0x0c, 0xbd, 0x70, 0xc5, 0x70, 0xbe, 0xb4, 0x27, 0x48, 0xbe,
  0xd1, 0xeb, 0x27, 0xbe, 0x67, 0x36, 0x9d, 0xbd, 0x13, 0x4b, 0x69, 0xbd,
  0xbe, 0x1b, 0x34, 0x3e, 0x9f, 0xd1, 0x56, 0xbd, 0xd7, 0xb9, 0x2a, 0xbe,
  0x1e, 0xcd, 0x43, 0xbe, 0x3d, 0x6e, 0x4d, 0xbe, 0x57, 0xdc, 0xdb, 0x3d,
  0x36, 0x8e, 0x96, 0xbd, 0xb4, 0x70, 0x3c, 0xbe, 0xfd, 0xad, 0x93, 0xbc,
  0x91, 0xa6, 0x84, 0x3e, 0xf6, 0x26, 0x90, 0xbb, 0xb2, 0xf3, 0x88, 0x3c,
  0xf3, 0x1e, 0x0c, 0x3d, 0x82, 0x17, 0x5f, 0x3e, 0xa2, 0x0d, 0x22, 0x3e,
  0x6c, 0x55, 0xd6, 0x3d, 0xad, 0x7b, 0x00, 0x3e, 0x80, 0x95, 0x68, 0x3e,
  0x1e, 0x8b, 0x75, 0xbd, 0xea, 0xe1, 0x62, 0x3d, 0xfa, 0xb6, 0x53, 0xbd,
  0x96, 0x39, 0x9f, 0xbc, 0x72, 0xda, 0x11, 0xbe, 0x8f, 0x44, 0x1d, 0xbe,
  0xfe, 0x0f, 0x7a, 0xbc, 0xe0, 0x38, 0x12, 0xbe, 0x85, 0x10, 0xd4, 0x3d,
  0xa0, 0xe6, 0x27, 0xbe, 0x2b, 0x7d, 0x17, 0x3e, 0xab, 0x38, 0x00, 0x3e,
  0x71, 0x9f, 0xff, 0xbd, 0x21, 0x00, 0x21, 0xbd, 0x75, 0xc9, 0x3a, 0xbe,
  0x4d, 0x46, 0x04, 0x3e, 0x8d, 0x13, 0x58, 0x3e, 0xfb, 0x2f, 0x74, 0xbe,
  0x56, 0x45, 0x63, 0x3e, 0x72, 0x3b, 0xf9, 0xbd, 0x1f, 0x66, 0x68, 0xbd,
  0x6f, 0x99, 0xd1, 0x3b, 0x43, 0x1a, 0xdc, 0xbd, 0x59, 0x0f, 0xec, 0xbd,
  0x44, 0x30, 0x72, 0x3e, 0xf3, 0x53, 0x34, 0xbe, 0xda, 0xd2, 0x54, 0xbe,
  0x93, 0x02, 0x59, 0x3e, 0xd7, 0x93, 0x08, 0xbe, 0xb6, 0x9f, 0x1e, 0xbe,
  0xac, 0xb7, 0xdc, 0x3d, 0xe2, 0x78, 0x4f, 0xbe, 0x94, 0x7f, 0x9b, 0xbd,
  0x30, 0x7e, 0x06, 0xbe, 0x22, 0x3c, 0x5c, 0xbe, 0x2b, 0x33, 0x34, 0xbe,
  0x03, 0xce, 0x59, 0xbe, 0xf5, 0xf5, 0x95, 0xbc, 0xef, 0x0a, 0x09, 0x3e,
  0x9c, 0xcc, 0x4b, 0xbe, 0x68, 0x3c, 0xf7, 0x3b, 0x0d, 0x41, 0x31, 0xbd,
  0x4d, 0x2f, 0xd2, 0xbd, 0xfd, 0x58, 0x63, 0xbe, 0x8f, 0x4a, 0x02, 0x3e,
  0x6d, 0x8e, 0x6e, 0x3e, 0x9a, 0xb6, 0xfd, 0x3c, 0x27, 0x7c, 0x9f, 0xbd,
  0xc6, 0x39, 0x0f, 0x3c, 0x34, 0xac, 0xec, 0x3d, 0x4f, 0xf9, 0x45, 0xbe,
  0xe2, 0xc9, 0xc6, 0xbc, 0x9c, 0x7e, 0x35, 0xbe, 0xf2, 0x16, 0x08, 0xbe,
  0x41, 0xb2, 0xc8, 0xbd, 0x9a, 0xca, 0xd0, 0x3d, 0x3e, 0x69, 0x6f, 0x3d,
  0xaa, 0xb1, 0x23, 0x3e, 0xaa, 0x85, 0x4c, 0x3e, 0x67, 0xcc, 0x2b, 0x3e,
  0xe3, 0xd6, 0x13, 0x3e, 0x2d, 0x65, 0x88, 0x3c, 0x8c, 0xc5, 0xd0, 0xbd,
  0x1e, 0x8a, 0x47, 0x3e, 0x15, 0x1d, 0x13, 0x3e, 0x46, 0xe7, 0x2f, 0xbe,
  0x05, 0xbf, 0x3e, 0x3e, 0xf9, 0xc1, 0xac, 0xbd, 0xd0, 0x05, 0x9f, 0xbd,
  0x41, 0x17, 0x57, 0x3e, 0xff, 0xa8, 0xe5, 0x3c, 0xa1, 0x06, 0xa1, 0x3d,
  0xf8, 0x5b, 0xa6, 0xbd, 0x92, 0x20, 0x00, 0xbd, 0x02, 0xa8, 0xa9, 0xbd,
  0xa5, 0x78, 0x66, 0xbe, 0x4c, 0x25, 0xc6, 0xbd, 0xa2, 0x99, 0x84, 0xbe,
  0xe8, 0x5a, 0x70, 0x3e, 0x03, 0x94, 0xc2, 0xbd, 0x30, 0x7a, 0x67, 0x3d,
  0xbd, 0x9b, 0x7d, 0x3e, 0xda, 0x00, 0xdf, 0x3d, 0xc1, 0x52, 0x36, 0x3e,
  0x81, 0x9a, 0x25, 0xbe, 0xbf, 0xde, 0x25, 0x3e, 0x83, 0x7f, 0x41, 0xbe,
  0xa4, 0x16, 0xa2, 0x3d, 0xba, 0x11, 0x6b, 0x3e, 0x57, 0x5d, 0x10, 0xbe,
  0x9d, 0x95, 0xbb, 0xbd, 0xb3, 0x13, 0xd9, 0x3d, 0xe5, 0x73, 0xeb, 0x3d,
  0x26, 0x12, 0xc1, 0x3d, 0xe2, 0x71, 0xe9, 0x3c, 0x8b, 0x4d, 0x30, 0x3d,
  0x4f, 0x7b, 0xe6, 0xbd, 0xbb, 0x02, 0x72, 0xbe, 0xa6, 0x86, 0x60, 0xbd,
  0x40, 0x0d, 0x2b, 0x3e, 0xc2, 0xfc, 0x42, 0x3e, 0x52, 0x91, 0xe9, 0x3d,
  0xec, 0x01, 0x64, 0xbe, 0x5b, 0x58, 0x2d, 0x3e, 0x8a, 0x28, 0x47, 0x3d,
  0x27, 0x5e, 0x71, 0xbe, 0x78, 0x60, 0x46, 0x3d, 0x97, 0x31, 0x70, 0xbd,
  0x59, 0x7e, 0x19, 0xbe, 0xb2, 0x48, 0x65, 0xbe, 0xd4, 0x7b, 0xcb, 0xbd,
  0x98, 0x0c, 0x14, 0xbe, 0xbf, 0x09, 0x39, 0xbe, 0x45, 0x6d, 0x68, 0x3e,
  0x16, 0x21, 0x2e, 0xbe, 0xaa, 0x77, 0x6d, 0x3d, 0x24, 0xfd, 0x2a, 0x3e,
  0x53, 0x76, 0x30, 0xbe, 0xf0, 0xa8, 0x4b, 0xbe, 0xd4, 0x92, 0x1c, 0x3b,
  0x0c, 0x25, 0xba, 0xbd, 0x73, 0xd7, 0x67, 0x3e, 0xc6, 0x50, 0x85, 0x3d,
  0x31, 0x7a, 0x03, 0xbe, 0x1a, 0xa6, 0x58, 0x3d, 0xde, 0x06, 0x80, 0x3e,
  0x69, 0x99, 0x4c, 0xbe, 0x34, 0x26, 0x19, 0xbe, 0xd8, 0xc2, 0x57, 0xbe,
  0xc6, 0xa0, 0xed, 0x3d, 0xaf, 0x3d, 0x6c, 0xbe, 0x2c, 0xea, 0x18, 0xbe,
  0x1d, 0xb0, 0x2c, 0x3e, 0xe9, 0x91, 0x09, 0xbe, 0x4f, 0xc7, 0x88, 0x3d,
  0xe0, 0xa9, 0x10, 0x3b, 0x7b, 0xc2, 0xe1, 0xbd, 0x43, 0x06, 0x77, 0xbe,
  0xd5, 0xfe, 0x22, 0x3d, 0x53, 0x6c, 0x22, 0x3e, 0x1d, 0xce, 0x06, 0x3e,
  0x60, 0xce, 0x04, 0x3e, 0x61, 0xdd, 0x2f, 0xbe, 0x8d, 0xbd, 0x30, 0xbe,
  0xb6, 0x57, 0x53, 0xbe, 0x65, 0x2f, 0x74, 0x3e, 0x39, 0x74, 0x10, 0x3e,
  0x40, 0xdb, 0x1c, 0xbd, 0x17, 0xd2, 0xea, 0x3d, 0xe4, 0x63, 0x8c, 0x3d,
  0xf8, 0x60, 0x52, 0x3e, 0x35, 0xb0, 0x40, 0xbe, 0x66, 0x55, 0x16, 0xbe,
  0x8b, 0x0c, 0x8c, 0xbe, 0x00, 0xab, 0x19, 0xbe, 0xa8, 0x2a, 0x70, 0xbd,
  0x0c, 0x99, 0x98, 0x3d, 0xc5, 0xdb, 0x65, 0x3e, 0xed, 0x2a, 0x92, 0xbd,
  0x86, 0xaf, 0x31, 0x3e, 0xb3, 0x55, 0x99, 0xbd, 0xe1, 0xff, 0xa4, 0xbb,
  0xd3, 0x07, 0x8f, 0xbd, 0xc9, 0x22, 0xe2, 0xbd, 0xa9, 0x98, 0x26, 0x3e,
  0xc5, 0x73, 0x56, 0x3d, 0x7d, 0xb0, 0x23, 0xbe, 0x98, 0x08, 0x11, 0x3e,
  0x74, 0x97, 0x6e, 0x3e, 0xc7, 0x40, 0xb0, 0x3d, 0x1c, 0xd2, 0xbb, 0x3d,
  0xf2, 0x2b, 0x5b, 0x3e, 0xc5, 0x44, 0x00, 0x3e, 0xb2, 0xfc, 0x55, 0xbd,
  0x3f, 0x86, 0x0a, 0x3e, 0xe6, 0x2c, 0x9d, 0x3c, 0xbc, 0x70, 0x66, 0x3d,
  0x3c, 0xc0, 0xc0, 0x3d, 0x02, 0x56, 0x5d, 0xbe, 0x65, 0x7c, 0x03, 0x3e,
  0xab, 0xba, 0x32, 0x3e, 0x79, 0x21, 0x12, 0x3e, 0x4d, 0x36, 0xb9, 0x3d,
  0x63, 0x34, 0x0f, 0x3e, 0x81, 0xf3, 0xbd, 0xbd, 0x65, 0x6a, 0x87, 0xbd,
  0x41, 0x0b, 0x7f, 0x3e, 0xe6, 0x3e, 0xf0, 0x3d, 0xfd, 0x65, 0x80, 0xbe,
  0x3f, 0x02, 0xa6, 0xbd, 0x0f, 0xe7, 0xa8, 0xbd, 0x50, 0xbc, 0x00, 0x3e,
  0x57, 0xb2, 0x8a, 0xbb, 0x0e, 0x4a, 0x8e, 0x3e, 0xf8, 0x7b, 0x3f, 0xbd,
  0x79, 0x0f, 0x22, 0x3e, 0x0c, 0x28, 0x6d, 0x3e, 0x2d, 0x08, 0xec, 0x3d,
  0x51, 0xf4, 0x83, 0xbe, 0xc1, 0xc7, 0xa1, 0xbe, 0x22, 0x7b, 0x3b, 0xbd,
  0x2f, 0x5c, 0x34, 0xbe, 0xf7, 0xea, 0x20, 0xbd, 0x10, 0x3b, 0x67, 0xbc,
  0xca, 0x53, 0x32, 0x3e, 0x20, 0x0d, 0x6f, 0xbe, 0x46, 0xa7, 0xa7, 0x3c,
  0x5b, 0x09, 0x34, 0x3e, 0xdb, 0x51, 0xfa, 0x3d, 0x69, 0x6d, 0x75, 0x3b,
  0x35, 0x50, 0x01, 0xbe, 0x4b, 0x06, 0x10, 0x3e, 0x3c, 0xd4, 0x11, 0xbe,
  0x3a, 0xa1, 0x54, 0x3d, 0xa2, 0x00, 0x02, 0x3c, 0x36, 0xc4, 0x92, 0x3e,
  0xba, 0x3a, 0x6a, 0x3e, 0x7b, 0x53, 0xf9, 0xbd, 0x98, 0x4c, 0x3b, 0x3c,
  0x7b, 0x89, 0xba, 0xbd, 0x81, 0x35, 0xba, 0xba, 0xc3, 0x17, 0x13, 0x3e,
  0x89, 0x44, 0x42, 0x3e, 0x7f, 0x91, 0x78, 0xbe, 0x5b, 0xc6, 0x00, 0xbe,
  0x59, 0xe2, 0x27, 0x3d, 0x50, 0x93, 0xb8, 0xbd, 0xe6, 0x65, 0x81, 0xb9,
  0xc4, 0xbe, 0x04, 0x3e, 0x5f, 0x3e, 0x10, 0xbe, 0xa6, 0xf6, 0x99, 0x3d,
  0x0c, 0x05, 0xc4, 0x3d, 0xb1, 0x9a, 0x33, 0xbe, 0x04, 0x3f, 0xe1, 0x3d,
  0xb9, 0xf1, 0xdf, 0x3d, 0x0e, 0xc9, 0xf1, 0xbd, 0x2d, 0x66, 0x9e, 0xbd,
  0xd5, 0x32, 0x06, 0x3e, 0x12, 0x4b, 0x3b, 0x3d, 0xa9, 0x35, 0x08, 0xbe,
  0x65, 0x7e, 0x71, 0xbe, 0x64, 0x91, 0xe4, 0xbd, 0x03, 0x15, 0xf7, 0xbd,
  0xe7, 0x16, 0x12, 0x3c, 0x51, 0x7a, 0xdb, 0xbd, 0x3c, 0xcb, 0xf9, 0x3d,
  0xa4, 0x5f, 0xe7, 0x3d, 0x6a, 0xd2, 0x31, 0xbe, 0x53, 0xc3, 0x38, 0x3d,
  0x18, 0x28, 0xb1, 0xbd, 0x75, 0x15, 0x68, 0x3e, 0xcf, 0x25, 0x2a, 0x3e,
  0x0d, 0xec, 0x2e, 0x3e, 0x00, 0xa8, 0xd9, 0x3d, 0xa3, 0x5f, 0xdd, 0xbd,
  0xdf, 0xbd, 0x9c, 0x3d, 0x89, 0x9d, 0x61, 0xbe, 0x7e, 0x8b, 0x9d, 0xbd,
  0xba, 0x26, 0x1e, 0xbe, 0x6a, 0xbd, 0x2e, 0x3e, 0xd2, 0xe4, 0xe4, 0x3d,
  0x5a, 0x81, 0x43, 0xbd, 0x0e, 0xc3, 0x0a, 0xbe, 0xe9, 0x84, 0x0e, 0xbe,
  0xb5, 0x07, 0x51, 0x3e, 0xfd, 0xe4, 0x5e, 0xbd, 0x8f, 0x19, 0x5c, 0x3e,
  0xff, 0x61, 0x78, 0x3e, 0x2d, 0x20, 0x21, 0xbd, 0xf5, 0xae, 0x1e, 0xbc,
  0x8e, 0x0e, 0x0a, 0xbe, 0xe9, 0xe8, 0xc7, 0xbd, 0xd4, 0xb3, 0x13, 0xbd,
  0x10, 0xa0, 0xf3, 0xbd, 0x4b, 0xe2, 0x73, 0x3e, 0x92, 0x04, 0x99, 0xbc,
  0xb3, 0xc5, 0x66, 0xbe, 0xe8, 0x92, 0x83, 0xbd, 0xa6, 0xf9, 0x5f, 0xbe,
  0x7c, 0x72, 0xc4, 0x3d, 0x6c, 0xd1, 0x0c, 0xbe, 0x37, 0x5f, 0x7d, 0xbe,
  0x3b, 0x73, 0xda, 0x3d, 0x1c, 0x08, 0x27, 0xbe, 0xbf, 0x47, 0x2d, 0xbc,
  0x71, 0x2e, 0x53, 0xbe, 0x2c, 0x81, 0xb7, 0xbc, 0x63, 0xba, 0x80, 0xbe,
  0xd3, 0x9f, 0x89, 0xba, 0xbf, 0x1f, 0x76, 0x3e, 0xc2, 0x6e, 0x07, 0x3e,
  0xf0, 0xfa, 0x21, 0x3e, 0xdf, 0xc8, 0xf2, 0xbd, 0x04, 0xf0, 0x10, 0x3e,
  0x6c, 0xb4, 0x63, 0x3e, 0x3d, 0xf2, 0x28, 0x3e, 0x08, 0xec, 0x4e, 0x3c,
  0x26, 0xaf, 0x49, 0xbe, 0x75, 0x8a, 0x06, 0x3e, 0xc1, 0x1c, 0x81, 0x3c,
  0x23, 0x1a, 0x9d, 0x3d, 0xc6, 0x53, 0x95, 0x3e, 0x0a, 0xe7, 0x2c, 0xbe,
  0xe2, 0xe1, 0xc8, 0xb9, 0x24, 0x60, 0x02, 0x3d, 0xd9, 0x9c, 0x2c, 0x3e,
  0xab, 0xcf, 0x84, 0x3e, 0xe8, 0x8c, 0xc7, 0x3d, 0x6b, 0xc7, 0x0f, 0xbe,
  0xbe, 0xa0, 0xc0, 0xbc, 0x6a, 0xf1, 0x54, 0xbe, 0xac, 0x3c, 0xee, 0xbd,
  0xb9, 0xa8, 0xeb, 0x3d, 0xcb, 0x2b, 0x91, 0x3c, 0xde, 0x68, 0xf6, 0x3d,
  0x50, 0x01, 0x71, 0xbe, 0x27, 0x74, 0x88, 0xbe, 0x69, 0xa8, 0x06, 0xbe,
  0x57, 0xdb, 0xc4, 0xbc, 0x27, 0x54, 0x2c, 0xbd, 0x8c, 0xbf, 0xf2, 0xbc,
  0x26, 0xea, 0x2d, 0xbe, 0xf1, 0x45, 0x23, 0xbe, 0x8a, 0xbb, 0x31, 0xbe,
  0x99, 0xc9, 0x37, 0x3e, 0x1e, 0xc0, 0xe1, 0xbd, 0xe1, 0x7b, 0x1b, 0xbd,
  0x66, 0xc3, 0x52, 0xbe, 0x3a, 0xa2, 0x02, 0x3e, 0xc6, 0xe9, 0x76, 0x3e,
  0x50, 0x24, 0x8e, 0xbd, 0x07, 0x5c, 0x5e, 0x3e, 0xec, 0x5e, 0x5e, 0x3e,
  0xab, 0xe1, 0x01, 0x3e, 0x2e, 0xc1, 0x49, 0x3e, 0x38, 0x76, 0xfa, 0x3d,
  0xf3, 0x65, 0xe5, 0x3d, 0x42, 0x52, 0xf4, 0xbd, 0x32, 0xf4, 0x85, 0xbd,
  0xd0, 0x84, 0x3a, 0xbd, 0x88, 0x78, 0x36, 0x3c, 0xb0, 0x4d, 0x19, 0x3e,
  0xd2, 0x14, 0xc8, 0x3d, 0xa2, 0x62, 0x7b, 0xbe, 0x0d, 0x7f, 0x12, 0x3e,
  0x37, 0x81, 0x8f, 0xbe, 0x38, 0xd6, 0x5a, 0x3e, 0x90, 0x11, 0x89, 0x3d,
  0x40, 0x81, 0x42, 0x3e, 0xe8, 0x62, 0x01, 0xbc, 0xa1, 0x56, 0x63, 0xbe,
  0x57, 0xd3, 0x00, 0xbe, 0x58, 0xc8, 0x8f, 0x3e, 0xc6, 0x58, 0x55, 0x3e,
  0x50, 0x1b, 0x8c, 0xbe, 0xf3, 0xbe, 0x22, 0xbe, 0xea, 0x0b, 0x29, 0xbe,
  0x84, 0xc5, 0xd7, 0xbd, 0xe8, 0xd0, 0xd1, 0xbd, 0xbe, 0x0c, 0x54, 0x3e,
  0x5e, 0x03, 0x63, 0xbe, 0x93, 0xa3, 0x54, 0x3e, 0x0f, 0x98, 0x1e, 0x3d,
  0x73, 0x4d, 0xd1, 0xbd, 0x0d, 0x72, 0x8f, 0x3e, 0x95, 0x62, 0x82, 0x3b,
  0x18, 0x43, 0x51, 0xbe, 0x2e, 0xa1, 0xce, 0x3c, 0x67, 0xdd, 0x4b, 0xbd,
  0x94, 0x1c, 0x94, 0x3c, 0xb8, 0x30, 0xd5, 0x3d, 0xe6, 0x89, 0x8c, 0xbe,
  0x84, 0xf0, 0x92, 0x3e, 0x9b, 0xf0, 0x3a, 0x3c, 0xea, 0x39, 0x15, 0x3e,
  0xdc, 0xb5, 0x75, 0xbe, 0xc4, 0x4c, 0x24, 0x3c, 0x18, 0x04, 0x08, 0x3e,
  0x05, 0xf6, 0x94, 0x3e, 0x9e, 0x83, 0x6c, 0x3e, 0xc2, 0xfc, 0x88, 0x3e,
  0xbf, 0x3d, 0x91, 0x3d, 0x68, 0x05, 0xda, 0xbc, 0x84, 0x4a, 0x1d, 0xbe,
  0x32, 0xf4, 0x3c, 0x3e, 0xf6, 0xe1, 0xf8, 0x3c, 0xc5, 0xb1, 0x74, 0x3d,
  0x21, 0xf2, 0x24, 0x3e, 0xd5, 0x54, 0xf2, 0x3d, 0x4e, 0x6e, 0x08, 0x3e,
  0x46, 0xc4, 0x30, 0x3e, 0x67, 0xb1, 0xb4, 0xbc, 0x22, 0xd1, 0x9c, 0x3d,
  0x0d, 0x7d, 0x32, 0x3e, 0xd9, 0xb5, 0xaf, 0xbd, 0x16, 0xcb, 0x95, 0x3d,
  0x43, 0x58, 0xb7, 0x3d, 0xad, 0xb1, 0x60, 0xbe, 0x9e, 0xde, 0x2f, 0xbd,
  0x72, 0xaf, 0xe1, 0xbc, 0x2f, 0x44, 0x3d, 0xbb, 0xdb, 0xee, 0x4a, 0xbd,
  0x59, 0xe0, 0x1a, 0xbe, 0xab, 0x39, 0xc6, 0x3d, 0x3e, 0xfe, 0x91, 0x3e,
  0x2a, 0x63, 0x45, 0x3e, 0x7a, 0x0e, 0x85, 0xbe, 0x6e, 0x81, 0x3c, 0x3e,
  0x32, 0x53, 0x8a, 0xbe, 0x28, 0x58, 0x28, 0xbe, 0x2e, 0x2b, 0x1a, 0xbe,
  0xee, 0xba, 0xb1, 0xbe, 0xef, 0x87, 0x4d, 0xbe, 0x2e, 0x51, 0x1c, 0x3e,
  0x56, 0xe3, 0x4a, 0x3e, 0x4d, 0xf4, 0xa2, 0x3a, 0xd8, 0xdd, 0x52, 0x3e,
  0xc4, 0xb2, 0x95, 0xbd, 0xdb, 0xed, 0x3b, 0xbe, 0x83, 0xa2, 0x52, 0x3e,
  0xa8, 0x54, 0x3d, 0x3d, 0x67, 0x1d, 0xd3, 0x3d, 0x4b, 0x15, 0xf5, 0xbc,
  0x19, 0xf8, 0x73, 0xbe, 0x88, 0xca, 0x26, 0x3e, 0xf1, 0x0a, 0x25, 0xbe,
  0xe9, 0x4e, 0x60, 0x3c, 0xdc, 0x3a, 0x3f, 0xbc, 0x2c, 0x84, 0xa3, 0xbd,
  0x93, 0xc9, 0x79, 0xbe, 0x25, 0x90, 0x49, 0xbd, 0x50, 0x41, 0xee, 0x3d,
  0xce, 0x06, 0xa8, 0xbd, 0x1f, 0xdc, 0x4b, 0x3e, 0x41, 0xeb, 0x90, 0x3d,
  0xdb, 0x7b, 0x47, 0xbe, 0x24, 0x28, 0x86, 0x3d, 0xc1, 0xe2, 0x90, 0xbd,
  0x66, 0x80, 0x31, 0xbe, 0x86, 0x84, 0x7b, 0x3e, 0xe3, 0x1b, 0x9f, 0xbe,
  0x55, 0xee, 0x80, 0xbe, 0xe0, 0x56, 0xc0, 0x3d, 0xd5, 0xc6, 0xbe, 0xbd,
  0xf9, 0xfa, 0xa0, 0xbe, 0xca, 0x5e, 0x04, 0xbe, 0xd0, 0x35, 0x8f, 0xbd,
  0xd5, 0xe8, 0xe9, 0xbd, 0xc4, 0x25, 0x79, 0x3d, 0x96, 0x42, 0x33, 0xbe,
  0x4b, 0x7f, 0x26, 0xbe, 0xff, 0x18, 0x2a, 0xbd, 0x8b, 0x98, 0x8b, 0xbe,
  0xee, 0xb7, 0x1d, 0xbe, 0x19, 0xf8, 0x14, 0x3e, 0xd5, 0xd7, 0x7d, 0x3c,
  0xa3, 0x0b, 0x5e, 0xbe, 0x38, 0xd4, 0x18, 0xbd, 0x20, 0x30, 0x84, 0xbe,
  0xd4, 0x3c, 0x50, 0xbd, 0x6b, 0x18, 0x50, 0xbe, 0x00, 0xaf, 0x79, 0xbe,
  0x93, 0xee, 0x39, 0x3d, 0xd0, 0x83, 0x3a, 0xbc, 0x39, 0x54, 0x1f, 0xbe,
  0x69, 0x6c, 0x51, 0xbc, 0x4e, 0xf3, 0xf1, 0x3d, 0xaf, 0x0b, 0x7f, 0xbd,
  0x27, 0x6a, 0x01, 0xbe, 0x3c, 0xe0, 0x93, 0xbe, 0x90, 0x54, 0x45, 0xbe,
  0x81, 0xb2, 0xb6, 0xbc, 0x2e, 0x1d, 0x9b, 0x3d, 0x34, 0x26, 0x9b, 0x3b,
  0x94, 0xb9, 0x14, 0xbe, 0x95, 0xf2, 0x0e, 0x3e, 0x4e, 0xca, 0x2d, 0x3e,
  0x4f, 0xe0, 0x16, 0x3e, 0xf2, 0xf9, 0x3c, 0xbe, 0x6a, 0x8c, 0x2d, 0x3e,
  0x9d, 0xa0, 0xf0, 0x3d, 0xb3, 0xff, 0x6e, 0x3d, 0xfa, 0xca, 0x7b, 0xbe,
  0x97, 0x51, 0x7e, 0xbe, 0x91, 0xed, 0x74, 0x3e, 0xb5, 0x3e, 0x9a, 0xbd,
  0x5c, 0x83, 0x52, 0xbe, 0xfe, 0xc3, 0x79, 0xbe, 0xa0, 0x38, 0x22, 0xbe,
  0x88, 0x54, 0xca, 0x3d, 0xe3, 0x53, 0x77, 0x3d, 0xc5, 0x2a, 0x04, 0x3e,
  0x7e, 0x82, 0x4d, 0x3d, 0xa2, 0x1b, 0x4f, 0x3e, 0xee, 0x9b, 0x3e, 0xbe,
  0x3c, 0xcb, 0x6c, 0x3e, 0x3f, 0x76, 0x9c, 0xbd, 0x8f, 0x94, 0x94, 0xbd,
  0xc3, 0x11, 0x47, 0x3e, 0x24, 0x69, 0x43, 0xbe, 0x99, 0x22, 0x26, 0x3e,
  0x7a, 0x31, 0x67, 0x3d, 0xf6, 0x1c, 0x46, 0xbd, 0x7b, 0xe3, 0x42, 0x3d,
  0xcd, 0xb8, 0x6e, 0x3c, 0x26, 0xdf, 0xfc, 0xbd, 0x90, 0xed, 0xa4, 0xbd,
  0xc2, 0x7e, 0xa2, 0x3d, 0x90, 0x32, 0xc6, 0xbd, 0x46, 0xf7, 0xe7, 0x3d,
  0x1c, 0x8d, 0x3f, 0x3e, 0xb7, 0x65, 0x10, 0x3e, 0xe9, 0x8a, 0x25, 0xbc,
  0x8d, 0x37, 0x74, 0x3e, 0x66, 0xa7, 0xba, 0xbd, 0xe0, 0x6b, 0x82, 0x3e,
  0x7d, 0x41, 0xb2, 0xbd, 0x57, 0x85, 0xeb, 0x3c, 0x6b, 0x59, 0x9d, 0x3d,
  0x6e, 0xca, 0x63, 0xbe, 0xb3, 0xa1, 0x3b, 0x3e, 0x88, 0x74, 0x04, 0x3e,
  0xa5, 0x5e, 0x16, 0x3e, 0xbc, 0x2b, 0xc9, 0xbd, 0xd0, 0x00, 0x96, 0x3e,
  0x5f, 0x2c, 0x8c, 0x3e, 0x8d, 0xf9, 0x7d, 0xbe, 0x60, 0x4c, 0x06, 0xbe,
  0x0f, 0x14, 0xc7, 0xbd, 0x62, 0x2e, 0x0e, 0xbe, 0x14, 0x0c, 0x28, 0xbe,
  0x4b, 0xe3, 0x21, 0x3c, 0x56, 0x9b, 0x3f, 0xbe, 0x67, 0x5c, 0x07, 0x3e,
  0x06, 0x6c, 0x40, 0xbd, 0xbc, 0xec, 0xb6, 0x3d, 0xc9, 0x38, 0x7e, 0x3e,
  0x4e, 0xec, 0x01, 0xbe, 0x0c, 0x93, 0x68, 0xbe, 0x9d, 0x75, 0x78, 0xbd,
  0x9d, 0xcb, 0x1d, 0x3e, 0x9b, 0xad, 0xe7, 0xbd, 0x51, 0x80, 0x73, 0xbe,
  0x15, 0x0d, 0x1f, 0x3e, 0x97, 0xa1, 0x20, 0xbe, 0x54, 0x73, 0x6b, 0x3e,
  0x15, 0xb0, 0x87, 0xbd, 0x5d, 0x2a, 0x01, 0x3e, 0x2b, 0x9a, 0x8b, 0xbe,
  0xf3, 0x82, 0xd1, 0x3d, 0xa8, 0xd4, 0x4d, 0xbd, 0xb0, 0x21, 0x14, 0x3b,
  0x8e, 0x63, 0x0e, 0xbe, 0xc6, 0xf6, 0x92, 0x3e, 0xf1, 0x5a, 0x3a, 0x3e,
  0xcf, 0x9e, 0x51, 0xbe, 0xe4, 0x2e, 0x27, 0xbd, 0x39, 0x93, 0x11, 0xbe,
  0x21, 0x1f, 0x8b, 0x3e, 0x43, 0xaa, 0x96, 0x3e, 0x96, 0xe0, 0x08, 0xbe,
  0x14, 0x36, 0xf4, 0xbd, 0x40, 0x78, 0xa7, 0x3d, 0x0d, 0xa3, 0xd9, 0xbd,
  0x7b, 0xd3, 0x1d, 0x3e, 0x42, 0xfc, 0x2f, 0xbe, 0xb3, 0xdb, 0x1f, 0x3d,
  0x04, 0x27, 0x0f, 0x3e, 0xeb, 0x7c, 0x8c, 0xbe, 0x19, 0x8a, 0x6c, 0x3e,
  0xd9, 0xe6, 0x32, 0xbd, 0x29, 0xd9, 0x78, 0xbe, 0x54, 0xff, 0x24, 0x3d,
  0xd1, 0x67, 0x4e, 0xbe, 0xda, 0xa0, 0x66, 0x3c, 0xf0, 0x02, 0x3f, 0xbe,
  0x5a, 0x62, 0x45, 0x3e, 0x3c, 0xbc, 0xdf, 0x3d, 0xf2, 0xf9, 0x08, 0xbd,
  0xbd, 0xbd, 0x03, 0x3e, 0xc0, 0x48, 0xea, 0xbc, 0x20, 0x4c, 0xfd, 0xbd,
  0x0d, 0xfa, 0xf4, 0xbd, 0x53, 0x92, 0x84, 0xbd, 0xd2, 0x26, 0x2f, 0x3e,
  0x6c, 0x14, 0x7d, 0x3d, 0x0c, 0x21, 0x80, 0x3d, 0x8f, 0xde, 0x9a, 0xbb,
  0x91, 0x80, 0x0d, 0xbe, 0x71, 0xf6, 0x18, 0xbe, 0xd8, 0x07, 0x3c, 0xbd,
  0xc9, 0x82, 0x33, 0xbe, 0xb2, 0x93, 0x21, 0xbe, 0xda, 0x1b, 0x1c, 0x3d,
  0x88, 0xd6, 0xb5, 0x3d, 0x7f, 0x7a, 0xf0, 0xbd, 0x17, 0x2a, 0x7a, 0xbe,
  0x3f, 0x06, 0x45, 0xbe, 0xe3, 0x2b, 0xc3, 0xbd, 0x78, 0x79, 0x54, 0x3e,
  0xbc, 0x36, 0x74, 0x3e, 0x36, 0x22, 0x22, 0xbe, 0xfd, 0x07, 0x3d, 0x3e,
  0x73, 0xa4, 0x54, 0xbd, 0x0a, 0x51, 0x7b, 0x3e, 0x55, 0x5d, 0xae, 0xbc,
  0x24, 0x01, 0xe5, 0x3c, 0xcb, 0x0e, 0x24, 0xbd, 0x71, 0xd5, 0xd2, 0x3d,
  0x67, 0x53, 0x17, 0xbe, 0xda, 0x28, 0x8c, 0xbd, 0x49, 0x2d, 0xb8, 0x3b,
  0xda, 0x58, 0xfb, 0x3b, 0x13, 0x87, 0xca, 0xbd, 0x80, 0xba, 0xdc, 0x3d,
  0x71, 0x04, 0x88, 0x3e, 0x40, 0x31, 0x4a, 0x3e, 0x69, 0x0a, 0x79, 0x3c,
  0x82, 0x1e, 0x32, 0xbd, 0x7b, 0x01, 0x82, 0xbe, 0x0f, 0x39, 0x20, 0xbd,
  0x92, 0xa8, 0x9a, 0x3d, 0xa2, 0x98, 0xa2, 0xbd, 0x7c, 0xe9, 0x82, 0xbc,
  0x89, 0x12, 0x33, 0x3e, 0x35, 0x1c, 0x83, 0x3e, 0x86, 0x0f, 0x2a, 0xbe,
  0xcb, 0x76, 0x19, 0xbe, 0x2f, 0x46, 0xa2, 0xbd, 0xbb, 0xe2, 0x2e, 0xbe,
  0xa0, 0x01, 0x6a, 0xbe, 0x1d, 0xba, 0x17, 0xbd, 0x70, 0xed, 0x40, 0xbe,
  0x6b, 0x07, 0xbc, 0x3d, 0xda, 0xc8, 0x9d, 0xbd, 0x80, 0xed, 0x02, 0x3e,
  0xc0, 0x4f, 0x06, 0xbe, 0xfd, 0x0f, 0x12, 0x3e, 0xab, 0xf7, 0x5f, 0x3d,
  0xbd, 0x61, 0xa3, 0xbd, 0x01, 0xfc, 0x43, 0xbc, 0x9d, 0x0e, 0xdc, 0x3d,
  0x12, 0xb1, 0x5d, 0xbe, 0x77, 0x8b, 0x01, 0xbe, 0xca, 0xa7, 0xef, 0xbc,
  0xbd, 0x55, 0x04, 0xbe, 0x5e, 0x9e, 0x30, 0x3e, 0x43, 0x1e, 0x2d, 0xbc,
  0x65, 0x4e, 0xab, 0x3d, 0x90, 0x58, 0x94, 0xbe, 0x2e, 0xb2, 0x3f, 0x3d,
  0xd8, 0x0c, 0xe2, 0xbd, 0x13, 0x3f, 0x84, 0x3e, 0xca, 0x72, 0x30, 0x3d,
  0xe9, 0x09, 0xa3, 0x3d, 0x19, 0x2e, 0x99, 0xbd, 0xdb, 0x3b, 0xc0, 0x3c,
  0xab, 0x5b, 0xa8, 0xbd, 0x90, 0xcb, 0x22, 0xbe, 0xf8, 0x39, 0x76, 0xba,
  0x88, 0x7b, 0x65, 0xbe, 0xed, 0x76, 0xc4, 0xbb, 0xee, 0x12, 0x6b, 0xbe,
  0x80, 0x3f, 0x0e, 0x3e, 0x4e, 0x9b, 0x40, 0x3e, 0xfc, 0x3c, 0x67, 0xbc,
  0xc6, 0xb0, 0x87, 0xbe, 0x7e, 0x9d, 0x1d, 0xbe, 0x96, 0x6b, 0x88, 0xbe,
  0x16, 0xce, 0x93, 0xbb, 0x62, 0x6a, 0x34, 0x3e, 0x15, 0x9a, 0x68, 0x3d,
  0xc8, 0x14, 0xaf, 0x3d, 0x1a, 0x18, 0x3c, 0xbd, 0x28, 0x28, 0x62, 0xbe,
  0xa5, 0xad, 0x22, 0xbe, 0x26, 0x2d, 0x8a, 0xbd, 0x66, 0xb9, 0xcf, 0xbc,
  0x1e, 0xf1, 0x0b, 0xbe, 0x51, 0x5f, 0xd3, 0xbb, 0xf9, 0xd8, 0x6f, 0x3e,
  0xc8, 0xa5, 0x53, 0x3e, 0x82, 0x47, 0x7f, 0xbe, 0x60, 0x2d, 0x4b, 0xbe,
  0x29, 0x09, 0x8d, 0xbe, 0x41, 0xb6, 0x88, 0x3d, 0x2a, 0x8b, 0x7c, 0xbe,
  0x98, 0xe8, 0x82, 0x3d, 0xf7, 0x61, 0xcb, 0xbc, 0xcd, 0x30, 0x44, 0x3d,
  0xfe, 0x71, 0x3a, 0xbd, 0x25, 0xc1, 0xc5, 0xbb, 0x66, 0x19, 0x41, 0xbe,
  0xa8, 0x0b, 0xbf, 0x3d, 0xf3, 0x92, 0x88, 0x3d, 0xa4, 0x9b, 0x2c, 0x3c,
  0xdd, 0xc1, 0xba, 0xbc, 0xc3, 0x03, 0xc0, 0x3d, 0x78, 0xee, 0x2a, 0xbe,
  0xc6, 0xe0, 0x2b, 0xbe, 0xe1, 0x39, 0x8a, 0xbe, 0x2b, 0x60, 0x48, 0x3d,
  0x41, 0xfc, 0x12, 0xbe, 0x2f, 0x40, 0x15, 0xbe, 0x47, 0x92, 0x65, 0xbe,
  0xfe, 0x8e, 0x23, 0xbe, 0x07, 0xbe, 0x64, 0x3b, 0x08, 0x85, 0xea, 0x3d,
  0x81, 0xd4, 0x94, 0x3d, 0x0f, 0x78, 0xf8, 0x3d, 0x40, 0x7d, 0x0e, 0x3e,
  0x9c, 0xd9, 0x2d, 0x3d, 0x4c, 0x27, 0x07, 0x3e, 0xc0, 0xa8, 0x2e, 0xbd,
  0xad, 0xe5, 0xda, 0xbd, 0x09, 0x16, 0xfa, 0x3d, 0x17, 0x98, 0xcb, 0x3d,
  0x32, 0xe7, 0x12, 0xbd, 0xb6, 0x06, 0x0b, 0x3e, 0xcb, 0xbf, 0x1b, 0xbe,
  0x42, 0xd8, 0x9e, 0xbd, 0x2f, 0xa1, 0x4a, 0xbe, 0x41, 0xbe, 0x28, 0xbd,
  0xf2, 0xd8, 0x58, 0x3e, 0x31, 0xe1, 0x62, 0xbe, 0x57, 0x0d, 0x4e, 0xbe,
  0xce, 0x50, 0xdb, 0x3d, 0x80, 0x52, 0x5a, 0xbd, 0xff, 0x20, 0x1a, 0x3e,
  0xe2, 0x2d, 0x1d, 0x3e, 0x97, 0x1e, 0xb2, 0xbd, 0x47, 0x12, 0x49, 0xbd,
  0x33, 0x37, 0x4e, 0x3e, 0xc2, 0x46, 0x1c, 0xbe, 0x31, 0xe6, 0x98, 0x3d,
  0x23, 0xac, 0x87, 0x3e, 0x22, 0xa9, 0x38, 0xbd, 0x61, 0xde, 0x37, 0x3e,
  0x6f, 0x36, 0xf3, 0xbd, 0xe1, 0x8e, 0x2b, 0xbe, 0xf1, 0x66, 0x68, 0x3e,
  0x0d, 0xd8, 0x12, 0xbe, 0xe2, 0xbb, 0x09, 0x3e, 0xbf, 0xdd, 0xc7, 0x3d,
  0xce, 0x5e, 0x4d, 0x3e, 0x07, 0xe8, 0xa9, 0xbd, 0x16, 0x9b, 0x14, 0x3e,
  0xd6, 0x15, 0x40, 0xbe, 0x3b, 0xdf, 0x09, 0xbe, 0x72, 0xea, 0x4a, 0xbd,
  0xcc, 0x66, 0xd8, 0xbd, 0xc7, 0x8b, 0x53, 0x3e, 0x19, 0x6b, 0x77, 0x3e,
  0x07, 0xe6, 0x68, 0xbc, 0xd2, 0xd1, 0xaf, 0x3d, 0x35, 0x09, 0xa7, 0x3e,
  0xae, 0xb8, 0x52, 0xbe, 0xb8, 0x34, 0x15, 0xbe, 0x68, 0xfc, 0x39, 0x3e,
  0x34, 0x72, 0x22, 0xbe, 0xa0, 0x76, 0xfe, 0x3d, 0xcb, 0xfa, 0x46, 0xbd,
  0xb4, 0x22, 0x40, 0xbe, 0x3b, 0xdd, 0xfb, 0xbb, 0xce, 0x3c, 0x04, 0x3e,
  0x54, 0x7f, 0x61, 0xbe, 0x9b, 0x90, 0x69, 0xbe, 0xb4, 0xb1, 0x16, 0xbe,
  0xd6, 0x13, 0x92, 0xbd, 0xe1, 0xbb, 0xab, 0xbc, 0xb2, 0xb7, 0x68, 0x3d,
  0xcf, 0xdc, 0x53, 0xbe, 0x30, 0xc7, 0x60, 0xbe, 0x10, 0x3e, 0x43, 0x3e,
  0xd3, 0xb3, 0x3b, 0xbe, 0x4d, 0xf4, 0xd5, 0x3c, 0xeb, 0x37, 0x79, 0x3e,
  0x0e, 0xb3, 0x65, 0x3e, 0x72, 0x38, 0x5d, 0x3e, 0x72, 0xf1, 0x69, 0x3e,
  0x4d, 0x33, 0xb1, 0x3d, 0xd2, 0x97, 0x92, 0xbd, 0x96, 0x53, 0xe1, 0xbd,
  0x36, 0x94, 0x1d, 0x3e, 0x78, 0xcc, 0x09, 0xbe, 0x44, 0xfa, 0x27, 0x3d,
  0x03, 0x86, 0x41, 0xbe, 0xfd, 0x76, 0x01, 0x3e, 0x69, 0x73, 0x11, 0xbe,
  0x70, 0x52, 0xbb, 0xbc, 0x1c, 0x70, 0xd1, 0x3d, 0xe1, 0x68, 0x3e, 0xbe,
  0x9c, 0x41, 0xb6, 0x3d, 0xaa, 0xfc, 0x14, 0xbe, 0xba, 0xf6, 0xc5, 0xbd,
  0x86, 0x66, 0x67, 0xbd, 0x96, 0xa9, 0x3d, 0xbd, 0xde, 0x28, 0x82, 0x3d,
  0xab, 0xea, 0x33, 0xbd, 0xcd, 0xd5, 0x4a, 0xbe, 0x50, 0x1a, 0x9b, 0x3e,
  0x83, 0x6d, 0x8e, 0xbe, 0xdb, 0x73, 0xd9, 0xbd, 0x34, 0xbd, 0xeb, 0xbd,
  0x3b, 0xb0, 0xb0, 0xbd, 0x92, 0xd7, 0xda, 0x3b, 0x5a, 0x57, 0x7a, 0xbd,
  0xc1, 0x8c, 0x62, 0x3d, 0x4d, 0xc3, 0x2d, 0x3e, 0x26, 0xfb, 0xc7, 0xba,
  0xbe, 0xb3, 0x86, 0x3e, 0xba, 0x44, 0x70, 0xbd, 0x02, 0x75, 0x80, 0x3d,
  0x30, 0xfb, 0x01, 0xbe, 0x91, 0xc5, 0x9d, 0x3d, 0xbb, 0xb2, 0xd5, 0x3d,
  0x66, 0x35, 0x08, 0x3e, 0x50, 0x6f, 0xfc, 0xbd, 0xf8, 0x32, 0x7d, 0x3e,
  0x62, 0x8a, 0x5b, 0xbd, 0xb7, 0xfa, 0x0f, 0xbe, 0xc6, 0x0c, 0xab, 0xbd,
  0x5d, 0xe5, 0x7a, 0x3e, 0xb1, 0xd5, 0x8a, 0xbe, 0x32, 0xc3, 0xda, 0x3d,
  0x31, 0xc1, 0xd3, 0x3d, 0x21, 0x63, 0x2a, 0x3e, 0x6b, 0x73, 0x1c, 0xbe,
  0xbe, 0xa9, 0x1c, 0x3e, 0xb0, 0xdb, 0xc5, 0xbd, 0xed, 0xfd, 0x18, 0xbe,
  0x1a, 0xfe, 0x34, 0xbe, 0xd6, 0xc9, 0x21, 0x3e, 0xd3, 0x05, 0x49, 0xbe,
  0x75, 0x62, 0xd5, 0xbd, 0x3a, 0xf9, 0xa0, 0xbd, 0xe8, 0xbd, 0xa6, 0xbd,
  0x9d, 0x2c, 0x01, 0xbd, 0x43, 0x6c, 0x99, 0xbd, 0x18, 0xa5, 0x97, 0xbd,
  0xa4, 0x6d, 0x67, 0xbe, 0x67, 0x5b, 0x7a, 0xbe, 0xc7, 0xed, 0x3f, 0xbe,
  0xe4, 0x2b, 0xfb, 0x3d, 0xf2, 0x3a, 0x06, 0x3e, 0x16, 0x94, 0xd8, 0xbc,
  0x0b, 0x80, 0x81, 0xbd, 0xff, 0x70, 0xbd, 0x3d, 0x31, 0xeb, 0x91, 0xbd,
  0x3e, 0x61, 0x6b, 0x3d, 0xa7, 0x63, 0x5d, 0xbe, 0xbb, 0x99, 0x87, 0x3c,
  0x4e, 0xf1, 0x83, 0x3e, 0x79, 0x93, 0x12, 0xbe, 0xd1, 0x93, 0x89, 0xbe,
  0x2b, 0xdc, 0xaa, 0x3c, 0x34, 0xc7, 0x23, 0x3d, 0x9c, 0x98, 0x8b, 0x3c,
  0x30, 0x36, 0x8b, 0x3e, 0x92, 0xf6, 0x36, 0x3c, 0x21, 0x23, 0xe6, 0xbd,
  0x97, 0xb4, 0x12, 0x3e, 0x94, 0xb4, 0xa4, 0xbd, 0x43, 0xfc, 0x13, 0x3e,
  0x14, 0x8c, 0xad, 0x3d, 0x78, 0xf2, 0x98, 0xbd, 0xa8, 0x15, 0x93, 0xbe,
  0x4f, 0x6d, 0x58, 0xbd, 0x25, 0xb4, 0x49, 0xbe, 0x81, 0x35, 0x24, 0x3e,
  0xbd, 0x2f, 0x5c, 0xbe, 0x58, 0x05, 0x2e, 0xbe, 0x99, 0x5c, 0x6e, 0x3e,
  0xc0, 0x06, 0x73, 0x3e, 0xbf, 0x85, 0xed, 0x3d, 0x98, 0x81, 0x26, 0x3e,
  0x18, 0xa7, 0xab, 0xbd, 0xfa, 0xd4, 0x3b, 0xbe, 0x97, 0xef, 0xb4, 0x3d,
  0x1b, 0x06, 0xe7, 0x3d, 0x92, 0x29, 0x2f, 0xbe, 0x02, 0xca, 0x58, 0x3d,
  0xfa, 0xae, 0xcb, 0xba, 0x41, 0x7c, 0x3d, 0x3e, 0xd9, 0xc4, 0x0a, 0xbe,
  0x63, 0x3a, 0xbd, 0x3d, 0x33, 0x2a, 0x4d, 0x3d, 0x5b, 0xe7, 0x20, 0x3e,
  0x25, 0x4e, 0xea, 0xbd, 0x9e, 0xd8, 0x80, 0xbd, 0x4f, 0x42, 0x55, 0x3b,
  0x67, 0x96, 0x1e, 0xbe, 0x70, 0xea, 0xff, 0xbd, 0xbd, 0x03, 0x9f, 0x3d,
  0x2d, 0x3b, 0x14, 0x3e, 0xfc, 0xcd, 0x44, 0xbe, 0x6b, 0xe1, 0x93, 0xbe,
  0x9a, 0x36, 0x24, 0x3e, 0xba, 0x89, 0x72, 0xbc, 0xc0, 0x9d, 0x43, 0x3e,
  0xf8, 0x4c, 0x45, 0xbd, 0x7b, 0xf6, 0x22, 0xbe, 0x72, 0x00, 0xe6, 0xbd,
  0x67, 0xff, 0x37, 0x3e, 0x15, 0x29, 0x4e, 0xbe, 0x97, 0x79, 0x14, 0xbe,
  0xb4, 0x03, 0x42, 0xbe, 0x21, 0xcf, 0x31, 0x3e, 0x5b, 0x5f, 0xf6, 0xbd,
  0xa6, 0x33, 0x09, 0x3d, 0x2e, 0x71, 0xf9, 0x3d, 0xc8, 0x41, 0x22, 0xbe,
  0xc9, 0x92, 0x13, 0xbe, 0x5a, 0x37, 0x52, 0x3e, 0x48, 0xd1, 0x6f, 0x3e,
  0x4e, 0x89, 0x8d, 0xbe, 0xe8, 0x71, 0x2c, 0x3e, 0x5e, 0xfe, 0x36, 0xbe,
  0x94, 0xd7, 0x00, 0xbd, 0x87, 0x6c, 0x1f, 0x3e, 0xed, 0x9b, 0x1e, 0x3e,
  0x94, 0x27, 0xd5, 0x3d, 0xbc, 0xba, 0x1b, 0xbe, 0x73, 0x73, 0x4c, 0xbe,
  0x92, 0x76, 0x7e, 0xbe, 0xfa, 0x94, 0x12, 0x3e, 0x79, 0x1b, 0x5b, 0x3e,
  0xae, 0x15, 0x86, 0xbe, 0xce, 0xcb, 0x91, 0x3c, 0xb5, 0xb9, 0xd5, 0x3d,
  0x25, 0x14, 0x8a, 0x3d, 0xbd, 0x35, 0x05, 0x3e, 0xa6, 0x1f, 0x09, 0xbe,
  0x08, 0x55, 0x08, 0xbd, 0x65, 0xf0, 0xd2, 0xbd, 0x32, 0xfd, 0xa3, 0x3c,
  0x7e, 0xb2, 0x3a, 0xbd, 0x13, 0xeb, 0x65, 0x3c, 0xd2, 0x33, 0x33, 0x3d,
  0xaf, 0xc2, 0x18, 0x3d, 0xad, 0x20, 0x5b, 0x3e, 0x84, 0x5d, 0x22, 0xbe,
  0x3b, 0x5a, 0x80, 0xbd, 0xbb, 0xaf, 0x7b, 0xbe, 0x99, 0xd9, 0xa6, 0x3c,
  0x3b, 0x2c, 0x5d, 0xbe, 0x1a, 0xc9, 0x4d, 0xbe, 0xe3, 0x6f, 0xad, 0xbd,
  0x0d, 0xd5, 0x72, 0x3e, 0x1c, 0x75, 0xb9, 0x3d, 0xfd, 0x3e, 0x1d, 0xbe,
  0x57, 0x5b, 0xd7, 0x3d, 0x35, 0xbb, 0x18, 0x3e, 0x5f, 0xa2, 0x03, 0x3e,
  0x00, 0x5a, 0x3e, 0x3e, 0xdc, 0x77, 0x0a, 0x3e, 0xe0, 0x4f, 0xf6, 0x3d,
  0x5d, 0xf0, 0xec, 0x3d, 0xac, 0x39, 0xa1, 0x3d, 0x20, 0x78, 0x13, 0x3e,
  0xf5, 0xfa, 0xc7, 0xbd, 0xab, 0x01, 0x41, 0xbe, 0xb1, 0x8b, 0xbc, 0x3c,
  0x68, 0x6e, 0xf5, 0xbc, 0x21, 0x29, 0xe9, 0xbc, 0xfe, 0xb9, 0xab, 0xbe,
  0xc5, 0x3e, 0x99, 0xbd, 0x00, 0x1b, 0xcc, 0xbd, 0x74, 0x7b, 0xdc, 0x3d,
  0xf6, 0xa1, 0x2b, 0x3e, 0xe8, 0xb4, 0xae, 0x3d, 0x50, 0xb6, 0x3c, 0xbe,
  0x2b, 0x0f, 0x88, 0xbe, 0x1f, 0x24, 0x71, 0x3e, 0x10, 0x46, 0x92, 0xbe,
  0xa7, 0x73, 0x47, 0x3c, 0xfb, 0xca, 0x3a, 0x3e, 0x28, 0xe3, 0x5f, 0xbe,
  0xc6, 0xd5, 0x00, 0xbe, 0x3f, 0xe1, 0x87, 0x3e, 0x72, 0x22, 0xca, 0x3d,
  0x8e, 0x62, 0x9e, 0x3c, 0x26, 0x10, 0x6e, 0x3d, 0x3f, 0x23, 0x9a, 0xbc,
  0x29, 0x71, 0x81, 0xbe, 0x5a, 0xf6, 0x90, 0x3e, 0x9d, 0x9c, 0x8c, 0xbe,
  0xb8, 0xaf, 0xa6, 0x3a, 0x47, 0x7a, 0x85, 0x3e, 0x1a, 0x51, 0xc5, 0x3c,
  0x55, 0xc9, 0x9e, 0xbd, 0x92, 0xa2, 0x5e, 0x3e, 0x42, 0x2f, 0x8f, 0x3e,
  0x7f, 0xe8, 0xba, 0x3d, 0x93, 0x27, 0xd8, 0xbc, 0x16, 0x23, 0x0f, 0x3d,
  0x76, 0xc1, 0x8f, 0xbb, 0x1f, 0x2e, 0xf6, 0xbc, 0x8d, 0xe1, 0x19, 0x3e,
  0x8e, 0xf8, 0x2c, 0xbe, 0x70, 0x99, 0x32, 0x3e, 0x3d, 0x7e, 0xc4, 0x3d,
  0xcc, 0x46, 0x87, 0xbc, 0x90, 0x34, 0xb2, 0x3c, 0x63, 0xe2, 0x82, 0x3e,
  0xc3, 0xd9, 0xb3, 0x3d, 0xe9, 0x1b, 0xba, 0xbc, 0x69, 0xc0, 0xef, 0xbd,
  0xe4, 0x7a, 0x86, 0x3d, 0xa2, 0xd5, 0x47, 0xbe, 0xaf, 0xf7, 0x1f, 0xbe,
  0x2b, 0x71, 0x61, 0xbe, 0x43, 0x86, 0x30, 0x3d, 0x3e, 0x23, 0x73, 0x3e,
  0x0f, 0x96, 0xe2, 0xbd, 0x31, 0xbc, 0xa9, 0x3c, 0x7a, 0xec, 0xa6, 0xbc,
  0x8e, 0x20, 0x73, 0x3e, 0x9c, 0xd5, 0x4e, 0x3e, 0xa3, 0x64, 0xd9, 0x3c,
  0x7a, 0x44, 0x0e, 0xbe, 0xdb, 0xe0, 0xd5, 0xbd, 0x41, 0xa4, 0x43, 0x3e,
  0x81, 0x57, 0x9b, 0x3c, 0xe8, 0x53, 0x81, 0x3e, 0x3b, 0xad, 0x88, 0xbd,
  0xba, 0xa9, 0x18, 0xbd, 0x4a, 0xaf, 0xda, 0x3d, 0x44, 0x1b, 0x3f, 0xbe,
  0x45, 0xf9, 0x62, 0x3d, 0x65, 0x33, 0x47, 0x3d, 0xcd, 0x7f, 0x37, 0xbd,
  0xe4, 0x32, 0x79, 0xbe, 0x2d, 0x61, 0xb4, 0x3d, 0xa5, 0x37, 0x11, 0x3e,
  0x19, 0x22, 0x4d, 0xbe, 0x28, 0x64, 0xdd, 0x3d, 0x5e, 0x59, 0x5d, 0x3d,
  0x0a, 0xc8, 0x78, 0xbd, 0x2c, 0x2d, 0x77, 0x3e, 0xf9, 0xbb, 0x41, 0x3d,
  0x9b, 0x7b, 0x65, 0x3e, 0x0f, 0xbe, 0x36, 0xbe, 0x9f, 0x50, 0xc3, 0x3d,
  0x81, 0xd5, 0x7a, 0xbe, 0x32, 0xad, 0xa0, 0x3d, 0xe6, 0xcf, 0xd7, 0x3d,
  0x45, 0x92, 0x37, 0x3d, 0xa6, 0x4d, 0xc2, 0xbe, 0x69, 0x7f, 0x75, 0xbe,
  0x6f, 0x1d, 0x2a, 0xbe, 0x4d, 0xf1, 0x3e, 0xbe, 0x78, 0xea, 0x07, 0xbd,
  0x7b, 0x66, 0x7f, 0x3b, 0x17, 0x17, 0x44, 0x3e, 0x35, 0x93, 0x25, 0xbe,
  0x5c, 0x52, 0x52, 0xbe, 0xb4, 0x45, 0xbb, 0xbd, 0x64, 0x14, 0x71, 0xbd,
  0x41, 0x30, 0x21, 0xbe, 0x20, 0x02, 0x21, 0xbd, 0x51, 0x72, 0x00, 0x3d,
  0xd2, 0xaf, 0x3d, 0x3e, 0x7d, 0x6e, 0xd2, 0x3d, 0xc7, 0x9d, 0xdf, 0xbd,
  0x3e, 0x4b, 0xa2, 0x3e, 0x64, 0x55, 0x20, 0x3e, 0x1b, 0xda, 0x48, 0xbd,
  0x6e, 0xd1, 0x04, 0xbb, 0xa1, 0xab, 0x30, 0xb9, 0x8b, 0x9d, 0x22, 0xbe,
  0x46, 0x63, 0x54, 0x3e, 0x07, 0xf9, 0xb1, 0xbd, 0x60, 0x39, 0x56, 0x3e,
  0xcd, 0xb5, 0x08, 0x3e, 0xe3, 0xb4, 0x8c, 0xbb, 0xd9, 0xf9, 0x2b, 0xbe,
  0xf2, 0xe7, 0x68, 0xbe, 0x9b, 0xc2, 0x83, 0xbd, 0xcf, 0x98, 0xfa, 0x3d,
  0x27, 0x85, 0xb4, 0x3d, 0xc0, 0xf4, 0xb4, 0xbd, 0xa0, 0x5a, 0x22, 0xbe,
  0x37, 0x3a, 0xbe, 0x3d, 0x80, 0x9b, 0xd2, 0x3d, 0x8c, 0xcb, 0x51, 0x3b,
  0x7d, 0xca, 0x4e, 0x3e, 0x0a, 0x02, 0xd8, 0xbd, 0x05, 0x91, 0x6a, 0xbe,
  0x6f, 0xec, 0xb6, 0xbc, 0xb6, 0x6f, 0x2d, 0xbe, 0xf3, 0xa1, 0x5c, 0xbe,
  0x06, 0xaa, 0x76, 0xbe, 0x3a, 0x59, 0xdb, 0x3d, 0x79, 0x8c, 0x9d, 0x3d,
  0xeb, 0xff, 0x39, 0xbe, 0x87, 0x7f, 0x01, 0x3e, 0x28, 0x59, 0xae, 0xbd,
  0x1b, 0x93, 0xb4, 0xbe, 0x59, 0x68, 0xae, 0xbc, 0x29, 0xaa, 0x22, 0x3d,
  0x02, 0xf6, 0x5e, 0xbe, 0xf3, 0xb0, 0x13, 0x3e, 0x14, 0x04, 0x48, 0x3e,
  0x49, 0x6f, 0x1e, 0xbd, 0x3a, 0x9c, 0x05, 0xbe, 0x2b, 0x64, 0xe6, 0xbd,
  0xa9, 0xf3, 0xde, 0x3b, 0x12, 0x72, 0x07, 0xbe, 0x17, 0x59, 0xf6, 0x3d,
  0x04, 0x12, 0x09, 0xbe, 0xaf, 0x1a, 0xc2, 0xbd, 0x58, 0xe1, 0xfc, 0xbd,
  0x85, 0x21, 0xd8, 0x3d, 0x34, 0x4f, 0x0c, 0xbd, 0x4b, 0x4b, 0x18, 0x3e,
  0xab, 0xb4, 0x2d, 0x3e, 0x8c, 0x7f, 0x28, 0x3d, 0xd0, 0xa9, 0x83, 0x3e,
  0xdc, 0x8f, 0x4d, 0xbe, 0xcd, 0xa7, 0x08, 0x3e, 0x5e, 0xfe, 0x73, 0x3d,
  0xba, 0xec, 0x12, 0xbe, 0x68, 0x61, 0x86, 0x3d, 0x96, 0xfd, 0xc0, 0xbd,
  0x28, 0x30, 0x34, 0x3e, 0x20, 0x4e, 0x27, 0xbe, 0x85, 0x7c, 0x20, 0x3d,
  0x6a, 0x21, 0xe3, 0xbd, 0xbd, 0xca, 0x29, 0xbd, 0x87, 0x56, 0x37, 0xbe,
  0xb8, 0x24, 0x05, 0x3d, 0x88, 0x4a, 0x42, 0x3d, 0x5f, 0xd1, 0x2e, 0x3e,
  0xfd, 0x95, 0x29, 0xbe, 0xdc, 0xf2, 0x4f, 0x3e, 0x3b, 0xa8, 0x57, 0xbe,
  0x50, 0xff, 0x04, 0xbe, 0x7d, 0x08, 0x7b, 0xbc, 0xac, 0x32, 0x74, 0x3b,
  0xae, 0xa7, 0xb4, 0xbc, 0xc2, 0x9f, 0x80, 0xbe, 0x4c, 0x84, 0x2f, 0x3d,
  0x30, 0xaa, 0xf1, 0x3d, 0x0a, 0x3b, 0x49, 0xbc, 0x97, 0x60, 0x1f, 0x3e,
  0x84, 0xbe, 0xc6, 0xbd, 0x78, 0xe3, 0x65, 0xbe, 0x64, 0x4e, 0x38, 0xbe,
  0x35, 0x63, 0x2d, 0xbe, 0xc1, 0xac, 0x41, 0xbe, 0x88, 0x8b, 0xca, 0xbd,
  0x01, 0xbf, 0x3d, 0x3e, 0xd9, 0x1d, 0x72, 0x3e, 0x91, 0xcf, 0xbb, 0xbb,
  0xae, 0x3c, 0x44, 0x3e, 0x70, 0x5a, 0x52, 0x3e, 0x9f, 0x7a, 0x64, 0xbe,
  0xc6, 0x6c, 0x87, 0x3e, 0x1b, 0x80, 0x45, 0x3e, 0xc8, 0xed, 0xa2, 0x3d,
  0x30, 0x4f, 0xc0, 0x3d, 0x62, 0x6f, 0x3e, 0xbe, 0x8e, 0xde, 0xd5, 0x3d,
  0x82, 0xeb, 0xec, 0x3d, 0xca, 0xb4, 0x06, 0xbe, 0xad, 0x50, 0x90, 0x3d,
  0x7c, 0x55, 0x05, 0x3e, 0xc8, 0x83, 0x2d, 0xbd, 0x7a, 0x58, 0x2f, 0xbd,
  0xf3, 0x59, 0x8b, 0x3e, 0x13, 0xa6, 0xb2, 0x3d, 0x43, 0x74, 0x2a, 0xbe,
  0xa0, 0x1f, 0x3d, 0xbd, 0x16, 0xad, 0x3a, 0xbe, 0x8e, 0xde, 0x4a, 0xbd,
  0x7f, 0x74, 0xdc, 0xbd, 0xf6, 0x79, 0x82, 0xbe, 0xe7, 0x89, 0x47, 0xbc,
  0xde, 0xa5, 0xc5, 0xbd, 0x87, 0x83, 0x02, 0xbd, 0xd2, 0xa4, 0x25, 0x3c,
  0x9e, 0xfb, 0x2a, 0x3e, 0x71, 0x03, 0x61, 0xbe, 0x9d, 0xa3, 0x84, 0x3d,
  0x5d, 0x4e, 0x4a, 0x3e, 0x40, 0x2d, 0x90, 0xbd, 0x88, 0x28, 0x32, 0xbe,
  0x2e, 0x1a, 0x2a, 0x3d, 0x1a, 0x01, 0x4e, 0xbe, 0x00, 0x99, 0x22, 0xbe,
  0xeb, 0x64, 0x49, 0x3c, 0x22, 0x7f, 0xf4, 0xbd, 0xde, 0xd5, 0xe1, 0x3d,
  0x68, 0x58, 0x55, 0xbe, 0xf4, 0x05, 0x16, 0xbe, 0xb3, 0xc7, 0x5a, 0x3e,
  0xd1, 0xc0, 0xaa, 0x3d, 0x13, 0xfc, 0x61, 0xbd, 0x4e, 0xf8, 0xfa, 0x3d,
  0x0f, 0x36, 0x60, 0x3e, 0x03, 0x45, 0x91, 0xbe, 0x2f, 0x0a, 0xc7, 0x3d,
  0x7f, 0x89, 0x4b, 0xbe, 0xff, 0x4a, 0x0b, 0xbd, 0x4f, 0x37, 0x0c, 0xbe,
  0x16, 0xe9, 0x10, 0xbd, 0xba, 0xe5, 0x14, 0xbc, 0xcc, 0x8e, 0x48, 0xbe,
  0x31, 0x81, 0xf2, 0x3d, 0xc6, 0x97, 0x2d, 0xbe, 0x4e, 0xc5, 0x77, 0xbd,
  0x50, 0xa5, 0x06, 0xbd, 0xd2, 0x5e, 0x1f, 0xbc, 0x2b, 0xaa, 0x88, 0x39,
  0x52, 0x86, 0xf0, 0x3d, 0x90, 0xbf, 0x09, 0xbe, 0xe9, 0x05, 0x1e, 0xbd,
  0xb5, 0xeb, 0xb8, 0xbd, 0xca, 0xff, 0x11, 0xbe, 0x95, 0x5d, 0xca, 0xbd,
  0x81, 0x1f, 0x3a, 0x3e, 0x79, 0xed, 0x1b, 0x3e, 0xff, 0x0d, 0x5b, 0xbe,
  0x55, 0xfb, 0x6a, 0x3e, 0x00, 0xb4, 0x91, 0x3d, 0x91, 0xef, 0xfe, 0x3d,
  0x87, 0x11, 0x26, 0xbe, 0x1b, 0x32, 0x06, 0x3e, 0xe4, 0xe0, 0x2c, 0x3e,
  0x77, 0x6b, 0x37, 0xbe, 0x98, 0x1c, 0xcc, 0x3d, 0x07, 0x86, 0x25, 0x3e,
  0xbe, 0x66, 0xfc, 0xbd, 0x51, 0xbd, 0x2d, 0x3d, 0x1b, 0xd8, 0x24, 0x3d,
  0x21, 0xf5, 0x8d, 0xbd, 0xa7, 0xb8, 0x5b, 0xbd, 0xc6, 0xe0, 0x55, 0xbd,
  0x73, 0x31, 0x3d, 0x3e, 0xfa, 0x81, 0x88, 0xbe, 0x03, 0x35, 0x84, 0xbe,
  0xa7, 0xf1, 0xac, 0x3c, 0xac, 0x87, 0x84, 0x3d, 0x0f, 0x47, 0x29, 0xbe,
  0xd4, 0xdb, 0x17, 0xbe, 0x78, 0x7d, 0x65, 0xbd, 0xac, 0x76, 0x52, 0xbe,
  0x24, 0xff, 0x52, 0x3e, 0x47, 0x5c, 0xf9, 0x3c, 0xf1, 0x9f, 0xb0, 0x3d,
  0xf6, 0xdc, 0x05, 0xbd, 0x93, 0x85, 0x0c, 0xbe, 0x70, 0xdc, 0xfe, 0xbd,
  0x3c, 0xca, 0x8f, 0xbe, 0xcf, 0x6e, 0x45, 0x3d, 0x02, 0x0a, 0xd2, 0x3d,
  0xb5, 0x9c, 0x01, 0x3e, 0xa2, 0xe4, 0x68, 0x3d, 0x3a, 0x53, 0x7b, 0x3e,
  0x30, 0xc1, 0x9e, 0x3d, 0x4c, 0x92, 0x15, 0xbe, 0xaa, 0x66, 0x25, 0x3e,
  0xe6, 0x0c, 0x05, 0xbe, 0x19, 0x66, 0x01, 0x3e, 0x86, 0x10, 0x78, 0xbd,
  0x71, 0xdc, 0x97, 0x3d, 0x2e, 0xdf, 0xa1, 0x3d, 0x4c, 0x2c, 0x72, 0xbe,
  0xe6, 0xce, 0x1f, 0x3d, 0x25, 0x1e, 0x4a, 0x3e, 0x1a, 0x48, 0x98, 0xba,
  0x78, 0xb7, 0x7d, 0x3c, 0x71, 0xf4, 0xe1, 0x3d, 0x39, 0x31, 0x4a, 0x3e,
  0xe8, 0x6f, 0xf2, 0xbd, 0xc0, 0xa3, 0x10, 0x3e, 0x6a, 0x65, 0x2d, 0xbe,
  0xf5, 0xb6, 0x8a, 0x3e, 0xc7, 0xea, 0x9b, 0x3d, 0xd8, 0x48, 0x39, 0x3e,
  0xad, 0x4f, 0x35, 0xbd, 0x9c, 0xff, 0x15, 0x3d, 0xa4, 0x11, 0x30, 0x3e,
  0xf0, 0x2c, 0x6e, 0xbe, 0xc1, 0xe2, 0x72, 0xbd, 0xe0, 0xe4, 0x2d, 0xbe,
  0xd3, 0xbd, 0x2f, 0x3e, 0x97, 0x03, 0xdd, 0xbd, 0x8d, 0xf8, 0x0b, 0x3e,
  0x7b, 0xb0, 0xde, 0x3d, 0x5e, 0x88, 0x61, 0x3e, 0x65, 0x19, 0x9b, 0x3e,
  0xac, 0xe9, 0x49, 0xbe, 0xc9, 0x01, 0x48, 0x3e, 0xfa, 0x2e, 0x13, 0x3e,
  0xae, 0x2c, 0xf8, 0x3d, 0x20, 0x35, 0x1c, 0x3d, 0x56, 0xbe, 0xf5, 0x3d,
  0x22, 0x31, 0xe5, 0xbd, 0x3d, 0xd7, 0xdd, 0x3b, 0x3e, 0xcf, 0x4c, 0x3d,
  0x59, 0x78, 0x4a, 0x3e, 0x81, 0x1e, 0x7c, 0x3d, 0x99, 0x9b, 0x03, 0xbe,
  0x5d, 0x36, 0x2e, 0x3e, 0xf8, 0x8f, 0xde, 0xbd, 0x42, 0xf4, 0xa5, 0x3c,
  0xf4, 0xb0, 0xcb, 0x3d, 0x99, 0x13, 0x8a, 0x3d, 0x61, 0x0a, 0x13, 0xbd,
  0xb4, 0x9e, 0xfe, 0x3d, 0x6a, 0x7f, 0x3b, 0xbe, 0x3f, 0x99, 0x7d, 0xbe,
  0xdf, 0xf9, 0x75, 0x3e, 0x79, 0x8e, 0x28, 0xbd, 0xa4, 0xa0, 0x49, 0x3d,
  0x7d, 0xde, 0xf2, 0xbd, 0x85, 0x99, 0xa4, 0x3c, 0xd1, 0x84, 0x92, 0x3e,
  0xde, 0x7c, 0x1b, 0xbe, 0x59, 0xef, 0x03, 0xbe, 0x1d, 0xb3, 0x87, 0xbe,
  0x16, 0xc3, 0xc1, 0xbc, 0xc1, 0x26, 0x7f, 0x3d, 0x6d, 0x59, 0x0e, 0x3e,
  0xe8, 0xbb, 0x80, 0xbd, 0x93, 0x8c, 0x9c, 0x3d, 0x10, 0x48, 0x85, 0xbd,
  0x4a, 0x49, 0x83, 0x3e, 0x92, 0xf1, 0x2e, 0x3c, 0xd6, 0x20, 0x7f, 0x3e,
  0x70, 0x53, 0xef, 0x3d, 0x4f, 0xec, 0x6c, 0x3e, 0xa1, 0xef, 0xa3, 0x3d,
  0x3f, 0x1d, 0xd6, 0x3c, 0xe1, 0xaf, 0xc8, 0x3d, 0x3a, 0xb1, 0x78, 0x3e,
  0x7f, 0xc1, 0x71, 0xba, 0x48, 0xcb, 0x05, 0x3e, 0x67, 0xad, 0x18, 0xbe,
  0x53, 0xc3, 0x6e, 0xbc, 0xac, 0xca, 0xed, 0x3c, 0x25, 0xcd, 0x1c, 0x3e,
  0x3f, 0x1b, 0x1e, 0x3d, 0xc8, 0xc8, 0x3e, 0xbe, 0xa6, 0x85, 0x9d, 0x3d,
  0xd1, 0x50, 0x3d, 0x3e, 0xf8, 0x1d, 0xdc, 0xbd, 0x2b, 0x3e, 0x26, 0x3e,
  0x80, 0x2b, 0x46, 0x3e, 0x87, 0x8a, 0x65, 0xbd, 0x92, 0x2e, 0x40, 0x3e,
  0xe7, 0x05, 0x1c, 0x3e, 0x3b, 0x3e, 0x0c, 0x3e, 0xea, 0xaf, 0x9f, 0xbd,
  0xd0, 0x78, 0x51, 0xbe, 0x5a, 0xe4, 0xe1, 0xbd, 0x0f, 0x5c, 0x8d, 0xbe,
  0x6a, 0xaa, 0x28, 0x3c, 0xe9, 0xd8, 0xe4, 0x3d, 0x5a, 0x84, 0x2e, 0x3e,
  0xff, 0x85, 0x46, 0x3e, 0x76, 0x83, 0x9f, 0x3d, 0x49, 0xd9, 0x71, 0xbe,
  0x82, 0xcb, 0x64, 0x3e, 0xcd, 0xd0, 0xbd, 0xbd, 0xf0, 0xf5, 0xad, 0xbc,
  0x53, 0x2e, 0xaa, 0x3c, 0xe6, 0xfd, 0x87, 0xbd, 0x21, 0x2d, 0x7f, 0x3d,
  0xd1, 0x81, 0xda, 0x3d, 0x30, 0xa5, 0x4a, 0xbd, 0x7f, 0xda, 0x4b, 0xbe,
  0xbd, 0xd5, 0x31, 0x3e, 0xf0, 0xa7, 0xe8, 0xbd, 0x69, 0x35, 0x14, 0xbe,
  0x21, 0x2c, 0x38, 0xbc, 0xe8, 0x3e, 0x88, 0xbe, 0x1f, 0xc8, 0x97, 0x3d,
  0x01, 0x7c, 0x18, 0x3e, 0x9e, 0xbf, 0x8b, 0xbe, 0xf9, 0x37, 0x51, 0xbe,
  0x21, 0xc9, 0x54, 0xbc, 0x44, 0x9a, 0x4f, 0x3b, 0xde, 0x6d, 0x2b, 0xbe,
  0xde, 0xed, 0x45, 0xbc, 0x1b, 0xb8, 0x1a, 0xbe, 0x40, 0xce, 0x44, 0xbe,
  0x2e, 0xc4, 0x15, 0xbe, 0x73, 0xb3, 0xcd, 0xbd, 0xaa, 0x92, 0x60, 0xbe,
  0xb4, 0x17, 0x97, 0xbe, 0x59, 0x58, 0x40, 0xbe, 0xcb, 0xed, 0x4d, 0x3c,
  0x23, 0x35, 0x48, 0x3e, 0x6f, 0xf7, 0x14, 0x3e, 0x26, 0x92, 0x63, 0xbe,
  0x33, 0x2f, 0xaf, 0xbe, 0x3f, 0x2d, 0x7b, 0xbe, 0xed, 0xd0, 0x13, 0xbe,
  0x3a, 0x2e, 0xae, 0x3d, 0xdf, 0xa7, 0x82, 0xbe, 0x91, 0x8c, 0x3b, 0xbe,
  0xdb, 0x90, 0x8b, 0x3e, 0xc2, 0x67, 0xcd, 0x3d, 0xa1, 0xaf, 0x1d, 0x3e,
  0x90, 0x3c, 0x45, 0x3e, 0xf6, 0xc6, 0x56, 0xbe, 0xa9, 0xf1, 0x3c, 0xbe,
  0x8f, 0x61, 0x8d, 0xbd, 0x21, 0x89, 0xd0, 0x3c, 0xa9, 0x67, 0x83, 0x3e,
  0x58, 0x17, 0xb2, 0xbd, 0xff, 0xfe, 0xf9, 0xbd, 0xe0, 0xe9, 0x0b, 0x3b,
  0x1d, 0xe2, 0xb3, 0x3d, 0x69, 0x58, 0x7e, 0x3e, 0x16, 0x4c, 0xaa, 0xbd,
  0x8c, 0x6b, 0x97, 0xbc, 0x0f, 0x47, 0x07, 0x3e, 0x77, 0x56, 0x02, 0xbe,
  0x28, 0xe2, 0xc6, 0xbd, 0x05, 0x91, 0xb2, 0xbe, 0x3a, 0x67, 0xd3, 0xbd,
  0xa8, 0x7f, 0x1d, 0x3d, 0xf6, 0x43, 0x2a, 0xbe, 0x21, 0x8a, 0x6e, 0xbc,
  0x50, 0xf4, 0xad, 0x3b, 0x23, 0xd1, 0x3b, 0xbe, 0x49, 0xdc, 0xa6, 0x3d,
  0xdf, 0x74, 0x3c, 0x3d, 0xda, 0xf7, 0x01, 0x3d, 0xfb, 0x94, 0x35, 0x3d,
  0x1e, 0x3c, 0xf8, 0xbd, 0x37, 0x58, 0x5d, 0xbe, 0xe8, 0x6b, 0x19, 0xbb,
  0x22, 0xd2, 0x55, 0xbd, 0x35, 0x20, 0x42, 0xbe, 0x22, 0xb1, 0x82, 0x3d,
  0x35, 0xa9, 0xee, 0x3c, 0xf5, 0x3f, 0x99, 0xbe, 0x52, 0x78, 0x97, 0xbe,
  0x5c, 0xc0, 0xf8, 0x3c, 0xc6, 0xb1, 0x0b, 0x3e, 0x63, 0x84, 0x23, 0x3d,
  0x75, 0xcd, 0xbe, 0xbd, 0x75, 0xee, 0x02, 0xbd, 0x67, 0x2f, 0x9f, 0xbe,
  0xa8, 0xd6, 0x94, 0xbe, 0xaf, 0xf2, 0xdb, 0x3d, 0x43, 0x9a, 0x88, 0x3c,
  0xf5, 0xba, 0x89, 0x3d, 0x2e, 0xa3, 0xba, 0xbd, 0xa5, 0xca, 0xef, 0xbd,
  0xa1, 0xed, 0x8f, 0x3d, 0x30, 0x79, 0xdf, 0x3d, 0xf6, 0x9f, 0x94, 0xbd,
  0x6a, 0x95, 0xa6, 0xbd, 0xec, 0x6b, 0x1a, 0xbe, 0xe8, 0xff, 0xbc, 0xbc,
  0x01, 0xff, 0xf3, 0xbd, 0x4a, 0xfc, 0x12, 0xbe, 0x8a, 0x4f, 0x1c, 0x39,
  0x86, 0x86, 0x4f, 0xbe, 0x41, 0x9f, 0x3c, 0xbd, 0xbf, 0x32, 0xe8, 0x3d,
  0xb5, 0x9b, 0x87, 0x3e, 0x4f, 0x9b, 0x37, 0x3e, 0x7d, 0xa6, 0x9b, 0xbe,
  0x9b, 0x3a, 0x45, 0x3e, 0x15, 0x07, 0x20, 0xbe, 0x02, 0xdb, 0x72, 0xbd,
  0xcd, 0x33, 0x8a, 0xbd, 0xb8, 0xfe, 0x8b, 0x3e, 0x66, 0x4b, 0xf9, 0xbd,
  0xe2, 0x49, 0x4c, 0x3e, 0x10, 0x79, 0xcf, 0xbd, 0x74, 0x39, 0x7d, 0xbe,
  0x7f, 0xd8, 0xd1, 0x3d, 0xd4, 0xb5, 0xf3, 0x3d, 0x6c, 0xb2, 0x2e, 0xbd,
  0xd5, 0xb2, 0x44, 0x3e, 0x4b, 0xea, 0x61, 0x3d, 0xf3, 0xa8, 0x64, 0xbc,
  0xc7, 0xc6, 0x8f, 0xbe, 0x59, 0x7c, 0xac, 0x3d, 0x87, 0xcc, 0x41, 0xbe,
  0x73, 0xdf, 0xde, 0xbd, 0x14, 0x81, 0x38, 0xbe, 0x1a, 0xe2, 0x20, 0x3d,
  0x6b, 0x7a, 0x1d, 0x3e, 0x38, 0xb4, 0x20, 0xbe, 0x45, 0x94, 0x13, 0x3d,
  0x2a, 0x0b, 0x48, 0xbe, 0xf9, 0x07, 0x80, 0xbd, 0x01, 0x0b, 0xa2, 0x3b,
  0xcb, 0x56, 0x46, 0xbe, 0x56, 0xee, 0x32, 0xbd, 0xe2, 0xdf, 0x8a, 0xbe,
  0xa2, 0xbd, 0x92, 0x3d, 0x16, 0x0e, 0xda, 0xbd, 0xa7, 0x28, 0x75, 0xbe,
  0x66, 0xe0, 0x01, 0x3e, 0x47, 0x11, 0x66, 0x3d, 0x39, 0xe8, 0x41, 0xbd,
  0xf9, 0x59, 0x8d, 0xbd, 0xa0, 0x55, 0x5c, 0x3d, 0x97, 0xae, 0x86, 0xbe,
  0x4e, 0x49, 0x68, 0x3e, 0xcc, 0x5c, 0x36, 0x3e, 0x96, 0x1b, 0x2b, 0x3e,
  0xdf, 0x54, 0x9a, 0x3d, 0xb5, 0x58, 0x05, 0x3e, 0x72, 0x5f, 0x14, 0x3d,
  0x21, 0x7a, 0xea, 0x3d, 0xa0, 0x55, 0x1a, 0x3e, 0xc3, 0x66, 0x61, 0x3e,
  0x00, 0x75, 0x5c, 0x3e, 0xda, 0x82, 0xe4, 0x3d, 0x4c, 0xd1, 0x7c, 0xbe,
  0x9c, 0x57, 0xf8, 0x3d, 0xac, 0x48, 0x53, 0xbe, 0x27, 0xaa, 0xa6, 0xbd,
  0x0f, 0xa1, 0x2a, 0x3e, 0x9f, 0x79, 0x16, 0x3e, 0x23, 0xa4, 0x9c, 0xbe,
  0x78, 0x29, 0xa3, 0x3e, 0x01, 0x0d, 0x2e, 0xbe, 0xb7, 0x47, 0x9d, 0xbe,
  0xf6, 0xac, 0x08, 0x3c, 0xe1, 0x51, 0x6d, 0xbe, 0x1b, 0x4b, 0x7b, 0xbd,
  0xfd, 0x59, 0x36, 0xbe, 0x40, 0x91, 0x80, 0x3e, 0x07, 0x13, 0x10, 0xbe,
  0xbf, 0x23, 0xce, 0x3a, 0xb8, 0xe5, 0x8d, 0xbd, 0x28, 0x1e, 0xf6, 0x3d,
  0xe6, 0xcd, 0x65, 0x3e, 0xac, 0x57, 0xad, 0x3d, 0xb9, 0x49, 0xf0, 0x3d,
  0x06, 0xcc, 0xbe, 0xbd, 0x8a, 0x71, 0x85, 0x3e, 0x7c, 0x2b, 0x37, 0xbe,
  0x97, 0x83, 0x2b, 0x3e, 0x39, 0xfb, 0xe8, 0xbd, 0x38, 0x0f, 0x12, 0x3e,
  0xd0, 0x2f, 0xa7, 0x3d, 0x88, 0x49, 0xa6, 0x3d, 0x81, 0x5d, 0xfc, 0xbd,
  0xc9, 0x29, 0x6f, 0xbd, 0x8f, 0xef, 0x71, 0x3e, 0x02, 0x00, 0xb9, 0x3d,
  0x51, 0xe3, 0x90, 0xbe, 0x3b, 0xc8, 0x37, 0x3e, 0x12, 0x26, 0x5a, 0xbe,
  0x3d, 0xf7, 0x89, 0x3d, 0xf8, 0x5c, 0x31, 0xbe, 0xcd, 0x3e, 0x57, 0x3e,
  0x6c, 0x21, 0x8a, 0xbe, 0x7d, 0xf5, 0x83, 0x3e, 0x57, 0x80, 0x24, 0x3e,
  0x66, 0x7a, 0x61, 0xbe, 0x79, 0x01, 0xe0, 0xbd, 0x6a, 0x63, 0xd0, 0xbd,
  0xdd, 0xa9, 0x04, 0x3e, 0xbc, 0x5b, 0x51, 0xbd, 0x7f, 0xfe, 0x31, 0xbd,
  0x6d, 0x76, 0x88, 0x3e, 0x9c, 0xd9, 0x43, 0x3e, 0x72, 0xe6, 0x2f, 0xbe,
  0x0e, 0x89, 0x79, 0xbe, 0xae, 0x7b, 0x48, 0xbe, 0x92, 0xe7, 0x9d, 0x3d,
  0xf4, 0x53, 0x6b, 0xbe, 0xd1, 0x03, 0x5f, 0x3e, 0x48, 0xbc, 0x85, 0xbd,
  0x66, 0xfe, 0x14, 0xbe, 0x95, 0x9c, 0x47, 0x3d, 0xc4, 0x73, 0x2d, 0xbe,
  0x62, 0xc7, 0x5b, 0x3e, 0xba, 0x16, 0xa5, 0x3d, 0x1d, 0xee, 0x81, 0x3d,
  0x39, 0x77, 0xa5, 0x3d, 0x2d, 0x15, 0x7d, 0x3e, 0x47, 0x90, 0x66, 0xbd,
  0x50, 0xff, 0x91, 0x3c, 0xaf, 0x7d, 0x21, 0x3e, 0x73, 0xb9, 0x6e, 0xbd,
  0x75, 0x28, 0x31, 0xbe, 0xf8, 0xc2, 0x41, 0x3d, 0x6e, 0x66, 0xb8, 0x3e,
  0x65, 0x91, 0x83, 0x3d, 0x73, 0xa8, 0x82, 0x3e, 0x8d, 0xf6, 0x57, 0xbe,
  0x7e, 0x0b, 0x5e, 0xbe, 0xd1, 0x9c, 0x6e, 0x3d, 0x01, 0xb1, 0x86, 0x3c,
  0x8b, 0x5e, 0x88, 0xbd, 0x00, 0x00, 0x06, 0x00, 0x08, 0x00, 0x04, 0x00,
  0x06, 0x00, 0x00, 0x00, 0x04, 0x00, 0x00, 0x00, 0xc8, 0x00, 0x00, 0x00,
  0x3b, 0x0a, 0x98, 0xbe, 0xf9, 0x24, 0x9d, 0xbb, 0x61, 0x47, 0x11, 0x3f,
  0x86, 0xfc, 0x5e, 0xbe, 0xa5, 0x49, 0x84, 0xbe, 0x10, 0xe6, 0x83, 0xbe,
  0xe3, 0x08, 0x1c, 0xbe, 0xfe, 0xf1, 0xf2, 0x3d, 0xba, 0xda, 0x13, 0xbe,
  0xd3, 0xc5, 0x6b, 0xbe, 0x52, 0x1d, 0xce, 0x3d, 0x61, 0xdd, 0x6f, 0xbe,
  0x91, 0x39, 0x08, 0xbe, 0xd1, 0x4d, 0x76, 0xbe, 0xe4, 0xce, 0x23, 0xbe,
  0x51, 0x4c, 0x35, 0x3e, 0xd8, 0xa7, 0x8a, 0xbd, 0x72, 0x58, 0xa8, 0x3d,
  0xcf, 0xd4, 0x5e, 0xbd, 0x2f, 0x90, 0xb8, 0x3d, 0x19, 0x10, 0x1c, 0xbe,
  0x77, 0x40, 0x8c, 0xbd, 0x5f, 0x22, 0x26, 0xbe, 0x13, 0x57, 0x80, 0xbe,
  0x73, 0x8f, 0x6e, 0x3e, 0x21, 0x2c, 0x6d, 0xbe, 0x8e, 0x6b, 0x1f, 0x3e,
  0xaa, 0x87, 0x3b, 0x3d, 0xe7, 0xfb, 0x68, 0xbe, 0x95, 0xf7, 0x67, 0xbd,
  0xdb, 0xf7, 0x91, 0xbe, 0x08, 0x48, 0x98, 0xbe, 0xc2, 0xd6, 0x1e, 0x3e,
  0xf7, 0xf7, 0xb0, 0x3e, 0x94, 0x62, 0x81, 0xbe, 0x05, 0x13, 0xba, 0xbe,
  0xed, 0x63, 0xa5, 0x3e, 0x96, 0x31, 0x11, 0x3e, 0x59, 0xef, 0xae, 0xbe,
  0x68, 0x06, 0x54, 0xbe, 0x46, 0xa0, 0x99, 0xbe, 0x64, 0x0a, 0x68, 0x3e,
  0xe0, 0x73, 0x9c, 0xbd, 0xc5, 0xa3, 0xc9, 0x3e, 0xb2, 0xd5, 0xa6, 0x3e,
  0x14, 0xff, 0x9f, 0xbe, 0xa2, 0xc7, 0xae, 0xbd, 0x83, 0xcf, 0xa3, 0xbc,
  0xc1, 0x43, 0xd7, 0x3e, 0xdd, 0xbf, 0x34, 0x3e, 0x68, 0xfa, 0xff, 0xff,
  0x6c, 0xfa, 0xff, 0xff, 0x0f, 0x00, 0x00, 0x00, 0x4d, 0x4c, 0x49, 0x52,
  0x20, 0x43, 0x6f, 0x6e, 0x76, 0x65, 0x72, 0x74, 0x65, 0x64, 0x2e, 0x00,
  0x01, 0x00, 0x00, 0x00, 0x14, 0x00, 0x00, 0x00, 0x00, 0x00, 0x0e, 0x00,
  0x18, 0x00, 0x14, 0x00, 0x10, 0x00, 0x0c, 0x00, 0x08, 0x00, 0x04, 0x00,
  0x0e, 0x00, 0x00, 0x00, 0x14, 0x00, 0x00, 0x00, 0x1c, 0x00, 0x00, 0x00,
  0x1c, 0x01, 0x00, 0x00, 0x20, 0x01, 0x00, 0x00, 0x24, 0x01, 0x00, 0x00,
  0x04, 0x00, 0x00, 0x00, 0x6d, 0x61, 0x69, 0x6e, 0x00, 0x00, 0x00, 0x00,
  0x05, 0x00, 0x00, 0x00, 0xd0, 0x00, 0x00, 0x00, 0x9c, 0x00, 0x00, 0x00,
  0x5c, 0x00, 0x00, 0x00, 0x38, 0x00, 0x00, 0x00, 0x04, 0x00, 0x00, 0x00,
  0x52, 0xff, 0xff, 0xff, 0x10, 0x00, 0x00, 0x00, 0x00, 0x00, 0x00, 0x08,
  0x0c, 0x00, 0x00, 0x00, 0x10, 0x00, 0x00, 0x00, 0xec, 0xfa, 0xff, 0xff,
  0x01, 0x00, 0x00, 0x00, 0x0b, 0x00, 0x00, 0x00, 0x03, 0x00, 0x00, 0x00,
  0x0a, 0x00, 0x00, 0x00, 0x01, 0x00, 0x00, 0x00, 0x03, 0x00, 0x00, 0x00,
  0xae, 0xff, 0xff, 0xff, 0x0c, 0x00, 0x00, 0x00, 0x10, 0x00, 0x00, 0x00,
  0x01, 0x00, 0x00, 0x00, 0x01, 0x00, 0x00, 0x00, 0x0a, 0x00, 0x00, 0x00,
  0x01, 0x00, 0x00, 0x00, 0x09, 0x00, 0x00, 0x00, 0xa2, 0xff, 0xff, 0xff,
  0x10, 0x00, 0x00, 0x00, 0x00, 0x00, 0x00, 0x08, 0x0c, 0x00, 0x00, 0x00,
  0x10, 0x00, 0x00, 0x00, 0x3c, 0xfb, 0xff, 0xff, 0x01, 0x00, 0x00, 0x00,
  0x09, 0x00, 0x00, 0x00, 0x03, 0x00, 0x00, 0x00, 0x08, 0x00, 0x00, 0x00,
  0x02, 0x00, 0x00, 0x00, 0x04, 0x00, 0x00, 0x00, 0x00, 0x00, 0x0a, 0x00,
  0x10, 0x00, 0x0c, 0x00, 0x08, 0x00, 0x04, 0x00, 0x0a, 0x00, 0x00, 0x00,
  0x0c, 0x00, 0x00, 0x00, 0x10, 0x00, 0x00, 0x00, 0x01, 0x00, 0x00, 0x00,
  0x01, 0x00, 0x00, 0x00, 0x08, 0x00, 0x00, 0x00, 0x01, 0x00, 0x00, 0x00,
  0x07, 0x00, 0x00, 0x00, 0x00, 0x00, 0x0e, 0x00, 0x14, 0x00, 0x00, 0x00,
  0x10, 0x00, 0x0c, 0x00, 0x0b, 0x00, 0x04, 0x00, 0x0e, 0x00, 0x00, 0x00,
  0x10, 0x00, 0x00, 0x00, 0x00, 0x00, 0x00, 0x08, 0x0c, 0x00, 0x00, 0x00,
  0x10, 0x00, 0x00, 0x00, 0xa8, 0xfb, 0xff, 0xff, 0x01, 0x00, 0x00, 0x00,
  0x07, 0x00, 0x00, 0x00, 0x03, 0x00, 0x00, 0x00, 0x00, 0x00, 0x00, 0x00,
  0x06, 0x00, 0x00, 0x00, 0x05, 0x00, 0x00, 0x00, 0x01, 0x00, 0x00, 0x00,
  0x0b, 0x00, 0x00, 0x00, 0x01, 0x00, 0x00, 0x00, 0x00, 0x00, 0x00, 0x00,
  0x0c, 0x00, 0x00, 0x00, 0x00, 0x04, 0x00, 0x00, 0xa8, 0x03, 0x00, 0x00,
  0x50, 0x03, 0x00, 0x00, 0x14, 0x03, 0x00, 0x00, 0xb8, 0x02, 0x00, 0x00,
  0x60, 0x02, 0x00, 0x00, 0x14, 0x02, 0x00, 0x00, 0x98, 0x01, 0x00, 0x00,
  0x3c, 0x01, 0x00, 0x00, 0xbc, 0x00, 0x00, 0x00, 0x60, 0x00, 0x00, 0x00,
  0x04, 0x00, 0x00, 0x00, 0x46, 0xfc, 0xff, 0xff, 0x00, 0x00, 0x00, 0x01,
  0x14, 0x00, 0x00, 0x00, 0x1c, 0x00, 0x00, 0x00, 0x1c, 0x00, 0x00, 0x00,
  0x0c, 0x00, 0x00, 0x00, 0x34, 0x00, 0x00, 0x00, 0x02, 0x00, 0x00, 0x00,
  0xff, 0xff, 0xff, 0xff, 0x01, 0x00, 0x00, 0x00, 0x30, 0xfc, 0xff, 0xff,
  0x1b, 0x00, 0x00, 0x00, 0x53, 0x74, 0x61, 0x74, 0x65, 0x66, 0x75, 0x6c,
  0x50, 0x61, 0x72, 0x74, 0x69, 0x74, 0x69, 0x6f, 0x6e, 0x65, 0x64, 0x43,
  0x61, 0x6c, 0x6c, 0x5f, 0x31, 0x3a, 0x30, 0x00, 0x02, 0x00, 0x00, 0x00,
  0x01, 0x00, 0x00, 0x00, 0x01, 0x00, 0x00, 0x00, 0x9e, 0xfc, 0xff, 0xff,
  0x00, 0x00, 0x00, 0x01, 0x14, 0x00, 0x00, 0x00, 0x1c, 0x00, 0x00, 0x00,
  0x1c, 0x00, 0x00, 0x00, 0x0b, 0x00, 0x00, 0x00, 0x34, 0x00, 0x00, 0x00,
  0x02, 0x00, 0x00, 0x00, 0xff, 0xff, 0xff, 0xff, 0x32, 0x00, 0x00, 0x00,
  0x88, 0xfc, 0xff, 0xff, 0x1b, 0x00, 0x00, 0x00, 0x73, 0x65, 0x71, 0x75,
  0x65, 0x6e, 0x74, 0x69, 0x61, 0x6c, 0x5f, 0x31, 0x2f, 0x64, 0x65, 0x6e,
  0x73, 0x65, 0x5f, 0x31, 0x5f, 0x32, 0x2f, 0x54, 0x61, 0x6e, 0x68, 0x00,
  0x02, 0x00, 0x00, 0x00, 0x01, 0x00, 0x00, 0x00, 0x32, 0x00, 0x00, 0x00,
  0xf6, 0xfc, 0xff, 0xff, 0x00, 0x00, 0x00, 0x01, 0x14, 0x00, 0x00, 0x00,
  0x1c, 0x00, 0x00, 0x00, 0x1c, 0x00, 0x00, 0x00, 0x0a, 0x00, 0x00, 0x00,
  0x58, 0x00, 0x00, 0x00, 0x02, 0x00, 0x00, 0x00, 0xff, 0xff, 0xff, 0xff,
  0x32, 0x00, 0x00, 0x00, 0xe0, 0xfc, 0xff, 0xff, 0x3c, 0x00, 0x00, 0x00,
  0x73, 0x65, 0x71, 0x75, 0x65, 0x6e, 0x74, 0x69, 0x61, 0x6c, 0x5f, 0x31,
  0x2f, 0x64, 0x65, 0x6e, 0x73, 0x65, 0x5f, 0x31, 0x5f, 0x32, 0x2f, 0x4d,
  0x61, 0x74, 0x4d, 0x75, 0x6c, 0x3b, 0x73, 0x65, 0x71, 0x75, 0x65, 0x6e,
  0x74, 0x69, 0x61, 0x6c, 0x5f, 0x31, 0x2f, 0x64, 0x65, 0x6e, 0x73, 0x65,
  0x5f, 0x31, 0x5f, 0x32, 0x2f, 0x42, 0x69, 0x61, 0x73, 0x41, 0x64, 0x64,
  0x00, 0x00, 0x00, 0x00, 0x02, 0x00, 0x00, 0x00, 0x01, 0x00, 0x00, 0x00,
  0x32, 0x00, 0x00, 0x00, 0x72, 0xfd, 0xff, 0xff, 0x00, 0x00, 0x00, 0x01,
  0x14, 0x00, 0x00, 0x00, 0x1c, 0x00, 0x00, 0x00, 0x1c, 0x00, 0x00, 0x00,
  0x09, 0x00, 0x00, 0x00, 0x34, 0x00, 0x00, 0x00, 0x02, 0x00, 0x00, 0x00,
  0xff, 0xff, 0xff, 0xff, 0x32, 0x00, 0x00, 0x00, 0x5c, 0xfd, 0xff, 0xff,
  0x19, 0x00, 0x00, 0x00, 0x73, 0x65, 0x71, 0x75, 0x65, 0x6e, 0x74, 0x69,
  0x61, 0x6c, 0x5f, 0x31, 0x2f, 0x64, 0x65, 0x6e, 0x73, 0x65, 0x5f, 0x31,
  0x2f, 0x54, 0x61, 0x6e, 0x68, 0x00, 0x00, 0x00, 0x02, 0x00, 0x00, 0x00,
  0x01, 0x00, 0x00, 0x00, 0x32, 0x00, 0x00, 0x00, 0xca, 0xfd, 0xff, 0xff,
  0x00, 0x00, 0x00, 0x01, 0x14, 0x00, 0x00, 0x00, 0x1c, 0x00, 0x00, 0x00,
  0x1c, 0x00, 0x00, 0x00, 0x08, 0x00, 0x00, 0x00, 0x54, 0x00, 0x00, 0x00,
  0x02, 0x00, 0x00, 0x00, 0xff, 0xff, 0xff, 0xff, 0x32, 0x00, 0x00, 0x00,
  0xb4, 0xfd, 0xff, 0xff, 0x38, 0x00, 0x00, 0x00, 0x73, 0x65, 0x71, 0x75,
  0x65, 0x6e, 0x74, 0x69, 0x61, 0x6c, 0x5f, 0x31, 0x2f, 0x64, 0x65, 0x6e,
  0x73, 0x65, 0x5f, 0x31, 0x2f, 0x4d, 0x61, 0x74, 0x4d, 0x75, 0x6c, 0x3b,
  0x73, 0x65, 0x71, 0x75, 0x65, 0x6e, 0x74, 0x69, 0x61, 0x6c, 0x5f, 0x31,
  0x2f, 0x64, 0x65, 0x6e, 0x73, 0x65, 0x5f, 0x31, 0x2f, 0x42, 0x69, 0x61,
  0x73, 0x41, 0x64, 0x64, 0x00, 0x00, 0x00, 0x00, 0x02, 0x00, 0x00, 0x00,
  0x01, 0x00, 0x00, 0x00, 0x32, 0x00, 0x00, 0x00, 0x96, 0xfe, 0xff, 0xff,
  0x00, 0x00, 0x00, 0x01, 0x10, 0x00, 0x00, 0x00, 0x10, 0x00, 0x00, 0x00,
  0x07, 0x00, 0x00, 0x00, 0x28, 0x00, 0x00, 0x00, 0x1c, 0xfe, 0xff, 0xff,
  0x1b, 0x00, 0x00, 0x00, 0x73, 0x65, 0x71, 0x75, 0x65, 0x6e, 0x74, 0x69,
  0x61, 0x6c, 0x5f, 0x31, 0x2f, 0x64, 0x65, 0x6e, 0x73, 0x65, 0x5f, 0x31,
  0x2f, 0x4d, 0x61, 0x74, 0x4d, 0x75, 0x6c, 0x00, 0x02, 0x00, 0x00, 0x00,
  0x32, 0x00, 0x00, 0x00, 0x01, 0x00, 0x00, 0x00, 0xde, 0xfe, 0xff, 0xff,
  0x00, 0x00, 0x00, 0x01, 0x10, 0x00, 0x00, 0x00, 0x10, 0x00, 0x00, 0x00,
  0x06, 0x00, 0x00, 0x00, 0x38, 0x00, 0x00, 0x00, 0x64, 0xfe, 0xff, 0xff,
  0x2b, 0x00, 0x00, 0x00, 0x73, 0x65, 0x71, 0x75, 0x65, 0x6e, 0x74, 0x69,
  0x61, 0x6c, 0x5f, 0x31, 0x2f, 0x64, 0x65, 0x6e, 0x73, 0x65, 0x5f, 0x31,
  0x2f, 0x42, 0x69, 0x61, 0x73, 0x41, 0x64, 0x64, 0x2f, 0x52, 0x65, 0x61,
  0x64, 0x56, 0x61, 0x72, 0x69, 0x61, 0x62, 0x6c, 0x65, 0x4f, 0x70, 0x00,
  0x01, 0x00, 0x00, 0x00, 0x32, 0x00, 0x00, 0x00, 0x32, 0xff, 0xff, 0xff,
  0x00, 0x00, 0x00, 0x01, 0x10, 0x00, 0x00, 0x00, 0x10, 0x00, 0x00, 0x00,
  0x05, 0x00, 0x00, 0x00, 0x3c, 0x00, 0x00, 0x00, 0xb8, 0xfe, 0xff, 0xff,
  0x2d, 0x00, 0x00, 0x00, 0x73, 0x65, 0x71, 0x75, 0x65, 0x6e, 0x74, 0x69,
  0x61, 0x6c, 0x5f, 0x31, 0x2f, 0x64, 0x65, 0x6e, 0x73, 0x65, 0x5f, 0x31,
  0x5f, 0x32, 0x2f, 0x42, 0x69, 0x61, 0x73, 0x41, 0x64, 0x64, 0x2f, 0x52,
  0x65, 0x61, 0x64, 0x56, 0x61, 0x72, 0x69, 0x61, 0x62, 0x6c, 0x65, 0x4f,
  0x70, 0x00, 0x00, 0x00, 0x01, 0x00, 0x00, 0x00, 0x32, 0x00, 0x00, 0x00,
  0x8a, 0xff, 0xff, 0xff, 0x00, 0x00, 0x00, 0x01, 0x10, 0x00, 0x00, 0x00,
  0x10, 0x00, 0x00, 0x00, 0x04, 0x00, 0x00, 0x00, 0x1c, 0x00, 0x00, 0x00,
  0x10, 0xff, 0xff, 0xff, 0x0f, 0x00, 0x00, 0x00, 0x61, 0x72, 0x69, 0x74,
  0x68, 0x2e, 0x63, 0x6f, 0x6e, 0x73, 0x74, 0x61, 0x6e, 0x74, 0x32, 0x00,
  0x01, 0x00, 0x00, 0x00, 0x01, 0x00, 0x00, 0x00, 0xc2, 0xff, 0xff, 0xff,
  0x00, 0x00, 0x00, 0x01, 0x10, 0x00, 0x00, 0x00, 0x10, 0x00, 0x00, 0x00,
  0x03, 0x00, 0x00, 0x00, 0x1c, 0x00, 0x00, 0x00, 0x48, 0xff, 0xff, 0xff,
  0x0f, 0x00, 0x00, 0x00, 0x61, 0x72, 0x69, 0x74, 0x68, 0x2e, 0x63, 0x6f,
  0x6e, 0x73, 0x74, 0x61, 0x6e, 0x74, 0x31, 0x00, 0x02, 0x00, 0x00, 0x00,
  0x32, 0x00, 0x00, 0x00, 0x32, 0x00, 0x00, 0x00, 0x00, 0x00, 0x16, 0x00,
  0x18, 0x00, 0x14, 0x00, 0x00, 0x00, 0x10, 0x00, 0x0c, 0x00, 0x08, 0x00,
  0x00, 0x00, 0x00, 0x00, 0x00, 0x00, 0x07, 0x00, 0x16, 0x00, 0x00, 0x00,
  0x00, 0x00, 0x00, 0x01, 0x10, 0x00, 0x00, 0x00, 0x10, 0x00, 0x00, 0x00,
  0x02, 0x00, 0x00, 0x00, 0x1c, 0x00, 0x00, 0x00, 0x9c, 0xff, 0xff, 0xff,
  0x0e, 0x00, 0x00, 0x00, 0x61, 0x72, 0x69, 0x74, 0x68, 0x2e, 0x63, 0x6f,
  0x6e, 0x73, 0x74, 0x61, 0x6e, 0x74, 0x00, 0x00, 0x02, 0x00, 0x00, 0x00,
  0x01, 0x00, 0x00, 0x00, 0x32, 0x00, 0x00, 0x00, 0x00, 0x00, 0x16, 0x00,
  0x1c, 0x00, 0x18, 0x00, 0x00, 0x00, 0x14, 0x00, 0x10, 0x00, 0x0c, 0x00,
  0x00, 0x00, 0x00, 0x00, 0x08, 0x00, 0x07, 0x00, 0x16, 0x00, 0x00, 0x00,
  0x00, 0x00, 0x00, 0x01, 0x14, 0x00, 0x00, 0x00, 0x20, 0x00, 0x00, 0x00,
  0x20, 0x00, 0x00, 0x00, 0x01, 0x00, 0x00, 0x00, 0x3c, 0x00, 0x00, 0x00,
  0x02, 0x00, 0x00, 0x00, 0xff, 0xff, 0xff, 0xff, 0x01, 0x00, 0x00, 0x00,
  0x04, 0x00, 0x04, 0x00, 0x04, 0x00, 0x00, 0x00, 0x1e, 0x00, 0x00, 0x00,
  0x73, 0x65, 0x72, 0x76, 0x69, 0x6e, 0x67, 0x5f, 0x64, 0x65, 0x66, 0x61,
  0x75, 0x6c, 0x74, 0x5f, 0x6b, 0x65, 0x72, 0x61, 0x73, 0x5f, 0x74, 0x65,
  0x6e, 0x73, 0x6f, 0x72, 0x3a, 0x30, 0x00, 0x00, 0x02, 0x00, 0x00, 0x00,
  0x01, 0x00, 0x00, 0x00, 0x01, 0x00, 0x00, 0x00, 0x02, 0x00, 0x00, 0x00,
  0x20, 0x00, 0x00, 0x00, 0x04, 0x00, 0x00, 0x00, 0xf4, 0xff, 0xff, 0xff,
  0x1c, 0x00, 0x00, 0x00, 0x00, 0x00, 0x00, 0x1c, 0x0c, 0x00, 0x0c, 0x00,
  0x0b, 0x00, 0x00, 0x00, 0x00, 0x00, 0x04, 0x00, 0x0c, 0x00, 0x00, 0x00,
  0x09, 0x00, 0x00, 0x00, 0x00, 0x00, 0x00, 0x09
};
unsigned int modelo_seno_float32_tflite_len = 12908;
