unsigned char mnist_cnn_small_int8_tflite[] = {
  0x1c, 0x00, 0x00, 0x00, 0x54, 0x46, 0x4c, 0x33, 0x14, 0x00, 0x20, 0x00,
  0x1c, 0x00, 0x18, 0x00, 0x14, 0x00, 0x10, 0x00, 0x0c, 0x00, 0x00, 0x00,
  0x08, 0x00, 0x04, 0x00, 0x14, 0x00, 0x00, 0x00, 0x1c, 0x00, 0x00, 0x00,
  0x98, 0x00, 0x00, 0x00, 0x18, 0x01, 0x00, 0x00, 0x08, 0x0b, 0x00, 0x00,
  0x18, 0x0b, 0x00, 0x00, 0xf8, 0x16, 0x00, 0x00, 0x03, 0x00, 0x00, 0x00,
  0x01, 0x00, 0x00, 0x00, 0x10, 0x00, 0x00, 0x00, 0x00, 0x00, 0x0a, 0x00,
  0x10, 0x00, 0x0c, 0x00, 0x08, 0x00, 0x04, 0x00, 0x0a, 0x00, 0x00, 0x00,
  0x0c, 0x00, 0x00, 0x00, 0x1c, 0x00, 0x00, 0x00, 0x3c, 0x00, 0x00, 0x00,
  0x0f, 0x00, 0x00, 0x00, 0x73, 0x65, 0x72, 0x76, 0x69, 0x6e, 0x67, 0x5f,
  0x64, 0x65, 0x66, 0x61, 0x75, 0x6c, 0x74, 0x00, 0x01, 0x00, 0x00, 0x00,
  0x04, 0x00, 0x00, 0x00, 0x68, 0xff, 0xff, 0xff, 0x0d, 0x00, 0x00, 0x00,
  0x04, 0x00, 0x00, 0x00, 0x08, 0x00, 0x00, 0x00, 0x6f, 0x75, 0x74, 0x70,
  0x75, 0x74, 0x5f, 0x30, 0x00, 0x00, 0x00, 0x00, 0x01, 0x00, 0x00, 0x00,
  0x04, 0x00, 0x00, 0x00, 0xe6, 0xf4, 0xff, 0xff, 0x04, 0x00, 0x00, 0x00,
  0x0f, 0x00, 0x00, 0x00, 0x6b, 0x65, 0x72, 0x61, 0x73, 0x5f, 0x74, 0x65,
  0x6e, 0x73, 0x6f, 0x72, 0x5f, 0x31, 0x37, 0x00, 0x03, 0x00, 0x00, 0x00,
  0x5c, 0x00, 0x00, 0x00, 0x2c, 0x00, 0x00, 0x00, 0x04, 0x00, 0x00, 0x00,
  0xb8, 0xff, 0xff, 0xff, 0x11, 0x00, 0x00, 0x00, 0x04, 0x00, 0x00, 0x00,
  0x13, 0x00, 0x00, 0x00, 0x43, 0x4f, 0x4e, 0x56, 0x45, 0x52, 0x53, 0x49,
  0x4f, 0x4e, 0x5f, 0x4d, 0x45, 0x54, 0x41, 0x44, 0x41, 0x54, 0x41, 0x00,
  0xdc, 0xff, 0xff, 0xff, 0x10, 0x00, 0x00, 0x00, 0x04, 0x00, 0x00, 0x00,
  0x13, 0x00, 0x00, 0x00, 0x6d, 0x69, 0x6e, 0x5f, 0x72, 0x75, 0x6e, 0x74,
  0x69, 0x6d, 0x65, 0x5f, 0x76, 0x65, 0x72, 0x73, 0x69, 0x6f, 0x6e, 0x00,
  0x08, 0x00, 0x0c, 0x00, 0x08, 0x00, 0x04, 0x00, 0x08, 0x00, 0x00, 0x00,
  0x0f, 0x00, 0x00, 0x00, 0x04, 0x00, 0x00, 0x00, 0x13, 0x00, 0x00, 0x00,
  0x6d, 0x69, 0x6e, 0x5f, 0x72, 0x75, 0x6e, 0x74, 0x69, 0x6d, 0x65, 0x5f,
  0x76, 0x65, 0x72, 0x73, 0x69, 0x6f, 0x6e, 0x00, 0x12, 0x00, 0x00, 0x00,
  0xec, 0x09, 0x00, 0x00, 0xe4, 0x09, 0x00, 0x00, 0xcc, 0x09, 0x00, 0x00,
  0x94, 0x09, 0x00, 0x00, 0x0c, 0x09, 0x00, 0x00, 0xcc, 0x08, 0x00, 0x00,
  0xb4, 0x01, 0x00, 0x00, 0x8c, 0x01, 0x00, 0x00, 0xe4, 0x00, 0x00, 0x00,
  0xdc, 0x00, 0x00, 0x00, 0xd4, 0x00, 0x00, 0x00, 0xcc, 0x00, 0x00, 0x00,
  0xc4, 0x00, 0x00, 0x00, 0xbc, 0x00, 0x00, 0x00, 0xb4, 0x00, 0x00, 0x00,
  0x94, 0x00, 0x00, 0x00, 0x74, 0x00, 0x00, 0x00, 0x04, 0x00, 0x00, 0x00,
  0xd2, 0xf5, 0xff, 0xff, 0x04, 0x00, 0x00, 0x00, 0x60, 0x00, 0x00, 0x00,
  0x0c, 0x00, 0x00, 0x00, 0x08, 0x00, 0x0e, 0x00, 0x08, 0x00, 0x04, 0x00,
  0x08, 0x00, 0x00, 0x00, 0x10, 0x00, 0x00, 0x00, 0x28, 0x00, 0x00, 0x00,
  0x00, 0x00, 0x06, 0x00, 0x08, 0x00, 0x04, 0x00, 0x06, 0x00, 0x00, 0x00,
  0x04, 0x00, 0x00, 0x00, 0x01, 0x00, 0x00, 0x00, 0xeb, 0x03, 0x00, 0x00,
  0x0c, 0x00, 0x18, 0x00, 0x14, 0x00, 0x10, 0x00, 0x0c, 0x00, 0x04, 0x00,
  0x0c, 0x00, 0x00, 0x00, 0x5a, 0x63, 0x58, 0x19, 0xc8, 0xe3, 0x4f, 0x2d,
  0x02, 0x00, 0x00, 0x00, 0x02, 0x00, 0x00, 0x00, 0x04, 0x00, 0x00, 0x00,
  0x06, 0x00, 0x00, 0x00, 0x32, 0x2e, 0x31, 0x38, 0x2e, 0x30, 0x00, 0x00,
  0x3e, 0xf6, 0xff, 0xff, 0x04, 0x00, 0x00, 0x00, 0x10, 0x00, 0x00, 0x00,
  0x00, 0x00, 0x00, 0x00, 0x00, 0x00, 0x00, 0x00, 0x00, 0x00, 0x00, 0x00,
  0x00, 0x00, 0x00, 0x00, 0x5a, 0xf6, 0xff, 0xff, 0x04, 0x00, 0x00, 0x00,
  0x10, 0x00, 0x00, 0x00, 0x31, 0x2e, 0x31, 0x34, 0x2e, 0x30, 0x00, 0x00,
  0x00, 0x00, 0x00, 0x00, 0x00, 0x00, 0x00, 0x00, 0xdc, 0xeb, 0xff, 0xff,
  0xe0, 0xeb, 0xff, 0xff, 0xe4, 0xeb, 0xff, 0xff, 0xe8, 0xeb, 0xff, 0xff,
  0xec, 0xeb, 0xff, 0xff, 0xf0, 0xeb, 0xff, 0xff, 0x8e, 0xf6, 0xff, 0xff,
  0x04, 0x00, 0x00, 0x00, 0x96, 0x00, 0x00, 0x00, 0x19, 0x3d, 0x12, 0x0a,
  0xbe, 0x4b, 0x38, 0x0c, 0xf1, 0x96, 0x53, 0x2d, 0x0b, 0xd5, 0x81, 0x53,
  0x44, 0x1c, 0xac, 0xac, 0x34, 0x46, 0x08, 0xea, 0xd5, 0x81, 0xa9, 0x94,
  0xa2, 0x8c, 0xc6, 0xb7, 0xcc, 0xda, 0xf4, 0x4c, 0x32, 0x42, 0x27, 0x1a,
  0x5d, 0x4d, 0x31, 0x41, 0x2f, 0x4d, 0x35, 0x1d, 0x24, 0x36, 0x09, 0x52,
  0x62, 0x41, 0xfe, 0x29, 0x48, 0x51, 0x1d, 0xf7, 0x4b, 0x3d, 0x65, 0x46,
  0x11, 0x61, 0x76, 0x61, 0x5e, 0x51, 0x6e, 0x7f, 0x76, 0x4e, 0x3a, 0x4a,
  0x31, 0x0f, 0x26, 0x50, 0x44, 0x6e, 0x6f, 0x36, 0x0e, 0x46, 0x5f, 0x7f,
  0x7a, 0x32, 0x68, 0x53, 0x5e, 0x44, 0x27, 0x61, 0x42, 0x57, 0x3e, 0x66,
  0xc0, 0xcd, 0x20, 0x57, 0x72, 0xcd, 0xfd, 0x24, 0x62, 0x53, 0xe9, 0x0f,
  0x18, 0x48, 0x66, 0x1b, 0x18, 0x52, 0x57, 0x6f, 0x2f, 0x2f, 0x58, 0x7b,
  0x7f, 0x2b, 0x2d, 0x2c, 0x1a, 0x1c, 0x27, 0x27, 0x49, 0x3d, 0x3f, 0xea,
  0x27, 0x40, 0x4c, 0x33, 0xbd, 0xe5, 0xed, 0x07, 0x26, 0x81, 0x8a, 0x98,
  0xba, 0xf5, 0x00, 0x00, 0x32, 0xf7, 0xff, 0xff, 0x04, 0x00, 0x00, 0x00,
  0x18, 0x00, 0x00, 0x00, 0xa0, 0xfd, 0xff, 0xff, 0x68, 0x04, 0x00, 0x00,
  0xa1, 0x03, 0x00, 0x00, 0x5f, 0x0f, 0x00, 0x00, 0x53, 0x12, 0x00, 0x00,
  0x78, 0x05, 0x00, 0x00, 0x56, 0xf7, 0xff, 0xff, 0x04, 0x00, 0x00, 0x00,
  0x08, 0x07, 0x00, 0x00, 0x30, 0xb0, 0x2b, 0x0d, 0xf1, 0x0b, 0x3a, 0xab,
  0x08, 0x07, 0xe8, 0x1b, 0xed, 0x9f, 0xe9, 0xf5, 0xfa, 0x0e, 0xf6, 0xaa,
  0xfd, 0xf9, 0x01, 0x18, 0xe5, 0xfa, 0x1e, 0x1f, 0x2d, 0x3c, 0x2b, 0xcd,
  0x03, 0xe7, 0xee, 0xf6, 0x17, 0xcc, 0xcd, 0xd7, 0xe9, 0xea, 0xd5, 0xc4,
  0xef, 0xe8, 0x04, 0xe5, 0xf6, 0xc3, 0xfb, 0x05, 0xfd, 0xda, 0xde, 0xe1,
  0x11, 0x05, 0x0e, 0x24, 0x00, 0xce, 0xf7, 0xf6, 0xe2, 0x12, 0x23, 0x10,
  0xd8, 0xe1, 0x05, 0xf3, 0xff, 0xfb, 0xf1, 0xfd, 0x15, 0xec, 0x14, 0xff,
  0x0e, 0x0d, 0x06, 0xe7, 0x03, 0x24, 0x04, 0x0f, 0x32, 0x18, 0xc7, 0xa8,
  0xc8, 0xcb, 0xe1, 0x19, 0xd9, 0xf7, 0xe5, 0xfa, 0x0e, 0x26, 0x14, 0x03,
  0x12, 0x1a, 0x28, 0x1b, 0x1a, 0x23, 0x22, 0x1d, 0x24, 0x22, 0x1e, 0x41,
  0x21, 0x33, 0x2e, 0x28, 0x81, 0xb3, 0x9c, 0x8d, 0xba, 0xfa, 0xb7, 0xb2,
  0xc8, 0xea, 0xf0, 0x2a, 0xfa, 0xc3, 0xf7, 0x07, 0x1f, 0x41, 0x22, 0xe2,
  0x0e, 0x16, 0x16, 0x3c, 0x1c, 0x1f, 0x27, 0x3c, 0x42, 0x54, 0x1b, 0x7a,
  0x3a, 0x00, 0x2e, 0xc8, 0x32, 0x53, 0xf8, 0x26, 0x27, 0xd5, 0x52, 0x61,
  0x13, 0x0f, 0x2a, 0xe8, 0x13, 0x16, 0xf2, 0x18, 0x00, 0xe5, 0xf7, 0x27,
  0x18, 0x28, 0xfe, 0xda, 0x40, 0x16, 0x18, 0x10, 0x0f, 0x2a, 0x4a, 0x2b,
  0x21, 0x36, 0x12, 0x16, 0x44, 0x31, 0xfb, 0x32, 0xfe, 0xf3, 0x33, 0x2f,
  0x22, 0x05, 0x39, 0xda, 0x26, 0xef, 0xf3, 0xfc, 0x2f, 0xd6, 0x62, 0xea,
  0xf8, 0x2f, 0xfd, 0xe6, 0x43, 0xd4, 0x05, 0x13, 0x24, 0x1b, 0x4e, 0xbf,
  0x10, 0x21, 0x30, 0x17, 0x34, 0xc8, 0xf1, 0x15, 0x2e, 0x0f, 0x0d, 0xdf,
  0x11, 0x28, 0xf9, 0xea, 0x4b, 0x98, 0x14, 0x13, 0x1b, 0xd2, 0x2f, 0x8f,
  0x05, 0x03, 0x35, 0xe0, 0x11, 0xa4, 0x00, 0x15, 0xf9, 0xb5, 0x37, 0xd3,
  0xf1, 0x03, 0x2e, 0xe3, 0x2d, 0xee, 0x2f, 0xf4, 0x0a, 0xd7, 0x4a, 0x88,
  0x2a, 0x0d, 0xfc, 0x81, 0x50, 0xbf, 0x13, 0xe0, 0xf6, 0x96, 0x23, 0x98,
  0x0d, 0x29, 0x3a, 0xbd, 0x34, 0xcb, 0x11, 0x0f, 0x19, 0xb1, 0x32, 0xf2,
  0x2a, 0x10, 0x36, 0xfd, 0xe7, 0xa6, 0xb2, 0xa0, 0xc9, 0x98, 0xc3, 0xda,
  0xf0, 0xde, 0x14, 0xba, 0x1e, 0xe1, 0x05, 0x0b, 0x13, 0xbb, 0x22, 0xe1,
  0x14, 0x10, 0x0c, 0xce, 0x08, 0xe9, 0x13, 0x03, 0x15, 0xfc, 0xa3, 0xb2,
  0xb7, 0xc9, 0x04, 0xd0, 0xee, 0xc5, 0x0c, 0x07, 0x1a, 0xdc, 0x36, 0xde,
  0x0c, 0x09, 0x09, 0xe8, 0x1d, 0xce, 0x14, 0x09, 0x12, 0xf6, 0x0a, 0xd7,
  0x15, 0x04, 0xfb, 0x0c, 0x81, 0xb7, 0xdb, 0xe9, 0x0f, 0xd5, 0x2d, 0xd2,
  0x10, 0x04, 0x18, 0xff, 0x23, 0xd4, 0x17, 0x06, 0x00, 0xee, 0x25, 0xc4,
  0x11, 0x06, 0xfc, 0xf5, 0x16, 0xc9, 0x07, 0x09, 0x04, 0xf9, 0xb9, 0xd6,
  0xea, 0xf6, 0x0e, 0xda, 0x3a, 0xdd, 0x0e, 0x0f, 0x12, 0x06, 0x32, 0xbf,
  0x0d, 0x0c, 0x05, 0x03, 0x16, 0xc8, 0xff, 0x13, 0xfa, 0xf6, 0x1d, 0xd1,
  0xf9, 0xfd, 0xfc, 0x08, 0x47, 0xd9, 0xf1, 0xf7, 0xfb, 0xeb, 0x40, 0xc9,
  0x0d, 0xf9, 0x09, 0xfb, 0x25, 0xaa, 0x0d, 0x0e, 0x00, 0x00, 0x22, 0xc0,
  0x02, 0x0d, 0x02, 0x07, 0x11, 0xeb, 0xf1, 0xfa, 0xe1, 0x18, 0x01, 0x1e,
  0xf7, 0xe6, 0x05, 0xce, 0xf7, 0x1e, 0xfd, 0xea, 0xf6, 0xac, 0x07, 0x40,
  0xf5, 0xee, 0xf1, 0x81, 0x13, 0x48, 0xeb, 0xdf, 0xf3, 0x96, 0x05, 0x36,
  0xe2, 0xdd, 0xd2, 0x82, 0xfd, 0x04, 0xf8, 0xf5, 0x08, 0xff, 0x2d, 0xfa,
  0xfa, 0xfb, 0x04, 0xde, 0x24, 0x0e, 0x1a, 0x12, 0x02, 0xe7, 0x3c, 0x01,
  0x02, 0x05, 0xfd, 0xc0, 0x34, 0x05, 0xf4, 0xeb, 0x08, 0x99, 0xea, 0xdf,
  0xee, 0x0b, 0xfc, 0x02, 0x30, 0xd5, 0x09, 0x05, 0xfc, 0xd1, 0x26, 0xc7,
  0x19, 0x0b, 0xff, 0xd4, 0x30, 0xcd, 0x10, 0x09, 0xef, 0xb5, 0x33, 0xba,
  0x00, 0xe9, 0x05, 0xa9, 0xef, 0x09, 0xfe, 0x0a, 0x12, 0xc8, 0x16, 0xef,
  0x03, 0x0b, 0x0c, 0xbd, 0x29, 0xd9, 0x18, 0x10, 0x0d, 0xbd, 0x14, 0xcd,
  0x0b, 0x06, 0xf6, 0xbe, 0x23, 0xac, 0xe1, 0xe9, 0x07, 0x99, 0x01, 0x41,
  0x15, 0x1d, 0x11, 0xf5, 0x23, 0x2f, 0x1b, 0x09, 0x06, 0xe7, 0x04, 0x04,
  0x17, 0x0d, 0x09, 0xf3, 0x07, 0x16, 0x10, 0x03, 0xfe, 0xdb, 0x06, 0x03,
  0x05, 0xf9, 0x26, 0xd0, 0xf9, 0xd2, 0xec, 0xf7, 0x06, 0x3d, 0xf3, 0xd2,
  0xf4, 0x03, 0xe9, 0x47, 0xe6, 0xdf, 0xf6, 0x0d, 0x00, 0x50, 0xf7, 0xf7,
  0x06, 0x11, 0x22, 0x53, 0x0e, 0xf1, 0x1a, 0x29, 0x1e, 0x5e, 0xf3, 0xea,
  0xfa, 0xe5, 0xef, 0x06, 0xf3, 0x0d, 0xfa, 0xe9, 0xed, 0xfb, 0xe7, 0x15,
  0xef, 0xfa, 0xf3, 0x09, 0xdf, 0x09, 0xfa, 0x00, 0x07, 0x0f, 0xf4, 0x06,
  0x18, 0x08, 0x23, 0x3c, 0xff, 0x28, 0x0f, 0x17, 0xfe, 0x16, 0xe7, 0x28,
  0xf4, 0xfe, 0x0c, 0x19, 0xf1, 0x08, 0xfd, 0x16, 0xfe, 0x0f, 0xf9, 0x0b,
  0x03, 0xf8, 0x00, 0x0c, 0x02, 0x00, 0xf7, 0x19, 0x0e, 0x35, 0xf7, 0x58,
  0x0a, 0x1b, 0x14, 0x4a, 0xfd, 0x3e, 0x1a, 0x29, 0x0b, 0x4b, 0xf0, 0x26,
  0x07, 0x1c, 0xf9, 0x3b, 0xf0, 0x0f, 0x03, 0x1a, 0x00, 0x2e, 0x06, 0x04,
  0x16, 0x0d, 0xfa, 0x3d, 0x01, 0x7f, 0x31, 0x2e, 0x10, 0x49, 0xf9, 0x5c,
  0x12, 0x2a, 0x03, 0x61, 0xf6, 0x59, 0x1c, 0x0a, 0x05, 0x54, 0xf1, 0x48,
  0xfa, 0x12, 0xf0, 0x2e, 0xec, 0x2f, 0xef, 0x07, 0x05, 0x3b, 0x97, 0x84,
  0x21, 0xb0, 0xac, 0x32, 0x1d, 0x2e, 0xee, 0xd5, 0xe1, 0xe2, 0x3e, 0x27,
  0xb5, 0x36, 0xb1, 0x33, 0xbe, 0x24, 0xc6, 0xee, 0x40, 0xd7, 0x3d, 0x93,
  0x8e, 0x98, 0x91, 0xe5, 0xe2, 0x9f, 0x62, 0xdd, 0xff, 0xd3, 0x42, 0xf2,
  0xda, 0x95, 0x97, 0x62, 0x93, 0xb5, 0xe3, 0xd0, 0xe6, 0xc4, 0x9d, 0x29,
  0x1c, 0xf3, 0x58, 0xc4, 0x8f, 0xf3, 0xc6, 0x50, 0xd5, 0x30, 0x05, 0xfd,
  0xf3, 0x8b, 0x20, 0xdc, 0x11, 0x38, 0xec, 0x5a, 0xb4, 0x45, 0x14, 0xc6,
  0x16, 0x2d, 0x34, 0x2c, 0x4d, 0xc5, 0x47, 0x29, 0x03, 0x59, 0xef, 0xb5,
  0xd7, 0x87, 0x1a, 0xde, 0xe3, 0x2d, 0x05, 0xee, 0x47, 0xe9, 0xd4, 0x07,
  0x45, 0x95, 0x98, 0x95, 0xc8, 0x04, 0xc4, 0xc2, 0x04, 0x4a, 0x95, 0xdd,
  0xca, 0x89, 0x18, 0x20, 0xf7, 0xd8, 0xc4, 0x3c, 0x1d, 0x23, 0xa3, 0xdd,
  0xef, 0x90, 0x98, 0x9c, 0x2d, 0x1c, 0xf3, 0x3d, 0xde, 0xab, 0x18, 0xb9,
  0x39, 0xaf, 0x81, 0x07, 0x2a, 0x2d, 0xe8, 0x10, 0xd6, 0xe5, 0xaf, 0xa9,
  0x22, 0xba, 0x85, 0x22, 0x7f, 0xbb, 0xd0, 0xe7, 0xc6, 0xa5, 0xea, 0x97,
  0xba, 0xcf, 0x15, 0xa2, 0x2d, 0xcd, 0x09, 0xed, 0x2b, 0x89, 0x48, 0xe6,
  0x2a, 0x11, 0xfd, 0x8c, 0x36, 0xcd, 0x0c, 0xf5, 0xc2, 0x91, 0x5a, 0xc5,
  0xdd, 0xec, 0xf2, 0xd9, 0xd5, 0xc2, 0xdb, 0xed, 0x18, 0xca, 0x45, 0xcc,
  0x27, 0x12, 0x34, 0xb3, 0x40, 0xdb, 0x28, 0x22, 0xfd, 0xba, 0x1d, 0x16,
  0xff, 0x04, 0xfb, 0xd5, 0x39, 0xec, 0xe6, 0xfb, 0xf7, 0xd1, 0x17, 0xe8,
  0xf9, 0xe7, 0x12, 0xc0, 0x38, 0xf4, 0x37, 0x24, 0x28, 0xd1, 0x46, 0x08,
  0x27, 0x10, 0x13, 0x00, 0x0e, 0x32, 0xfc, 0x08, 0xfa, 0x1f, 0x24, 0xd7,
  0xcf, 0xf2, 0xf7, 0xf0, 0x39, 0xbf, 0x0d, 0xf0, 0x20, 0xd1, 0x3d, 0xc4,
  0x37, 0x09, 0x09, 0xf3, 0x3b, 0xc1, 0x1e, 0x10, 0xfa, 0x09, 0x02, 0xf6,
  0xf4, 0xf7, 0xf6, 0x41, 0x32, 0xb4, 0xed, 0xf1, 0x20, 0xd3, 0x4f, 0x8c,
  0x1a, 0x06, 0x0e, 0xdf, 0x4b, 0x86, 0x07, 0x16, 0x08, 0xfe, 0x35, 0xa2,
  0xfe, 0xf0, 0xcd, 0xfe, 0xd4, 0xe1, 0xe9, 0xe0, 0x07, 0xfc, 0xc1, 0xd1,
  0xd6, 0xcd, 0xc4, 0xa1, 0xb2, 0xf4, 0xc3, 0xc5, 0xd7, 0xbd, 0xf2, 0x21,
  0xd2, 0xe9, 0xe2, 0xcb, 0xf7, 0x38, 0xca, 0xd8, 0xca, 0xb5, 0xf6, 0x43,
  0xb9, 0x99, 0x83, 0x8c, 0x12, 0x2b, 0xf0, 0xe1, 0x05, 0x81, 0xe5, 0x1c,
  0xf9, 0xff, 0x05, 0xa6, 0x07, 0x0e, 0xfe, 0xf0, 0xff, 0xb4, 0x1f, 0x2e,
  0x03, 0xe9, 0xf9, 0xde, 0x13, 0x38, 0xd7, 0xe3, 0xdd, 0xd2, 0x33, 0x78,
  0x25, 0x0f, 0x2c, 0xf9, 0x22, 0x3d, 0x13, 0x12, 0x0b, 0xee, 0x18, 0x55,
  0x21, 0x12, 0x27, 0xf7, 0x08, 0x41, 0x22, 0xf5, 0x09, 0x01, 0x17, 0x4b,
  0xfe, 0x02, 0xf1, 0xee, 0x3f, 0x0c, 0x04, 0x24, 0x26, 0x23, 0x33, 0x04,
  0x0e, 0x25, 0x21, 0x24, 0x33, 0x20, 0x09, 0x0d, 0x23, 0xfd, 0x2a, 0x14,
  0x08, 0x0f, 0x0a, 0xef, 0x25, 0x2c, 0x2e, 0xfe, 0x2a, 0xfe, 0x33, 0xde,
  0x15, 0x02, 0x15, 0xf2, 0x27, 0xd3, 0x17, 0xfe, 0x07, 0xe2, 0x35, 0xe7,
  0x20, 0x2a, 0x22, 0xca, 0x33, 0xf9, 0x33, 0x14, 0x26, 0xc0, 0x13, 0xf1,
  0x2e, 0x2b, 0x4e, 0xd4, 0x01, 0xde, 0x17, 0x02, 0x1d, 0x40, 0x22, 0xcd,
  0x19, 0x00, 0x25, 0x20, 0x1f, 0xd8, 0x29, 0x25, 0x16, 0x1d, 0x20, 0xe5,
  0x19, 0x29, 0x2c, 0x27, 0xf0, 0x05, 0x31, 0x25, 0x59, 0x52, 0xe6, 0xd8,
  0xe6, 0xf3, 0x0a, 0x14, 0x0d, 0xec, 0x13, 0x08, 0x02, 0xfd, 0x21, 0xf1,
  0x11, 0x09, 0x09, 0x00, 0x1e, 0xde, 0xfa, 0x04, 0xfa, 0x24, 0xd5, 0xae,
  0xf5, 0x09, 0x45, 0x43, 0xee, 0xdd, 0xfc, 0xf2, 0x0a, 0xaf, 0x16, 0xde,
  0x03, 0x0a, 0x0b, 0xbf, 0x2c, 0xd7, 0x16, 0x0c, 0xe6, 0xc4, 0x12, 0x88,
  0xe1, 0xe3, 0xda, 0xc5, 0xe5, 0x81, 0xdd, 0xe9, 0x34, 0xc6, 0x0f, 0xbe,
  0x05, 0xe9, 0x22, 0xa3, 0x31, 0xab, 0x21, 0x10, 0x16, 0xac, 0x3b, 0x9b,
  0x07, 0x09, 0xd0, 0xab, 0xfc, 0xa2, 0xca, 0xcf, 0xfb, 0xa8, 0xe0, 0xa2,
  0x04, 0xff, 0x42, 0xaf, 0x3f, 0xa1, 0x2c, 0x09, 0x1b, 0xeb, 0x47, 0x94,
  0x1a, 0x0d, 0xfc, 0xe3, 0x21, 0x9e, 0xec, 0xe6, 0xbf, 0xeb, 0xcc, 0x94,
  0xd7, 0xca, 0xec, 0xd1, 0xf2, 0x8f, 0x0f, 0x23, 0x4c, 0x16, 0x65, 0xe3,
  0x18, 0x0c, 0x03, 0x81, 0x1e, 0xda, 0x03, 0x00, 0xe5, 0x97, 0x16, 0xd6,
  0xe6, 0xf9, 0x0d, 0x9e, 0x10, 0xdb, 0xfc, 0xf9, 0x13, 0xd4, 0x2e, 0xf0,
  0x02, 0x10, 0x2b, 0xdd, 0x56, 0xd6, 0x2a, 0x0f, 0xf2, 0xbf, 0x28, 0xdf,
  0xf4, 0x05, 0xf6, 0xa0, 0x20, 0xe7, 0xf0, 0x09, 0xfa, 0xb9, 0x2b, 0xd0,
  0xfe, 0xfa, 0x1d, 0xd3, 0x19, 0xda, 0x12, 0xff, 0x05, 0xec, 0x44, 0xc1,
  0x1f, 0x00, 0x01, 0xf6, 0x15, 0xd3, 0x14, 0xee, 0x09, 0xdb, 0x17, 0xec,
  0xef, 0x0a, 0x14, 0xcb, 0x0a, 0xd5, 0x0e, 0xf1, 0x0d, 0xe1, 0x0e, 0xc9,
  0x06, 0xfc, 0xfb, 0x00, 0x0c, 0xd3, 0x24, 0xfe, 0xff, 0x01, 0xeb, 0xe7,
  0x02, 0xfa, 0xf1, 0x13, 0x07, 0xfe, 0x05, 0xf6, 0x0b, 0xf1, 0x13, 0xfc,
  0xf7, 0x0f, 0x00, 0xf3, 0xed, 0x03, 0x15, 0x02, 0x1d, 0x06, 0x06, 0x37,
  0x19, 0x0f, 0x0f, 0x02, 0xf7, 0x25, 0x03, 0x13, 0x0f, 0xff, 0xf5, 0x42,
  0x17, 0x05, 0x0b, 0x03, 0xfc, 0x4e, 0x00, 0x0a, 0x10, 0x16, 0x02, 0x55,
  0x18, 0x02, 0x27, 0x0d, 0x46, 0xfc, 0xe7, 0xeb, 0xed, 0xe5, 0x3a, 0xbb,
  0xdd, 0xd5, 0xfd, 0xe3, 0x5c, 0xac, 0xf8, 0xe0, 0x14, 0xc4, 0x5d, 0xc1,
  0xfa, 0xf8, 0xfc, 0xb7, 0x50, 0xdb, 0x07, 0x03, 0xf7, 0xaf, 0x55, 0xe1,
  0xf1, 0xe1, 0xdd, 0xc3, 0x60, 0xa0, 0xed, 0xdc, 0xf4, 0xae, 0x6a, 0xb1,
  0xf5, 0x06, 0x1a, 0xa5, 0x3e, 0xc4, 0x06, 0x01, 0xf7, 0xa0, 0x26, 0xca,
  0xf2, 0xf6, 0xfe, 0x8e, 0x59, 0xd5, 0xf3, 0xfb, 0xe2, 0x8a, 0x4a, 0xc0,
  0xd7, 0xfa, 0xff, 0xab, 0x46, 0xbe, 0xf3, 0xed, 0x00, 0xb8, 0x2a, 0xc0,
  0xfe, 0xf4, 0x06, 0xc2, 0x2d, 0xb0, 0xf5, 0xf2, 0xf2, 0xa1, 0x4b, 0xf3,
  0x0d, 0x0f, 0x18, 0x9e, 0x1f, 0xd3, 0x0e, 0x09, 0x0a, 0xb0, 0x06, 0xe2,
  0xff, 0x04, 0x23, 0xcc, 0x19, 0xf1, 0x13, 0x06, 0x17, 0xea, 0x09, 0xfe,
  0x1d, 0x08, 0x09, 0xd1, 0x46, 0x25, 0x37, 0x38, 0x4c, 0xb2, 0x16, 0x21,
  0x2e, 0x1b, 0x22, 0xd1, 0xe8, 0x1d, 0x2b, 0x23, 0x22, 0xd0, 0xe8, 0x3f,
  0x37, 0x24, 0x3e, 0x09, 0xf1, 0x7f, 0x42, 0x28, 0x34, 0x0e, 0x9e, 0x7f,
  0xff, 0x08, 0x05, 0x14, 0xac, 0x77, 0x01, 0x08, 0xf9, 0x28, 0xc2, 0x6c,
  0xf4, 0xfb, 0xfd, 0x2b, 0xae, 0x4c, 0xf0, 0xf2, 0xf7, 0x32, 0xda, 0x27,
  0x09, 0x0d, 0x24, 0x3d, 0xb8, 0x50, 0xfd, 0x11, 0xf9, 0x26, 0xc7, 0x48,
  0x06, 0xfc, 0x06, 0x20, 0xb7, 0x52, 0xfc, 0xeb, 0xfb, 0x1b, 0xb7, 0x2d,
  0xeb, 0x00, 0x10, 0x2e, 0xd2, 0x11, 0x16, 0x0f, 0x28, 0x16, 0xd0, 0x23,
  0xf3, 0xf8, 0xe6, 0x20, 0xdc, 0x2f, 0xf8, 0x02, 0xfa, 0x1e, 0xbd, 0x23,
  0xf2, 0xe4, 0xfe, 0x10, 0xdf, 0x0a, 0xfc, 0xfe, 0x17, 0x05, 0xe8, 0xe8,
  0x16, 0x15, 0x2c, 0x17, 0xbf, 0xee, 0xcd, 0xc4, 0xdf, 0x16, 0xc6, 0x2f,
  0xe1, 0xf6, 0xe8, 0x08, 0xd6, 0x21, 0xe4, 0xf3, 0x09, 0xe3, 0xfb, 0x0f,
  0x0d, 0x01, 0x17, 0xd3, 0xfe, 0xeb, 0x02, 0x02, 0x29, 0xf3, 0x90, 0xf8,
  0xbb, 0xd1, 0xf9, 0xc0, 0xb5, 0x31, 0xf1, 0xfc, 0x05, 0xc2, 0xee, 0x3a,
  0xfa, 0x04, 0x15, 0xcb, 0x14, 0x22, 0x04, 0x21, 0x20, 0xcd, 0xf6, 0xff,
  0x1a, 0x26, 0x2f, 0xe4, 0x6a, 0xfe, 0xff, 0xff, 0x04, 0x00, 0x00, 0x00,
  0x30, 0x00, 0x00, 0x00, 0xf7, 0x02, 0x00, 0x00, 0x6b, 0x02, 0x00, 0x00,
  0x5d, 0xff, 0xff, 0xff, 0xe6, 0xff, 0xff, 0xff, 0x86, 0x00, 0x00, 0x00,
  0x20, 0xfe, 0xff, 0xff, 0xfb, 0x01, 0x00, 0x00, 0xc4, 0xfd, 0xff, 0xff,
  0x46, 0x01, 0x00, 0x00, 0x45, 0x00, 0x00, 0x00, 0x05, 0x02, 0x00, 0x00,
  0xbb, 0x00, 0x00, 0x00, 0xa6, 0xfe, 0xff, 0xff, 0x04, 0x00, 0x00, 0x00,
  0x78, 0x00, 0x00, 0x00, 0xa1, 0xfe, 0x54, 0x81, 0x27, 0x25, 0x67, 0xdc,
  0x0e, 0x47, 0xfb, 0xb1, 0x6a, 0xb1, 0x7f, 0xf5, 0xa5, 0x3b, 0x2d, 0xbe,
  0x7a, 0x75, 0x7d, 0x98, 0xc0, 0x3a, 0xc3, 0xef, 0xfa, 0x43, 0xf8, 0xbe,
  0xb1, 0xc4, 0x7f, 0x59, 0x09, 0xcb, 0xa1, 0x67, 0x39, 0x01, 0x81, 0xb4,
  0x17, 0x21, 0xc8, 0x3e, 0xbd, 0xcb, 0xc3, 0x7f, 0xee, 0x37, 0x58, 0x47,
  0x29, 0x34, 0x3b, 0xd9, 0x7c, 0xa8, 0x72, 0xd3, 0x69, 0x2b, 0xf9, 0x03,
  0xb4, 0x81, 0xd6, 0xdf, 0x0a, 0x05, 0x4d, 0xe9, 0xf0, 0x12, 0xfb, 0x2b,
  0x81, 0x47, 0x2e, 0xc8, 0xf1, 0xf2, 0x1b, 0xdb, 0xdd, 0x1c, 0x42, 0x62,
  0x6b, 0x81, 0xab, 0x51, 0x35, 0x62, 0x2e, 0x81, 0xfc, 0x2e, 0x90, 0xa9,
  0xda, 0xf9, 0xe6, 0xfb, 0x02, 0x45, 0x81, 0x0a, 0xda, 0x22, 0x22, 0x38,
  0x4c, 0xc8, 0x96, 0xea, 0x2a, 0xff, 0xff, 0xff, 0x04, 0x00, 0x00, 0x00,
  0x28, 0x00, 0x00, 0x00, 0xb9, 0xff, 0xff, 0xff, 0x0b, 0x00, 0x00, 0x00,
  0x6e, 0x00, 0x00, 0x00, 0x16, 0x00, 0x00, 0x00, 0x32, 0xff, 0xff, 0xff,
  0x93, 0x00, 0x00, 0x00, 0x2b, 0x00, 0x00, 0x00, 0xb4, 0xff, 0xff, 0xff,
  0x8b, 0xff, 0xff, 0xff, 0xb1, 0x00, 0x00, 0x00, 0x5e, 0xff, 0xff, 0xff,
  0x04, 0x00, 0x00, 0x00, 0x08, 0x00, 0x00, 0x00, 0x01, 0x00, 0x00, 0x00,
  0x02, 0x00, 0x00, 0x00, 0xd8, 0xf4, 0xff, 0xff, 0xdc, 0xf4, 0xff, 0xff,
  0x0f, 0x00, 0x00, 0x00, 0x4d, 0x4c, 0x49, 0x52, 0x20, 0x43, 0x6f, 0x6e,
  0x76, 0x65, 0x72, 0x74, 0x65, 0x64, 0x2e, 0x00, 0x01, 0x00, 0x00, 0x00,
  0x14, 0x00, 0x00, 0x00, 0x00, 0x00, 0x0e, 0x00, 0x18, 0x00, 0x14, 0x00,
  0x10, 0x00, 0x0c, 0x00, 0x08, 0x00, 0x04, 0x00, 0x0e, 0x00, 0x00, 0x00,
  0x14, 0x00, 0x00, 0x00, 0x1c, 0x00, 0x00, 0x00, 0xcc, 0x01, 0x00, 0x00,
  0xd0, 0x01, 0x00, 0x00, 0xd4, 0x01, 0x00, 0x00, 0x04, 0x00, 0x00, 0x00,
  0x6d, 0x61, 0x69, 0x6e, 0x00, 0x00, 0x00, 0x00, 0x06, 0x00, 0x00, 0x00,
  0x64, 0x01, 0x00, 0x00, 0x00, 0x01, 0x00, 0x00, 0xac, 0x00, 0x00, 0x00,
  0x78, 0x00, 0x00, 0x00, 0x40, 0x00, 0x00, 0x00, 0x04, 0x00, 0x00, 0x00,
  0x22, 0xff, 0xff, 0xff, 0x1c, 0x00, 0x00, 0x00, 0x00, 0x00, 0x00, 0x09,
  0x1c, 0x00, 0x00, 0x00, 0x20, 0x00, 0x00, 0x00, 0x04, 0x00, 0x00, 0x00,
  0x00, 0x00, 0x06, 0x00, 0x08, 0x00, 0x04, 0x00, 0x06, 0x00, 0x00, 0x00,
  0x00, 0x00, 0x80, 0x3f, 0x01, 0x00, 0x00, 0x00, 0x0d, 0x00, 0x00, 0x00,
  0x01, 0x00, 0x00, 0x00, 0x0c, 0x00, 0x00, 0x00, 0x5a, 0xff, 0xff, 0xff,
  0x14, 0x00, 0x00, 0x00, 0x00, 0x00, 0x00, 0x08, 0x10, 0x00, 0x00, 0x00,
  0x14, 0x00, 0x00, 0x00, 0x03, 0x00, 0x00, 0x00, 0x9c, 0xf5, 0xff, 0xff,
  0x01, 0x00, 0x00, 0x00, 0x0c, 0x00, 0x00, 0x00, 0x03, 0x00, 0x00, 0x00,
  0x0b, 0x00, 0x00, 0x00, 0x03, 0x00, 0x00, 0x00, 0x02, 0x00, 0x00, 0x00,
  0x8e, 0xff, 0xff, 0xff, 0x14, 0x00, 0x00, 0x00, 0x00, 0x00, 0x00, 0x1b,
  0x10, 0x00, 0x00, 0x00, 0x14, 0x00, 0x00, 0x00, 0x02, 0x00, 0x00, 0x00,
  0xd0, 0xf5, 0xff, 0xff, 0x01, 0x00, 0x00, 0x00, 0x0b, 0x00, 0x00, 0x00,
  0x02, 0x00, 0x00, 0x00, 0x0a, 0x00, 0x00, 0x00, 0x01, 0x00, 0x00, 0x00,
  0x5e, 0xff, 0xff, 0xff, 0x10, 0x00, 0x00, 0x00, 0x00, 0x00, 0x00, 0x01,
  0x1c, 0x00, 0x00, 0x00, 0x20, 0x00, 0x00, 0x00, 0x50, 0xff, 0xff, 0xff,
  0x00, 0x00, 0x00, 0x01, 0x01, 0x00, 0x00, 0x00, 0x01, 0x00, 0x00, 0x00,
  0x00, 0x00, 0x00, 0x01, 0x01, 0x00, 0x00, 0x00, 0x0a, 0x00, 0x00, 0x00,
  0x03, 0x00, 0x00, 0x00, 0x09, 0x00, 0x00, 0x00, 0x05, 0x00, 0x00, 0x00,
  0x04, 0x00, 0x00, 0x00, 0x00, 0x00, 0x0e, 0x00, 0x1a, 0x00, 0x14, 0x00,
  0x10, 0x00, 0x0c, 0x00, 0x0b, 0x00, 0x04, 0x00, 0x0e, 0x00, 0x00, 0x00,
  0x24, 0x00, 0x00, 0x00, 0x00, 0x00, 0x00, 0x05, 0x34, 0x00, 0x00, 0x00,
  0x38, 0x00, 0x00, 0x00, 0x01, 0x00, 0x00, 0x00, 0x00, 0x00, 0x0e, 0x00,
  0x18, 0x00, 0x17, 0x00, 0x10, 0x00, 0x0c, 0x00, 0x08, 0x00, 0x04, 0x00,
  0x0e, 0x00, 0x00, 0x00, 0x02, 0x00, 0x00, 0x00, 0x02, 0x00, 0x00, 0x00,
  0x02, 0x00, 0x00, 0x00, 0x02, 0x00, 0x00, 0x00, 0x00, 0x00, 0x00, 0x01,
  0x01, 0x00, 0x00, 0x00, 0x09, 0x00, 0x00, 0x00, 0x01, 0x00, 0x00, 0x00,
  0x08, 0x00, 0x00, 0x00, 0x00, 0x00, 0x0e, 0x00, 0x14, 0x00, 0x00, 0x00,
  0x10, 0x00, 0x0c, 0x00, 0x0b, 0x00, 0x04, 0x00, 0x0e, 0x00, 0x00, 0x00,
  0x1c, 0x00, 0x00, 0x00, 0x00, 0x00, 0x00, 0x01, 0x28, 0x00, 0x00, 0x00,
  0x2c, 0x00, 0x00, 0x00, 0x0c, 0x00, 0x14, 0x00, 0x13, 0x00, 0x0c, 0x00,
  0x08, 0x00, 0x07, 0x00, 0x0c, 0x00, 0x00, 0x00, 0x00, 0x00, 0x00, 0x01,
  0x01, 0x00, 0x00, 0x00, 0x01, 0x00, 0x00, 0x00, 0x00, 0x00, 0x00, 0x01,
  0x01, 0x00, 0x00, 0x00, 0x08, 0x00, 0x00, 0x00, 0x03, 0x00, 0x00, 0x00,
  0x00, 0x00, 0x00, 0x00, 0x07, 0x00, 0x00, 0x00, 0x06, 0x00, 0x00, 0x00,
  0x01, 0x00, 0x00, 0x00, 0x0d, 0x00, 0x00, 0x00, 0x01, 0x00, 0x00, 0x00,
  0x00, 0x00, 0x00, 0x00, 0x0e, 0x00, 0x00, 0x00, 0x44, 0x09, 0x00, 0x00,
  0xe8, 0x08, 0x00, 0x00, 0x00, 0x08, 0x00, 0x00, 0x2c, 0x07, 0x00, 0x00,
  0x48, 0x06, 0x00, 0x00, 0x54, 0x05, 0x00, 0x00, 0xb8, 0x04, 0x00, 0x00,
  0x0c, 0x04, 0x00, 0x00, 0x30, 0x03, 0x00, 0x00, 0x94, 0x02, 0x00, 0x00,
  0xb8, 0x01, 0x00, 0x00, 0x24, 0x01, 0x00, 0x00, 0x80, 0x00, 0x00, 0x00,
  0x04, 0x00, 0x00, 0x00, 0x0a, 0xf7, 0xff, 0xff, 0x00, 0x00, 0x00, 0x01,
  0x18, 0x00, 0x00, 0x00, 0x20, 0x00, 0x00, 0x00, 0x3c, 0x00, 0x00, 0x00,
  0x0e, 0x00, 0x00, 0x00, 0x00, 0x00, 0x00, 0x09, 0x50, 0x00, 0x00, 0x00,
  0x02, 0x00, 0x00, 0x00, 0xff, 0xff, 0xff, 0xff, 0x0a, 0x00, 0x00, 0x00,
  0xec, 0xf6, 0xff, 0xff, 0x08, 0x00, 0x00, 0x00, 0x10, 0x00, 0x00, 0x00,
  0x01, 0x00, 0x00, 0x00, 0x80, 0xff, 0xff, 0xff, 0xff, 0xff, 0xff, 0xff,
  0x01, 0x00, 0x00, 0x00, 0x00, 0x00, 0x80, 0x3b, 0x1b, 0x00, 0x00, 0x00,
  0x53, 0x74, 0x61, 0x74, 0x65, 0x66, 0x75, 0x6c, 0x50, 0x61, 0x72, 0x74,
  0x69, 0x74, 0x69, 0x6f, 0x6e, 0x65, 0x64, 0x43, 0x61, 0x6c, 0x6c, 0x5f,
  0x31, 0x3a, 0x30, 0x00, 0x02, 0x00, 0x00, 0x00, 0x01, 0x00, 0x00, 0x00,
  0x0a, 0x00, 0x00, 0x00, 0x82, 0xf7, 0xff, 0xff, 0x00, 0x00, 0x00, 0x01,
  0x18, 0x00, 0x00, 0x00, 0x20, 0x00, 0x00, 0x00, 0x3c, 0x00, 0x00, 0x00,
  0x0d, 0x00, 0x00, 0x00, 0x00, 0x00, 0x00, 0x09, 0x78, 0x00, 0x00, 0x00,
  0x02, 0x00, 0x00, 0x00, 0xff, 0xff, 0xff, 0xff, 0x0a, 0x00, 0x00, 0x00,
  0x64, 0xf7, 0xff, 0xff, 0x08, 0x00, 0x00, 0x00, 0x10, 0x00, 0x00, 0x00,
  0x01, 0x00, 0x00, 0x00, 0x25, 0x00, 0x00, 0x00, 0x00, 0x00, 0x00, 0x00,
  0x01, 0x00, 0x00, 0x00, 0x26, 0x6c, 0x1f, 0x3e, 0x40, 0x00, 0x00, 0x00,
  0x73, 0x65, 0x71, 0x75, 0x65, 0x6e, 0x74, 0x69, 0x61, 0x6c, 0x5f, 0x33,
  0x5f, 0x31, 0x2f, 0x64, 0x65, 0x6e, 0x73, 0x65, 0x5f, 0x33, 0x5f, 0x31,
  0x2f, 0x4d, 0x61, 0x74, 0x4d, 0x75, 0x6c, 0x3b, 0x73, 0x65, 0x71, 0x75,
  0x65, 0x6e, 0x74, 0x69, 0x61, 0x6c, 0x5f, 0x33, 0x5f, 0x31, 0x2f, 0x64,
  0x65, 0x6e, 0x73, 0x65, 0x5f, 0x33, 0x5f, 0x31, 0x2f, 0x42, 0x69, 0x61,
  0x73, 0x41, 0x64, 0x64, 0x00, 0x00, 0x00, 0x00, 0x02, 0x00, 0x00, 0x00,
  0x01, 0x00, 0x00, 0x00, 0x0a, 0x00, 0x00, 0x00, 0x22, 0xf8, 0xff, 0xff,
  0x00, 0x00, 0x00, 0x01, 0x18, 0x00, 0x00, 0x00, 0x20, 0x00, 0x00, 0x00,
  0x3c, 0x00, 0x00, 0x00, 0x0c, 0x00, 0x00, 0x00, 0x00, 0x00, 0x00, 0x09,
  0x68, 0x00, 0x00, 0x00, 0x02, 0x00, 0x00, 0x00, 0xff, 0xff, 0xff, 0xff,
  0x0c, 0x00, 0x00, 0x00, 0x04, 0xf8, 0xff, 0xff, 0x08, 0x00, 0x00, 0x00,
  0x10, 0x00, 0x00, 0x00, 0x01, 0x00, 0x00, 0x00, 0x80, 0xff, 0xff, 0xff,
  0xff, 0xff, 0xff, 0xff, 0x01, 0x00, 0x00, 0x00, 0x9b, 0x1d, 0x0f, 0x3e,
  0x30, 0x00, 0x00, 0x00, 0x73, 0x65, 0x71, 0x75, 0x65, 0x6e, 0x74, 0x69,
  0x61, 0x6c, 0x5f, 0x33, 0x5f, 0x31, 0x2f, 0x67, 0x6c, 0x6f, 0x62, 0x61,
  0x6c, 0x5f, 0x61, 0x76, 0x65, 0x72, 0x61, 0x67, 0x65, 0x5f, 0x70, 0x6f,
  0x6f, 0x6c, 0x69, 0x6e, 0x67, 0x32, 0x64, 0x5f, 0x33, 0x5f, 0x31, 0x2f,
  0x4d, 0x65, 0x61, 0x6e, 0x00, 0x00, 0x00, 0x00, 0x02, 0x00, 0x00, 0x00,
  0x01, 0x00, 0x00, 0x00, 0x0c, 0x00, 0x00, 0x00, 0xb2, 0xf8, 0xff, 0xff,
  0x00, 0x00, 0x00, 0x01, 0x18, 0x00, 0x00, 0x00, 0x28, 0x00, 0x00, 0x00,
  0x48, 0x00, 0x00, 0x00, 0x0b, 0x00, 0x00, 0x00, 0x00, 0x00, 0x00, 0x09,
  0xa8, 0x00, 0x00, 0x00, 0x04, 0x00, 0x00, 0x00, 0xff, 0xff, 0xff, 0xff,
  0x08, 0x00, 0x00, 0x00, 0x08, 0x00, 0x00, 0x00, 0x0c, 0x00, 0x00, 0x00,
  0x9c, 0xf8, 0xff, 0xff, 0x08, 0x00, 0x00, 0x00, 0x14, 0x00, 0x00, 0x00,
  0x01, 0x00, 0x00, 0x00, 0x80, 0xff, 0xff, 0xff, 0xff, 0xff, 0xff, 0xff,
  0x00, 0x00, 0x00, 0x00, 0x01, 0x00, 0x00, 0x00, 0x64, 0x0b, 0x89, 0x3e,
  0x67, 0x00, 0x00, 0x00, 0x73, 0x65, 0x71, 0x75, 0x65, 0x6e, 0x74, 0x69,
  0x61, 0x6c, 0x5f, 0x33, 0x5f, 0x31, 0x2f, 0x63, 0x6f, 0x6e, 0x76, 0x32,
  0x64, 0x5f, 0x36, 0x5f, 0x31, 0x2f, 0x52, 0x65, 0x6c, 0x75, 0x3b, 0x73,
  0x65, 0x71, 0x75, 0x65, 0x6e, 0x74, 0x69, 0x61, 0x6c, 0x5f, 0x33, 0x5f,
  0x31, 0x2f, 0x63, 0x6f, 0x6e, 0x76, 0x32, 0x64, 0x5f, 0x36, 0x5f, 0x31,
  0x2f, 0x42, 0x69, 0x61, 0x73, 0x41, 0x64, 0x64, 0x3b, 0x73, 0x65, 0x71,
  0x75, 0x65, 0x6e, 0x74, 0x69, 0x61, 0x6c, 0x5f, 0x33, 0x5f, 0x31, 0x2f,
  0x63, 0x6f, 0x6e, 0x76, 0x32, 0x64, 0x5f, 0x36, 0x5f, 0x31, 0x2f, 0x63,
  0x6f, 0x6e, 0x76, 0x6f, 0x6c, 0x75, 0x74, 0x69, 0x6f, 0x6e, 0x3b, 0x00,
  0x04, 0x00, 0x00, 0x00, 0x01, 0x00, 0x00, 0x00, 0x08, 0x00, 0x00, 0x00,
  0x08, 0x00, 0x00, 0x00, 0x0c, 0x00, 0x00, 0x00, 0x8a, 0xf9, 0xff, 0xff,
  0x00, 0x00, 0x00, 0x01, 0x18, 0x00, 0x00, 0x00, 0x28, 0x00, 0x00, 0x00,
  0x44, 0x00, 0x00, 0x00, 0x0a, 0x00, 0x00, 0x00, 0x00, 0x00, 0x00, 0x09,
  0x68, 0x00, 0x00, 0x00, 0x04, 0x00, 0x00, 0x00, 0xff, 0xff, 0xff, 0xff,
  0x0c, 0x00, 0x00, 0x00, 0x0c, 0x00, 0x00, 0x00, 0x06, 0x00, 0x00, 0x00,
  0x74, 0xf9, 0xff, 0xff, 0x08, 0x00, 0x00, 0x00, 0x10, 0x00, 0x00, 0x00,
  0x01, 0x00, 0x00, 0x00, 0x80, 0xff, 0xff, 0xff, 0xff, 0xff, 0xff, 0xff,
  0x01, 0x00, 0x00, 0x00, 0x5e, 0xb3, 0x39, 0x3d, 0x2a, 0x00, 0x00, 0x00,
  0x73, 0x65, 0x71, 0x75, 0x65, 0x6e, 0x74, 0x69, 0x61, 0x6c, 0x5f, 0x33,
  0x5f, 0x31, 0x2f, 0x6d, 0x61, 0x78, 0x5f, 0x70, 0x6f, 0x6f, 0x6c, 0x69,
  0x6e, 0x67, 0x32, 0x64, 0x5f, 0x32, 0x5f, 0x31, 0x2f, 0x4d, 0x61, 0x78,
  0x50, 0x6f, 0x6f, 0x6c, 0x32, 0x64, 0x00, 0x00, 0x04, 0x00, 0x00, 0x00,
  0x01, 0x00, 0x00, 0x00, 0x0c, 0x00, 0x00, 0x00, 0x0c, 0x00, 0x00, 0x00,
  0x06, 0x00, 0x00, 0x00, 0x22, 0xfa, 0xff, 0xff, 0x00, 0x00, 0x00, 0x01,
  0x18, 0x00, 0x00, 0x00, 0x28, 0x00, 0x00, 0x00, 0x44, 0x00, 0x00, 0x00,
  0x09, 0x00, 0x00, 0x00, 0x00, 0x00, 0x00, 0x09, 0xa8, 0x00, 0x00, 0x00,
  0x04, 0x00, 0x00, 0x00, 0xff, 0xff, 0xff, 0xff, 0x18, 0x00, 0x00, 0x00,
  0x18, 0x00, 0x00, 0x00, 0x06, 0x00, 0x00, 0x00, 0x0c, 0xfa, 0xff, 0xff,
  0x08, 0x00, 0x00, 0x00, 0x10, 0x00, 0x00, 0x00, 0x01, 0x00, 0x00, 0x00,
  0x80, 0xff, 0xff, 0xff, 0xff, 0xff, 0xff, 0xff, 0x01, 0x00, 0x00, 0x00,
  0x5e, 0xb3, 0x39, 0x3d, 0x68, 0x00, 0x00, 0x00, 0x73, 0x65, 0x71, 0x75,
  0x65, 0x6e, 0x74, 0x69, 0x61, 0x6c, 0x5f, 0x33, 0x5f, 0x31, 0x2f, 0x63,
  0x6f, 0x6e, 0x76, 0x32, 0x64, 0x5f, 0x35, 0x5f, 0x31, 0x2f, 0x52, 0x65,
  0x6c, 0x75, 0x3b, 0x73, 0x65, 0x71, 0x75, 0x65, 0x6e, 0x74, 0x69, 0x61,
  0x6c, 0x5f, 0x33, 0x5f, 0x31, 0x2f, 0x63, 0x6f, 0x6e, 0x76, 0x32, 0x64,
  0x5f, 0x35, 0x5f, 0x31, 0x2f, 0x42, 0x69, 0x61, 0x73, 0x41, 0x64, 0x64,
  0x3b, 0x73, 0x65, 0x71, 0x75, 0x65, 0x6e, 0x74, 0x69, 0x61, 0x6c, 0x5f,
  0x33, 0x5f, 0x31, 0x2f, 0x63, 0x6f, 0x6e, 0x76, 0x32, 0x64, 0x5f, 0x35,
  0x5f, 0x31, 0x2f, 0x63, 0x6f, 0x6e, 0x76, 0x6f, 0x6c, 0x75, 0x74, 0x69,
  0x6f, 0x6e, 0x3b, 0x31, 0x00, 0x00, 0x00, 0x00, 0x04, 0x00, 0x00, 0x00,
  0x01, 0x00, 0x00, 0x00, 0x18, 0x00, 0x00, 0x00, 0x18, 0x00, 0x00, 0x00,
  0x06, 0x00, 0x00, 0x00, 0x52, 0xfb, 0xff, 0xff, 0x00, 0x00, 0x00, 0x01,
  0x14, 0x00, 0x00, 0x00, 0x70, 0x00, 0x00, 0x00, 0x08, 0x00, 0x00, 0x00,
  0x00, 0x00, 0x00, 0x09, 0x7c, 0x00, 0x00, 0x00, 0xcc, 0xfa, 0xff, 0xff,
  0x08, 0x00, 0x00, 0x00, 0x3c, 0x00, 0x00, 0x00, 0x06, 0x00, 0x00, 0x00,
  0x00, 0x00, 0x00, 0x00, 0x00, 0x00, 0x00, 0x00, 0x00, 0x00, 0x00, 0x00,
  0x00, 0x00, 0x00, 0x00, 0x00, 0x00, 0x00, 0x00, 0x00, 0x00, 0x00, 0x00,
  0x00, 0x00, 0x00, 0x00, 0x00, 0x00, 0x00, 0x00, 0x00, 0x00, 0x00, 0x00,
  0x00, 0x00, 0x00, 0x00, 0x00, 0x00, 0x00, 0x00, 0x00, 0x00, 0x00, 0x00,
  0x00, 0x00, 0x00, 0x00, 0x06, 0x00, 0x00, 0x00, 0x12, 0xe1, 0xf3, 0x3b,
  0xa7, 0x8e, 0xf2, 0x3b, 0xee, 0x89, 0xd7, 0x3b, 0x5c, 0x75, 0xaa, 0x3b,
  0xe5, 0x00, 0xdb, 0x3b, 0x37, 0xb9, 0xf4, 0x3b, 0x12, 0x00, 0x00, 0x00,
  0x74, 0x66, 0x6c, 0x2e, 0x70, 0x73, 0x65, 0x75, 0x64, 0x6f, 0x5f, 0x71,
  0x63, 0x6f, 0x6e, 0x73, 0x74, 0x35, 0x00, 0x00, 0x04, 0x00, 0x00, 0x00,
  0x06, 0x00, 0x00, 0x00, 0x05, 0x00, 0x00, 0x00, 0x05, 0x00, 0x00, 0x00,
  0x01, 0x00, 0x00, 0x00, 0xfa, 0xfb, 0xff, 0xff, 0x00, 0x00, 0x00, 0x01,
  0x14, 0x00, 0x00, 0x00, 0x6c, 0x00, 0x00, 0x00, 0x07, 0x00, 0x00, 0x00,
  0x00, 0x00, 0x00, 0x02, 0x78, 0x00, 0x00, 0x00, 0x74, 0xfb, 0xff, 0xff,
  0x08, 0x00, 0x00, 0x00, 0x38, 0x00, 0x00, 0x00, 0x06, 0x00, 0x00, 0x00,
  0x00, 0x00, 0x00, 0x00, 0x00, 0x00, 0x00, 0x00, 0x00, 0x00, 0x00, 0x00,
  0x00, 0x00, 0x00, 0x00, 0x00, 0x00, 0x00, 0x00, 0x00, 0x00, 0x00, 0x00,
  0x00, 0x00, 0x00, 0x00, 0x00, 0x00, 0x00, 0x00, 0x00, 0x00, 0x00, 0x00,
  0x00, 0x00, 0x00, 0x00, 0x00, 0x00, 0x00, 0x00, 0x00, 0x00, 0x00, 0x00,
  0x06, 0x00, 0x00, 0x00, 0xe9, 0xd5, 0xf4, 0x37, 0x2a, 0x82, 0xf3, 0x37,
  0x51, 0x62, 0xd8, 0x37, 0x7d, 0x20, 0xab, 0x37, 0xc3, 0xdc, 0xdb, 0x37,
  0xe7, 0xae, 0xf5, 0x37, 0x12, 0x00, 0x00, 0x00, 0x74, 0x66, 0x6c, 0x2e,
  0x70, 0x73, 0x65, 0x75, 0x64, 0x6f, 0x5f, 0x71, 0x63, 0x6f, 0x6e, 0x73,
  0x74, 0x34, 0x00, 0x00, 0x01, 0x00, 0x00, 0x00, 0x06, 0x00, 0x00, 0x00,
  0x92, 0xfc, 0xff, 0xff, 0x00, 0x00, 0x00, 0x01, 0x14, 0x00, 0x00, 0x00,
  0xb8, 0x00, 0x00, 0x00, 0x06, 0x00, 0x00, 0x00, 0x00, 0x00, 0x00, 0x09,
  0xc4, 0x00, 0x00, 0x00, 0x0c, 0xfc, 0xff, 0xff, 0x08, 0x00, 0x00, 0x00,
  0x6c, 0x00, 0x00, 0x00, 0x0c, 0x00, 0x00, 0x00, 0x00, 0x00, 0x00, 0x00,
  0x00, 0x00, 0x00, 0x00, 0x00, 0x00, 0x00, 0x00, 0x00, 0x00, 0x00, 0x00,
  0x00, 0x00, 0x00, 0x00, 0x00, 0x00, 0x00, 0x00, 0x00, 0x00, 0x00, 0x00,
  0x00, 0x00, 0x00, 0x00, 0x00, 0x00, 0x00, 0x00, 0x00, 0x00, 0x00, 0x00,
  0x00, 0x00, 0x00, 0x00, 0x00, 0x00, 0x00, 0x00, 0x00, 0x00, 0x00, 0x00,
  0x00, 0x00, 0x00, 0x00, 0x00, 0x00, 0x00, 0x00, 0x00, 0x00, 0x00, 0x00,
  0x00, 0x00, 0x00, 0x00, 0x00, 0x00, 0x00, 0x00, 0x00, 0x00, 0x00, 0x00,
  0x00, 0x00, 0x00, 0x00, 0x00, 0x00, 0x00, 0x00, 0x00, 0x00, 0x00, 0x00,
  0x00, 0x00, 0x00, 0x00, 0x00, 0x00, 0x00, 0x00, 0x00, 0x00, 0x00, 0x00,
  0x0c, 0x00, 0x00, 0x00, 0x82, 0xa1, 0xcd, 0x3b, 0x3a, 0x40, 0x50, 0x3b,
  0x06, 0x45, 0x1b, 0x3c, 0xce, 0x84, 0xf6, 0x3b, 0xa3, 0x38, 0xc1, 0x3b,
  0x82, 0xc2, 0x89, 0x3a, 0x90, 0x6d, 0xb6, 0x3b, 0x97, 0x24, 0xa3, 0x3b,
  0x71, 0xec, 0xfc, 0x3b, 0x64, 0x07, 0xce, 0x3b, 0x62, 0xf4, 0xd6, 0x3b,
  0xb1, 0x8b, 0xe8, 0x3b, 0x12, 0x00, 0x00, 0x00, 0x74, 0x66, 0x6c, 0x2e,
  0x70, 0x73, 0x65, 0x75, 0x64, 0x6f, 0x5f, 0x71, 0x63, 0x6f, 0x6e, 0x73,
  0x74, 0x33, 0x00, 0x00, 0x04, 0x00, 0x00, 0x00, 0x0c, 0x00, 0x00, 0x00,
  0x05, 0x00, 0x00, 0x00, 0x05, 0x00, 0x00, 0x00, 0x06, 0x00, 0x00, 0x00,
  0x82, 0xfd, 0xff, 0xff, 0x00, 0x00, 0x00, 0x01, 0x14, 0x00, 0x00, 0x00,
  0xb4, 0x00, 0x00, 0x00, 0x05, 0x00, 0x00, 0x00, 0x00, 0x00, 0x00, 0x02,
  0xc0, 0x00, 0x00, 0x00, 0xfc, 0xfc, 0xff, 0xff, 0x08, 0x00, 0x00, 0x00,
  0x68, 0x00, 0x00, 0x00, 0x0c, 0x00, 0x00, 0x00, 0x00, 0x00, 0x00, 0x00,
  0x00, 0x00, 0x00, 0x00, 0x00, 0x00, 0x00, 0x00, 0x00, 0x00, 0x00, 0x00,
  0x00, 0x00, 0x00, 0x00, 0x00, 0x00, 0x00, 0x00, 0x00, 0x00, 0x00, 0x00,
  0x00, 0x00, 0x00, 0x00, 0x00, 0x00, 0x00, 0x00, 0x00, 0x00, 0x00, 0x00,
  0x00, 0x00, 0x00, 0x00, 0x00, 0x00, 0x00, 0x00, 0x00, 0x00, 0x00, 0x00,
  0x00, 0x00, 0x00, 0x00, 0x00, 0x00, 0x00, 0x00, 0x00, 0x00, 0x00, 0x00,
  0x00, 0x00, 0x00, 0x00, 0x00, 0x00, 0x00, 0x00, 0x00, 0x00, 0x00, 0x00,
  0x00, 0x00, 0x00, 0x00, 0x00, 0x00, 0x00, 0x00, 0x00, 0x00, 0x00, 0x00,
  0x00, 0x00, 0x00, 0x00, 0x00, 0x00, 0x00, 0x00, 0x0c, 0x00, 0x00, 0x00,
  0xca, 0x29, 0x95, 0x39, 0x53, 0x10, 0x17, 0x39, 0x57, 0x43, 0xe1, 0x39,
  0xb2, 0xd2, 0xb2, 0x39, 0x4f, 0x29, 0x8c, 0x39, 0x2b, 0xdc, 0x47, 0x38,
  0xff, 0x54, 0x84, 0x39, 0x7f, 0xaf, 0x6c, 0x39, 0x14, 0x78, 0xb7, 0x39,
  0xb2, 0x73, 0x95, 0x39, 0x37, 0xed, 0x9b, 0x39, 0xe2, 0xaf, 0xa8, 0x39,
  0x12, 0x00, 0x00, 0x00, 0x74, 0x66, 0x6c, 0x2e, 0x70, 0x73, 0x65, 0x75,
  0x64, 0x6f, 0x5f, 0x71, 0x63, 0x6f, 0x6e, 0x73, 0x74, 0x32, 0x00, 0x00,
  0x01, 0x00, 0x00, 0x00, 0x0c, 0x00, 0x00, 0x00, 0x62, 0xfe, 0xff, 0xff,
  0x00, 0x00, 0x00, 0x01, 0x14, 0x00, 0x00, 0x00, 0xa0, 0x00, 0x00, 0x00,
  0x04, 0x00, 0x00, 0x00, 0x00, 0x00, 0x00, 0x09, 0xac, 0x00, 0x00, 0x00,
  0xdc, 0xfd, 0xff, 0xff, 0x08, 0x00, 0x00, 0x00, 0x5c, 0x00, 0x00, 0x00,
  0x0a, 0x00, 0x00, 0x00, 0x00, 0x00, 0x00, 0x00, 0x00, 0x00, 0x00, 0x00,
  0x00, 0x00, 0x00, 0x00, 0x00, 0x00, 0x00, 0x00, 0x00, 0x00, 0x00, 0x00,
  0x00, 0x00, 0x00, 0x00, 0x00, 0x00, 0x00, 0x00, 0x00, 0x00, 0x00, 0x00,
  0x00, 0x00, 0x00, 0x00, 0x00, 0x00, 0x00, 0x00, 0x00, 0x00, 0x00, 0x00,
  0x00, 0x00, 0x00, 0x00, 0x00, 0x00, 0x00, 0x00, 0x00, 0x00, 0x00, 0x00,
  0x00, 0x00, 0x00, 0x00, 0x00, 0x00, 0x00, 0x00, 0x00, 0x00, 0x00, 0x00,
  0x00, 0x00, 0x00, 0x00, 0x00, 0x00, 0x00, 0x00, 0x00, 0x00, 0x00, 0x00,
  0x00, 0x00, 0x00, 0x00, 0x0a, 0x00, 0x00, 0x00, 0xb8, 0x03, 0x0b, 0x3c,
  0xf5, 0x85, 0xa4, 0x3b, 0xe4, 0xdc, 0xe6, 0x3b, 0x31, 0xf0, 0x13, 0x3c,
  0x1f, 0x6a, 0x04, 0x3c, 0x94, 0x0e, 0xb7, 0x3b, 0x8d, 0xa6, 0x3f, 0x3c,
  0x15, 0x94, 0x00, 0x3c, 0x82, 0x93, 0xe5, 0x3b, 0x01, 0x69, 0xe7, 0x3b,
  0x12, 0x00, 0x00, 0x00, 0x74, 0x66, 0x6c, 0x2e, 0x70, 0x73, 0x65, 0x75,
  0x64, 0x6f, 0x5f, 0x71, 0x63, 0x6f, 0x6e, 0x73, 0x74, 0x31, 0x00, 0x00,
  0x02, 0x00, 0x00, 0x00, 0x0a, 0x00, 0x00, 0x00, 0x0c, 0x00, 0x00, 0x00,
  0x32, 0xff, 0xff, 0xff, 0x00, 0x00, 0x00, 0x01, 0x14, 0x00, 0x00, 0x00,
  0xa0, 0x00, 0x00, 0x00, 0x03, 0x00, 0x00, 0x00, 0x00, 0x00, 0x00, 0x02,
  0xac, 0x00, 0x00, 0x00, 0xac, 0xfe, 0xff, 0xff, 0x08, 0x00, 0x00, 0x00,
  0x5c, 0x00, 0x00, 0x00, 0x0a, 0x00, 0x00, 0x00, 0x00, 0x00, 0x00, 0x00,
  0x00, 0x00, 0x00, 0x00, 0x00, 0x00, 0x00, 0x00, 0x00, 0x00, 0x00, 0x00,
  0x00, 0x00, 0x00, 0x00, 0x00, 0x00, 0x00, 0x00, 0x00, 0x00, 0x00, 0x00,
  0x00, 0x00, 0x00, 0x00, 0x00, 0x00, 0x00, 0x00, 0x00, 0x00, 0x00, 0x00,
  0x00, 0x00, 0x00, 0x00, 0x00, 0x00, 0x00, 0x00, 0x00, 0x00, 0x00, 0x00,
  0x00, 0x00, 0x00, 0x00, 0x00, 0x00, 0x00, 0x00, 0x00, 0x00, 0x00, 0x00,
  0x00, 0x00, 0x00, 0x00, 0x00, 0x00, 0x00, 0x00, 0x00, 0x00, 0x00, 0x00,
  0x00, 0x00, 0x00, 0x00, 0x00, 0x00, 0x00, 0x00, 0x0a, 0x00, 0x00, 0x00,
  0x4f, 0x6e, 0x9b, 0x3a, 0xb5, 0xf3, 0x37, 0x3a, 0x16, 0x10, 0x81, 0x3a,
  0x8e, 0x68, 0xa5, 0x3a, 0x2f, 0x0d, 0x94, 0x3a, 0xa0, 0xac, 0x4c, 0x3a,
  0x65, 0x48, 0xd6, 0x3a, 0x2d, 0xc3, 0x8f, 0x3a, 0xf2, 0x57, 0x80, 0x3a,
  0x6b, 0x5e, 0x81, 0x3a, 0x11, 0x00, 0x00, 0x00, 0x74, 0x66, 0x6c, 0x2e,
  0x70, 0x73, 0x65, 0x75, 0x64, 0x6f, 0x5f, 0x71, 0x63, 0x6f, 0x6e, 0x73,
  0x74, 0x00, 0x00, 0x00, 0x01, 0x00, 0x00, 0x00, 0x0a, 0x00, 0x00, 0x00,
  0x00, 0x00, 0x16, 0x00, 0x1c, 0x00, 0x18, 0x00, 0x17, 0x00, 0x10, 0x00,
  0x0c, 0x00, 0x08, 0x00, 0x00, 0x00, 0x00, 0x00, 0x00, 0x00, 0x07, 0x00,
  0x16, 0x00, 0x00, 0x00, 0x00, 0x00, 0x00, 0x01, 0x18, 0x00, 0x00, 0x00,
  0x18, 0x00, 0x00, 0x00, 0x02, 0x00, 0x00, 0x00, 0x00, 0x00, 0x00, 0x02,
  0x20, 0x00, 0x00, 0x00, 0x04, 0x00, 0x04, 0x00, 0x04, 0x00, 0x00, 0x00,
  0x0e, 0x00, 0x00, 0x00, 0x61, 0x72, 0x69, 0x74, 0x68, 0x2e, 0x63, 0x6f,
  0x6e, 0x73, 0x74, 0x61, 0x6e, 0x74, 0x00, 0x00, 0x01, 0x00, 0x00, 0x00,
  0x02, 0x00, 0x00, 0x00, 0x00, 0x00, 0x16, 0x00, 0x20, 0x00, 0x1c, 0x00,
  0x1b, 0x00, 0x14, 0x00, 0x10, 0x00, 0x0c, 0x00, 0x00, 0x00, 0x00, 0x00,
  0x08, 0x00, 0x07, 0x00, 0x16, 0x00, 0x00, 0x00, 0x00, 0x00, 0x00, 0x01,
  0x18, 0x00, 0x00, 0x00, 0x34, 0x00, 0x00, 0x00, 0x50, 0x00, 0x00, 0x00,
  0x01, 0x00, 0x00, 0x00, 0x00, 0x00, 0x00, 0x09, 0x6c, 0x00, 0x00, 0x00,
  0x04, 0x00, 0x00, 0x00, 0xff, 0xff, 0xff, 0xff, 0x1c, 0x00, 0x00, 0x00,
  0x1c, 0x00, 0x00, 0x00, 0x01, 0x00, 0x00, 0x00, 0x0c, 0x00, 0x0c, 0x00,
  0x00, 0x00, 0x00, 0x00, 0x08, 0x00, 0x04, 0x00, 0x0c, 0x00, 0x00, 0x00,
  0x08, 0x00, 0x00, 0x00, 0x10, 0x00, 0x00, 0x00, 0x01, 0x00, 0x00, 0x00,
  0x80, 0xff, 0xff, 0xff, 0xff, 0xff, 0xff, 0xff, 0x01, 0x00, 0x00, 0x00,
  0x81, 0x80, 0x80, 0x3b, 0x21, 0x00, 0x00, 0x00, 0x73, 0x65, 0x72, 0x76,
  0x69, 0x6e, 0x67, 0x5f, 0x64, 0x65, 0x66, 0x61, 0x75, 0x6c, 0x74, 0x5f,
  0x6b, 0x65, 0x72, 0x61, 0x73, 0x5f, 0x74, 0x65, 0x6e, 0x73, 0x6f, 0x72,
  0x5f, 0x31, 0x37, 0x3a, 0x30, 0x00, 0x00, 0x00, 0x04, 0x00, 0x00, 0x00,
  0x01, 0x00, 0x00, 0x00, 0x1c, 0x00, 0x00, 0x00, 0x1c, 0x00, 0x00, 0x00,
  0x01, 0x00, 0x00, 0x00, 0x05, 0x00, 0x00, 0x00, 0x60, 0x00, 0x00, 0x00,
  0x40, 0x00, 0x00, 0x00, 0x2c, 0x00, 0x00, 0x00, 0x18, 0x00, 0x00, 0x00,
  0x04, 0x00, 0x00, 0x00, 0xc0, 0xff, 0xff, 0xff, 0x19, 0x00, 0x00, 0x00,
  0x02, 0x00, 0x00, 0x00, 0x00, 0x00, 0x00, 0x19, 0xd0, 0xff, 0xff, 0xff,
  0x09, 0x00, 0x00, 0x00, 0x04, 0x00, 0x00, 0x00, 0x00, 0x00, 0x00, 0x09,
  0xe0, 0xff, 0xff, 0xff, 0x28, 0x00, 0x00, 0x00, 0x02, 0x00, 0x00, 0x00,
  0x00, 0x00, 0x00, 0x28, 0xf0, 0xff, 0xff, 0xff, 0x11, 0x00, 0x00, 0x00,
  0x02, 0x00, 0x00, 0x00, 0x00, 0x00, 0x00, 0x11, 0x0c, 0x00, 0x10, 0x00,
  0x0f, 0x00, 0x00, 0x00, 0x08, 0x00, 0x04, 0x00, 0x0c, 0x00, 0x00, 0x00,
  0x03, 0x00, 0x00, 0x00, 0x03, 0x00, 0x00, 0x00, 0x00, 0x00, 0x00, 0x03
};
unsigned int mnist_cnn_small_int8_tflite_len = 6048;
