unsigned char modelo_seno_tflite[] = {
  0x20, 0x00, 0x00, 0x00, 0x54, 0x46, 0x4c, 0x33, 0x00, 0x00, 0x00, 0x00,
  0x14, 0x00, 0x20, 0x00, 0x1c, 0x00, 0x18, 0x00, 0x14, 0x00, 0x10, 0x00,
  0x0c, 0x00, 0x00, 0x00, 0x08, 0x00, 0x04, 0x00, 0x14, 0x00, 0x00, 0x00,
  0x1c, 0x00, 0x00, 0x00, 0x8c, 0x00, 0x00, 0x00, 0xe4, 0x00, 0x00, 0x00,
  0xfc, 0x0e, 0x00, 0x00, 0x0c, 0x0f, 0x00, 0x00, 0x18, 0x17, 0x00, 0x00,
  0x03, 0x00, 0x00, 0x00, 0x01, 0x00, 0x00, 0x00, 0x04, 0x00, 0x00, 0x00,
  0x22, 0xf0, 0xff, 0xff, 0x0c, 0x00, 0x00, 0x00, 0x1c, 0x00, 0x00, 0x00,
  0x3c, 0x00, 0x00, 0x00, 0x0f, 0x00, 0x00, 0x00, 0x73, 0x65, 0x72, 0x76,
  0x69, 0x6e, 0x67, 0x5f, 0x64, 0x65, 0x66, 0x61, 0x75, 0x6c, 0x74, 0x00,
  0x01, 0x00, 0x00, 0x00, 0x04, 0x00, 0x00, 0x00, 0x90, 0xff, 0xff, 0xff,
  0x0b, 0x00, 0x00, 0x00, 0x04, 0x00, 0x00, 0x00, 0x08, 0x00, 0x00, 0x00,
  0x6f, 0x75, 0x74, 0x70, 0x75, 0x74, 0x5f, 0x30, 0x00, 0x00, 0x00, 0x00,
  0x01, 0x00, 0x00, 0x00, 0x04, 0x00, 0x00, 0x00, 0x4e, 0xf2, 0xff, 0xff,
  0x04, 0x00, 0x00, 0x00, 0x0c, 0x00, 0x00, 0x00, 0x6b, 0x65, 0x72, 0x61,
  0x73, 0x5f, 0x74, 0x65, 0x6e, 0x73, 0x6f, 0x72, 0x00, 0x00, 0x00, 0x00,
  0x02, 0x00, 0x00, 0x00, 0x34, 0x00, 0x00, 0x00, 0x04, 0x00, 0x00, 0x00,
  0xdc, 0xff, 0xff, 0xff, 0x0e, 0x00, 0x00, 0x00, 0x04, 0x00, 0x00, 0x00,
  0x13, 0x00, 0x00, 0x00, 0x43, 0x4f, 0x4e, 0x56, 0x45, 0x52, 0x53, 0x49,
  0x4f, 0x4e, 0x5f, 0x4d, 0x45, 0x54, 0x41, 0x44, 0x41, 0x54, 0x41, 0x00,
  0x08, 0x00, 0x0c, 0x00, 0x08, 0x00, 0x04, 0x00, 0x08, 0x00, 0x00, 0x00,
  0x0d, 0x00, 0x00, 0x00, 0x04, 0x00, 0x00, 0x00, 0x13, 0x00, 0x00, 0x00,
  0x6d, 0x69, 0x6e, 0x5f, 0x72, 0x75, 0x6e, 0x74, 0x69, 0x6d, 0x65, 0x5f,
  0x76, 0x65, 0x72, 0x73, 0x69, 0x6f, 0x6e, 0x00, 0x0f, 0x00, 0x00, 0x00,
  0x14, 0x0e, 0x00, 0x00, 0x0c, 0x0e, 0x00, 0x00, 0x34, 0x0d, 0x00, 0x00,
  0x54, 0x0c, 0x00, 0x00, 0x7c, 0x0b, 0x00, 0x00, 0x68, 0x0b, 0x00, 0x00,
  0x90, 0x0a, 0x00, 0x00, 0xbc, 0x00, 0x00, 0x00, 0xb4, 0x00, 0x00, 0x00,
  0xac, 0x00, 0x00, 0x00, 0xa4, 0x00, 0x00, 0x00, 0x9c, 0x00, 0x00, 0x00,
  0x94, 0x00, 0x00, 0x00, 0x74, 0x00, 0x00, 0x00, 0x04, 0x00, 0x00, 0x00,
  0x06, 0xf3, 0xff, 0xff, 0x04, 0x00, 0x00, 0x00, 0x60, 0x00, 0x00, 0x00,
  0x0c, 0x00, 0x00, 0x00, 0x08, 0x00, 0x0e, 0x00, 0x08, 0x00, 0x04, 0x00,
  0x08, 0x00, 0x00, 0x00, 0x10, 0x00, 0x00, 0x00, 0x28, 0x00, 0x00, 0x00,
  0x00, 0x00, 0x06, 0x00, 0x08, 0x00, 0x04, 0x00, 0x06, 0x00, 0x00, 0x00,
  0x04, 0x00, 0x00, 0x00, 0x01, 0x00, 0x00, 0x00, 0xea, 0x03, 0x00, 0x00,
  0x0c, 0x00, 0x18, 0x00, 0x14, 0x00, 0x10, 0x00, 0x0c, 0x00, 0x04, 0x00,
  0x0c, 0x00, 0x00, 0x00, 0x7b, 0xff, 0xec, 0xf2, 0x05, 0xf7, 0xea, 0x18,
  0x02, 0x00, 0x00, 0x00, 0x02, 0x00, 0x00, 0x00, 0x04, 0x00, 0x00, 0x00,
  0x06, 0x00, 0x00, 0x00, 0x32, 0x2e, 0x31, 0x38, 0x2e, 0x30, 0x00, 0x00,
  0x72, 0xf3, 0xff, 0xff, 0x04, 0x00, 0x00, 0x00, 0x10, 0x00, 0x00, 0x00,
  0x32, 0x2e, 0x31, 0x37, 0x2e, 0x30, 0x00, 0x00, 0x00, 0x00, 0x00, 0x00,
  0x00, 0x00, 0x00, 0x00, 0xc0, 0xea, 0xff, 0xff, 0xc4, 0xea, 0xff, 0xff,
  0xc8, 0xea, 0xff, 0xff, 0xcc, 0xea, 0xff, 0xff, 0xd0, 0xea, 0xff, 0xff,
  0xa2, 0xf3, 0xff, 0xff, 0x04, 0x00, 0x00, 0x00, 0xc4, 0x09, 0x00, 0x00,
  0x1f, 0x35, 0x39, 0xb0, 0x19, 0x95, 0xd5, 0x81, 0x28, 0x10, 0x06, 0x62,
  0xc2, 0x0a, 0xd2, 0xce, 0xc9, 0xc4, 0x1e, 0xf7, 0x44, 0xca, 0x3f, 0xf5,
  0x35, 0x0a, 0xf1, 0x04, 0x53, 0xdc, 0x32, 0xfc, 0xf1, 0xd9, 0x11, 0xe2,
  0xf8, 0x03, 0x50, 0xe2, 0x68, 0xf5, 0x9a, 0x05, 0x8b, 0x0d, 0x4c, 0x4b,
  0x02, 0x20, 0x00, 0xdd, 0xc5, 0x24, 0x0f, 0x07, 0x1c, 0x7f, 0xdf, 0xda,
  0x09, 0xc1, 0xcf, 0xac, 0xec, 0x32, 0x72, 0x0f, 0xd7, 0x1f, 0xb0, 0x54,
  0xbe, 0x2e, 0xc5, 0x63, 0xbf, 0x02, 0x11, 0x3f, 0x15, 0x3d, 0x12, 0x21,
  0x53, 0xd4, 0x04, 0x98, 0x93, 0x42, 0x05, 0xe8, 0xd8, 0xe5, 0x6f, 0xfc,
  0xf3, 0xf8, 0x00, 0xb0, 0xdf, 0xf2, 0x9e, 0x3e, 0xaf, 0x3e, 0x68, 0x0a,
  0xe2, 0xe7, 0xe0, 0x55, 0xaf, 0xa0, 0x09, 0x49, 0xf5, 0xe4, 0xa0, 0xd3,
  0x8c, 0x55, 0xe4, 0xdb, 0x27, 0xd7, 0x03, 0x17, 0xa9, 0xf7, 0x03, 0xc3,
  0xc1, 0xda, 0x51, 0x4f, 0x05, 0x1e, 0x4f, 0xd0, 0x9e, 0x5e, 0x2c, 0x81,
  0x09, 0xc8, 0x43, 0xbb, 0x5c, 0xda, 0xc5, 0x0c, 0xec, 0xb9, 0x42, 0x0f,
  0xdb, 0x87, 0x31, 0x03, 0x07, 0x1f, 0x58, 0xba, 0x62, 0x3e, 0x15, 0xb8,
  0x45, 0x19, 0x61, 0x2a, 0x29, 0xc7, 0x3c, 0x1e, 0x32, 0xab, 0x0a, 0x50,
  0xef, 0x96, 0x04, 0xdb, 0xca, 0x52, 0xd0, 0x7f, 0x3f, 0xaf, 0x3a, 0xa1,
  0xa9, 0xf5, 0xb9, 0x29, 0x45, 0xef, 0x1a, 0xca, 0x45, 0xde, 0xf6, 0x0d,
  0xdf, 0x00, 0x6c, 0x5c, 0xa8, 0xdb, 0x69, 0x48, 0x4f, 0xa7, 0x90, 0xcb,
  0x52, 0x21, 0x14, 0x1f, 0x3b, 0x1d, 0x9e, 0x70, 0xdf, 0x3c, 0xc4, 0x5e,
  0x81, 0x91, 0xe1, 0x6f, 0x23, 0x67, 0x0c, 0x31, 0xce, 0xde, 0xe0, 0x2f,
  0xbb, 0xa9, 0x57, 0x07, 0x14, 0x4f, 0x0d, 0xee, 0x14, 0x14, 0x2a, 0xc3,
  0xfc, 0x23, 0x3e, 0x81, 0x9d, 0xe7, 0x2a, 0x7e, 0xa5, 0x5f, 0xe5, 0x51,
  0x1a, 0x39, 0xba, 0xc0, 0xf1, 0x6a, 0x17, 0xc0, 0xbf, 0x3a, 0xab, 0x3b,
  0x71, 0x50, 0xf9, 0xfd, 0xe5, 0x4b, 0xa0, 0x0c, 0xaf, 0x0f, 0x6c, 0x0c,
  0x08, 0x07, 0x3d, 0x17, 0xf8, 0x40, 0xfe, 0x9e, 0x46, 0x05, 0x55, 0xf6,
  0x63, 0xd1, 0x19, 0x65, 0xaf, 0x3a, 0xa9, 0x02, 0xd1, 0xb5, 0x4b, 0xbf,
  0xd0, 0x0c, 0x45, 0xbd, 0x37, 0xee, 0x13, 0xe1, 0xe8, 0x57, 0xb9, 0x14,
  0xd4, 0xdd, 0x43, 0xb6, 0xb2, 0xc0, 0x04, 0x50, 0x0c, 0x18, 0xe0, 0x48,
  0x93, 0x81, 0xb6, 0x52, 0x01, 0xf6, 0x2f, 0xfe, 0x04, 0xf5, 0xd5, 0x9f,
  0x41, 0x9c, 0xe5, 0x60, 0x9a, 0x39, 0x43, 0x3f, 0x27, 0x7f, 0x3e, 0xed,
  0x22, 0x88, 0x65, 0xed, 0x18, 0x60, 0x5b, 0x7a, 0xf4, 0x50, 0xd6, 0x50,
  0xc3, 0x5f, 0x39, 0xfa, 0xd0, 0x3a, 0xcd, 0xb5, 0xa9, 0x2f, 0x16, 0xe8,
  0x34, 0xda, 0x00, 0x9c, 0xc6, 0xf4, 0x96, 0xc4, 0x6d, 0x8a, 0x66, 0xdd,
  0x4a, 0x4e, 0xd9, 0x0a, 0xd6, 0xb5, 0x4b, 0xbd, 0xe9, 0x07, 0x02, 0xf8,
  0x03, 0xfd, 0xe1, 0x0a, 0x39, 0xd8, 0x3f, 0xc2, 0x81, 0xd9, 0x3c, 0xdb,
  0xf4, 0xeb, 0x4c, 0x35, 0x19, 0xf7, 0x4a, 0xe1, 0x0e, 0x56, 0xe8, 0xe7,
  0x14, 0x1e, 0xb1, 0xe4, 0x39, 0x47, 0xf7, 0x26, 0x19, 0xda, 0x35, 0x15,
  0xb8, 0x39, 0xdc, 0xb3, 0x1a, 0xfc, 0x20, 0xc7, 0xe0, 0x68, 0xc2, 0x3f,
  0xc3, 0x7f, 0xd7, 0xed, 0x02, 0xb5, 0xec, 0xfa, 0xb3, 0x2b, 0x79, 0x12,
  0x21, 0x0f, 0xa4, 0x34, 0xb3, 0x3a, 0xc6, 0x12, 0xba, 0x07, 0xa8, 0xc7,
  0xc6, 0x26, 0x06, 0x53, 0xeb, 0xf8, 0xe3, 0xdd, 0xa0, 0x29, 0xde, 0xfe,
  0x0d, 0xa0, 0x5e, 0x06, 0xb9, 0x00, 0xc9, 0xdb, 0x23, 0x0c, 0xd5, 0x1a,
  0x33, 0x6a, 0xbf, 0xd1, 0xbd, 0x89, 0xfb, 0x95, 0x6c, 0x59, 0xc3, 0x7f,
  0x79, 0xd2, 0xd8, 0xf6, 0xa4, 0xfd, 0x3f, 0x26, 0xb0, 0xd2, 0x11, 0x68,
  0xbf, 0x5e, 0x30, 0x0f, 0x9e, 0x26, 0x0b, 0xe2, 0x90, 0x09, 0xe2, 0xae,
  0x37, 0x2f, 0xbc, 0x35, 0x79, 0x07, 0x5b, 0xa6, 0x2d, 0xe2, 0xde, 0x47,
  0x34, 0xbc, 0x5c, 0xc6, 0xdd, 0xca, 0xb0, 0x60, 0xae, 0xf9, 0xe6, 0x6e,
  0x1c, 0x9e, 0xea, 0x5c, 0xb2, 0xf3, 0xf6, 0xd0, 0x43, 0xdb, 0x3b, 0x1e,
  0xc0, 0xce, 0xc3, 0xea, 0x15, 0xc2, 0x89, 0x5b, 0xcf, 0xf9, 0x6c, 0x13,
  0xc6, 0x62, 0x1e, 0xf1, 0x81, 0x72, 0x97, 0x9f, 0x71, 0x9e, 0xa4, 0xed,
  0x46, 0xef, 0xc7, 0x3f, 0xd7, 0x02, 0xe9, 0x54, 0xe5, 0xdb, 0x30, 0xfb,
  0xcd, 0xbc, 0x10, 0x3b, 0x1a, 0x29, 0xf7, 0x0c, 0xfd, 0x67, 0xad, 0x7d,
  0x09, 0x2a, 0xaf, 0x17, 0xb1, 0xd2, 0xd7, 0x60, 0x2b, 0x2d, 0x5e, 0xfe,
  0x81, 0x99, 0xed, 0xdb, 0x98, 0x3a, 0x5d, 0xc4, 0x40, 0x59, 0xf9, 0xa9,
  0x10, 0xc9, 0xfa, 0x7f, 0x49, 0x96, 0xd2, 0x92, 0xf8, 0xa7, 0xf6, 0x79,
  0x91, 0x42, 0x1f, 0x20, 0x4e, 0xcf, 0x97, 0xec, 0x27, 0x15, 0x1c, 0x0a,
  0x29, 0xee, 0x14, 0x1c, 0x52, 0xe3, 0x2e, 0x08, 0xe5, 0xd3, 0xee, 0xd5,
  0xd6, 0xef, 0x09, 0x47, 0x2a, 0x20, 0x60, 0xdb, 0xcd, 0x4e, 0xb0, 0x08,
  0x4b, 0x24, 0x54, 0x1b, 0x52, 0xbe, 0xd6, 0x00, 0xdc, 0x4b, 0x16, 0xe5,
  0x47, 0x19, 0x50, 0x32, 0x22, 0x02, 0xc2, 0xdb, 0x7f, 0x0f, 0x16, 0xda,
  0xcf, 0x23, 0x98, 0x59, 0x99, 0x62, 0x10, 0x06, 0x27, 0xd0, 0xf9, 0x2a,
  0xf5, 0xcb, 0x4b, 0xff, 0xc3, 0xce, 0x93, 0xf4, 0x23, 0xcf, 0xf8, 0xed,
  0x1c, 0x37, 0xb6, 0xcc, 0x9d, 0xf5, 0xca, 0xf9, 0xd3, 0xf3, 0x4f, 0xf4,
  0x44, 0x90, 0xd8, 0x14, 0x81, 0x29, 0x1e, 0xf7, 0xaa, 0xba, 0x07, 0x1d,
  0xfc, 0xca, 0x60, 0xec, 0xfe, 0xef, 0x4f, 0x07, 0x65, 0x1d, 0xcd, 0x01,
  0x1a, 0x24, 0xbb, 0xb7, 0x2f, 0xc7, 0x56, 0xf1, 0xfb, 0x09, 0x69, 0x12,
  0x4a, 0x74, 0xb1, 0xf8, 0xf3, 0xe6, 0x17, 0x67, 0xbc, 0x5f, 0x44, 0x9b,
  0xd8, 0x8d, 0x0b, 0x81, 0x2d, 0x5f, 0xb2, 0x5b, 0x09, 0x0b, 0x09, 0xf9,
  0x81, 0xac, 0x08, 0x3f, 0x52, 0xa2, 0x26, 0xc8, 0xf7, 0x9c, 0x5b, 0xdc,
  0x64, 0x4f, 0xfb, 0x94, 0xcd, 0xd2, 0xdf, 0xc3, 0x0b, 0x1b, 0x31, 0x10,
  0x2a, 0xf6, 0xe9, 0x0e, 0x91, 0xc3, 0x6b, 0x38, 0x4c, 0x23, 0xfc, 0xc4,
  0xf3, 0x79, 0x39, 0x77, 0xfc, 0x1e, 0x1f, 0x88, 0x56, 0xea, 0x55, 0x93,
  0xb0, 0x1c, 0x21, 0x65, 0xaf, 0x1f, 0x28, 0x4f, 0xb0, 0x72, 0xca, 0x17,
  0x93, 0xdb, 0xcc, 0x8b, 0x24, 0x13, 0x76, 0xb3, 0x18, 0x1b, 0x81, 0x16,
  0x0c, 0x4c, 0xcb, 0x0e, 0x0c, 0xdc, 0x66, 0xda, 0x18, 0xff, 0x20, 0xba,
  0x03, 0xd9, 0xda, 0xdb, 0x45, 0x07, 0xcd, 0x7f, 0xe4, 0x21, 0xd8, 0xad,
  0xf5, 0xe6, 0x1d, 0x37, 0x39, 0x11, 0x93, 0x02, 0xdf, 0x70, 0xef, 0x6c,
  0xc2, 0xcf, 0x23, 0x0e, 0xde, 0x84, 0x25, 0x46, 0x39, 0xdb, 0xca, 0xda,
  0xb6, 0xe6, 0xb9, 0xab, 0x0d, 0x3a, 0xee, 0xca, 0xfa, 0x5a, 0xf0, 0xf4,
  0xc6, 0x0d, 0xf3, 0xd5, 0xcf, 0x2d, 0xf6, 0x30, 0xd2, 0x43, 0x06, 0xdf,
  0xcb, 0xd5, 0xf9, 0x1b, 0x1e, 0x3c, 0x7f, 0xe1, 0xf4, 0xc4, 0xf3, 0x1b,
  0xb9, 0x1f, 0xf2, 0x14, 0x00, 0x25, 0xb0, 0xcc, 0xca, 0x47, 0x0a, 0xfd,
  0x48, 0x3d, 0x04, 0xdb, 0xe3, 0xe0, 0xe5, 0x2d, 0x16, 0xda, 0x25, 0xf5,
  0xd3, 0x06, 0x06, 0xb9, 0xd7, 0xff, 0x2a, 0x5c, 0xb8, 0x2a, 0xde, 0xf4,
  0x07, 0x14, 0x21, 0xb5, 0xb7, 0x25, 0xc4, 0xe7, 0x45, 0x17, 0xb1, 0xbf,
  0xe0, 0x4b, 0xf4, 0x7f, 0x23, 0xeb, 0xe4, 0xd6, 0xf1, 0x0b, 0x09, 0xf8,
  0x22, 0xf5, 0xe3, 0x14, 0xcc, 0x22, 0xf9, 0xfc, 0xae, 0x0f, 0xf8, 0xab,
  0x2d, 0xe9, 0x28, 0xe9, 0xe3, 0xe4, 0xdb, 0xd7, 0xbc, 0x5b, 0xee, 0xfe,
  0x14, 0x7f, 0xad, 0xc7, 0x4b, 0x98, 0x63, 0x54, 0x47, 0x1d, 0x12, 0xfc,
  0xdb, 0x06, 0x59, 0x6c, 0x34, 0x11, 0x2d, 0x1c, 0xe0, 0xd8, 0xfa, 0xca,
  0x26, 0xd2, 0x56, 0x26, 0x0b, 0x48, 0x25, 0x25, 0xe2, 0xb9, 0xac, 0x15,
  0x65, 0xcb, 0xea, 0xca, 0xca, 0xd7, 0x49, 0xe0, 0xf1, 0xf4, 0x3c, 0xcd,
  0xcf, 0x3c, 0x19, 0x78, 0xb1, 0x96, 0x54, 0xd9, 0xb7, 0x0b, 0x1a, 0x07,
  0x52, 0x66, 0x94, 0x49, 0xb6, 0x49, 0x1e, 0x7f, 0xb1, 0x5c, 0xd3, 0x48,
  0xee, 0xd4, 0x0b, 0x6c, 0x06, 0x45, 0x65, 0xe7, 0xd3, 0x3b, 0xd3, 0xe1,
  0xb4, 0x56, 0x04, 0xf7, 0x1e, 0x2b, 0xe3, 0x3f, 0xa4, 0x2a, 0x08, 0x00,
  0x2e, 0xe1, 0xfb, 0xc9, 0x0e, 0xeb, 0xb7, 0x64, 0xed, 0x33, 0x40, 0x14,
  0x03, 0x2f, 0x81, 0xbb, 0x40, 0x3f, 0xc9, 0x97, 0xe3, 0x9d, 0x57, 0xea,
  0x25, 0xe2, 0x5d, 0xfd, 0x42, 0xc3, 0xa1, 0x23, 0xf6, 0xce, 0x1f, 0x2a,
  0x69, 0xfb, 0x42, 0xae, 0x04, 0x01, 0xca, 0x26, 0xf0, 0xef, 0x58, 0x34,
  0xdc, 0xd2, 0xd8, 0x1f, 0x0a, 0x06, 0x14, 0xe1, 0xb9, 0x52, 0x81, 0xd7,
  0xde, 0x2b, 0x1c, 0xd2, 0xcb, 0x27, 0xf4, 0xe4, 0xe0, 0xbe, 0x47, 0xb8,
  0x21, 0xe0, 0xc8, 0x36, 0xe3, 0x02, 0x1f, 0xbf, 0x00, 0xcb, 0xeb, 0x2e,
  0x20, 0x12, 0x16, 0x22, 0xf5, 0xf2, 0xe9, 0x26, 0xd4, 0x11, 0x12, 0xef,
  0xe9, 0x24, 0x96, 0xe0, 0x06, 0x8e, 0xf7, 0x25, 0x35, 0x45, 0xa7, 0x46,
  0x18, 0x5f, 0xae, 0xf0, 0x1e, 0xb9, 0xdb, 0xd1, 0x5a, 0x40, 0x08, 0xfe,
  0xf5, 0x0a, 0xd8, 0x25, 0xe5, 0xda, 0xd4, 0x4b, 0x4f, 0xf7, 0xf6, 0xf0,
  0x26, 0x3d, 0x61, 0x0b, 0x24, 0xbf, 0x18, 0x4a, 0x9f, 0x48, 0x81, 0xd8,
  0xfc, 0x1f, 0xf2, 0x6d, 0xc6, 0x27, 0x2b, 0x17, 0xfa, 0xfc, 0x0c, 0x98,
  0x39, 0xdb, 0x83, 0x09, 0x29, 0xf0, 0xe3, 0xe2, 0xd6, 0xaf, 0xb7, 0x27,
  0xc4, 0xe1, 0x13, 0xab, 0x2a, 0x1d, 0x66, 0xf2, 0x35, 0xc0, 0x34, 0x42,
  0xdf, 0xdf, 0x53, 0xd8, 0xe8, 0x7f, 0xe1, 0xf4, 0x0f, 0x98, 0xbf, 0x05,
  0xd2, 0xde, 0x6a, 0x46, 0xf7, 0x19, 0xfb, 0xc1, 0x28, 0x63, 0xa7, 0x28,
  0xf5, 0x50, 0xab, 0x1c, 0x1e, 0xb8, 0x21, 0xd9, 0x14, 0xe9, 0x3c, 0x23,
  0xb8, 0x22, 0xd2, 0xff, 0xb3, 0x46, 0x29, 0xf0, 0xd0, 0xd5, 0x97, 0xcf,
  0xad, 0x4a, 0xfb, 0x41, 0x30, 0x21, 0x81, 0x1d, 0xf1, 0x18, 0xd9, 0x37,
  0xee, 0xba, 0xf4, 0x19, 0xba, 0x1a, 0x1a, 0xa8, 0xea, 0xdc, 0xc3, 0x63,
  0xdf, 0x42, 0xeb, 0x51, 0x43, 0xd7, 0x6d, 0x0e, 0xd2, 0xdb, 0xbd, 0x40,
  0x10, 0xf5, 0x15, 0xda, 0xbd, 0x10, 0xb4, 0x63, 0xb4, 0x38, 0x09, 0xd7,
  0xd5, 0xe0, 0xc6, 0x26, 0xf5, 0x49, 0x4e, 0xf7, 0x81, 0xcb, 0x18, 0x41,
  0xfd, 0x45, 0x43, 0x8b, 0x13, 0xf9, 0xb1, 0x24, 0x1c, 0xc4, 0x6f, 0xcc,
  0x89, 0x16, 0xf7, 0x7f, 0xcf, 0x38, 0xac, 0xca, 0x63, 0xf7, 0xf6, 0x4b,
  0xb1, 0xd9, 0xf5, 0xec, 0x00, 0xf8, 0xaa, 0x63, 0xcd, 0x1b, 0x43, 0xdf,
  0xeb, 0x56, 0x19, 0x53, 0xbc, 0x4d, 0xd4, 0x26, 0xed, 0xc0, 0x9c, 0x8b,
  0xbc, 0xda, 0xf7, 0x1b, 0x2b, 0xaf, 0x3b, 0xd7, 0xce, 0x0c, 0x3c, 0xdd,
  0x3f, 0xb4, 0x16, 0xd3, 0xe9, 0x5a, 0xad, 0x15, 0x67, 0x20, 0x62, 0x90,
  0xf4, 0x00, 0x24, 0x7f, 0xb2, 0xe3, 0x6d, 0x67, 0xd8, 0x58, 0xe5, 0xe3,
  0x03, 0xb4, 0xa8, 0x62, 0x52, 0x48, 0xb0, 0x48, 0xe4, 0xfa, 0x29, 0x1a,
  0x6a, 0x42, 0xcb, 0x6c, 0xdd, 0x94, 0x62, 0x94, 0x16, 0xe1, 0x9b, 0x15,
  0x24, 0xe5, 0x21, 0xfa, 0xc9, 0x88, 0xf8, 0xeb, 0xc2, 0xcb, 0x4e, 0xd5,
  0xf2, 0x79, 0x3f, 0x58, 0xf7, 0x84, 0xac, 0xce, 0x16, 0xd3, 0xc6, 0xd3,
  0x22, 0xfa, 0xfb, 0xda, 0xda, 0x55, 0x7f, 0x15, 0xff, 0x9d, 0xd5, 0x3a,
  0xa9, 0x36, 0x21, 0xf1, 0x79, 0x57, 0x25, 0xb9, 0xb4, 0x51, 0xda, 0xe4,
  0x5c, 0x52, 0xfe, 0x57, 0x5e, 0xbe, 0xfc, 0xd8, 0x4e, 0x01, 0xc0, 0x39,
  0xc4, 0x9b, 0x0e, 0xbd, 0x56, 0x0f, 0xfe, 0x32, 0x3b, 0x27, 0x9c, 0x21,
  0xb0, 0x62, 0x0b, 0x28, 0x2c, 0xfc, 0xc1, 0xb3, 0x27, 0xea, 0xb1, 0x3a,
  0x64, 0xf7, 0x08, 0xeb, 0x15, 0xc5, 0xa8, 0xfc, 0x3e, 0x0e, 0x0c, 0x81,
  0xeb, 0x0b, 0x07, 0xa9, 0xe1, 0xf5, 0xe7, 0x04, 0xa4, 0xff, 0xe9, 0x31,
  0x99, 0x4d, 0x0d, 0xe4, 0x8e, 0xa7, 0x8f, 0x5b, 0xb5, 0xaa, 0x30, 0xec,
  0x20, 0xef, 0xfa, 0x44, 0x35, 0x81, 0xc6, 0x9b, 0xdd, 0x90, 0x39, 0x64,
  0xbd, 0x3f, 0xa3, 0x0b, 0x9a, 0x49, 0x7a, 0xad, 0x26, 0x40, 0x67, 0x9c,
  0x76, 0x6b, 0xab, 0xd7, 0x7c, 0xf8, 0xc0, 0x50, 0xf7, 0xc5, 0x00, 0x21,
  0xeb, 0xe4, 0xd7, 0xe8, 0xd6, 0x5a, 0xc8, 0x2a, 0x2c, 0x24, 0x49, 0x09,
  0x81, 0xdd, 0x04, 0xf7, 0x1d, 0xa9, 0x50, 0xe9, 0x08, 0xab, 0x2f, 0x3c,
  0x09, 0x1b, 0x48, 0xde, 0xe2, 0xc0, 0xe2, 0xc3, 0x2e, 0xe3, 0x1a, 0x46,
  0x1d, 0x3f, 0xb5, 0x49, 0x06, 0xba, 0xd7, 0x1a, 0xe3, 0x66, 0xf7, 0x52,
  0x62, 0xad, 0x44, 0x25, 0x9f, 0xa6, 0xc9, 0x5c, 0xb1, 0xff, 0xfd, 0xc5,
  0x37, 0x23, 0xfd, 0xce, 0x2b, 0x48, 0x03, 0xf4, 0xc7, 0x20, 0x46, 0xaa,
  0x55, 0xdb, 0x6d, 0x4f, 0xcf, 0x37, 0xe3, 0x38, 0x2f, 0xe6, 0x36, 0xf8,
  0x20, 0x1f, 0xb9, 0x22, 0xa1, 0xdc, 0x22, 0x81, 0x47, 0xf1, 0x0d, 0x67,
  0xed, 0x48, 0x1c, 0xf5, 0x2e, 0xaf, 0xcb, 0xce, 0xd3, 0x1c, 0x81, 0xed,
  0xd4, 0x1c, 0x02, 0xec, 0x88, 0x23, 0xdd, 0x4e, 0x14, 0xd4, 0x34, 0x9b,
  0xe0, 0x0c, 0x4f, 0xc5, 0x0d, 0x10, 0x3e, 0xdc, 0xc3, 0xb6, 0xc2, 0x15,
  0x4b, 0x14, 0xfb, 0xce, 0xf8, 0x09, 0xc3, 0x0e, 0x25, 0xd4, 0xf7, 0x2b,
  0x29, 0x5e, 0xae, 0x5c, 0x5e, 0xb4, 0xfc, 0xd7, 0x45, 0x82, 0x3b, 0x0c,
  0x1d, 0x5b, 0x19, 0x53, 0x00, 0x95, 0xa6, 0x42, 0xff, 0x54, 0x09, 0x08,
  0xde, 0xcc, 0x37, 0xcf, 0x25, 0xf5, 0xe5, 0x4f, 0x0c, 0x99, 0xbc, 0x04,
  0xa8, 0x41, 0x20, 0xf9, 0x7f, 0x05, 0x2e, 0xab, 0xed, 0x1f, 0x09, 0xc4,
  0x64, 0xec, 0x48, 0xd0, 0xa0, 0xd8, 0x72, 0xc2, 0xfb, 0x0b, 0x28, 0xa2,
  0x09, 0x72, 0xad, 0x7e, 0x59, 0xce, 0x4c, 0xa9, 0xf1, 0x3f, 0xd4, 0xd6,
  0x16, 0x39, 0xc0, 0x03, 0x7f, 0x16, 0xb4, 0x47, 0x7b, 0x9d, 0x3d, 0x34,
  0xd7, 0xcd, 0xe6, 0xb7, 0x5d, 0xba, 0x3c, 0xd5, 0x59, 0x57, 0x5d, 0x4a,
  0xbb, 0xbb, 0xfc, 0xf5, 0x79, 0x6c, 0x4a, 0xa4, 0xd3, 0x3b, 0xcb, 0x6f,
  0xcd, 0x36, 0xfd, 0xa5, 0x69, 0xca, 0x30, 0xc3, 0xe5, 0xf2, 0x19, 0x3b,
  0x94, 0x12, 0x96, 0x37, 0x95, 0x4a, 0xc7, 0x23, 0xf6, 0xa7, 0xdc, 0xc9,
  0x12, 0xe6, 0x6d, 0x3a, 0xfd, 0x35, 0xd2, 0x85, 0xd5, 0x22, 0x14, 0x6f,
  0x0c, 0xda, 0x50, 0x5a, 0xe4, 0x9a, 0xd7, 0x81, 0x5c, 0xa8, 0xba, 0x58,
  0x2c, 0x1d, 0x2a, 0x4e, 0x2c, 0xa2, 0x77, 0x21, 0xf3, 0xff, 0xb9, 0x50,
  0x36, 0x28, 0xa5, 0xf8, 0xae, 0xea, 0xab, 0x2e, 0xd4, 0x20, 0x06, 0x3f,
  0xfd, 0xbd, 0x24, 0x64, 0x08, 0x0a, 0x08, 0xe6, 0x81, 0xda, 0x08, 0xee,
  0x17, 0xda, 0x1a, 0x8a, 0xfb, 0x51, 0xb1, 0x29, 0x04, 0x9d, 0x4b, 0x0a,
  0xd9, 0x4a, 0x3f, 0x6d, 0xe1, 0x7f, 0x2b, 0xc1, 0xec, 0xfc, 0xe4, 0x2b,
  0xb4, 0xc5, 0x59, 0x66, 0x02, 0x03, 0x1b, 0x01, 0xd2, 0x30, 0x39, 0x17,
  0xc4, 0x44, 0xf5, 0xc8, 0xe4, 0x2a, 0x27, 0x41, 0xc7, 0x2b, 0xff, 0x85,
  0x13, 0x38, 0x1e, 0x62, 0xe2, 0xe8, 0xfa, 0x25, 0xd5, 0xf1, 0xa8, 0xc2,
  0xbf, 0xab, 0x0e, 0xc1, 0x35, 0x46, 0xa7, 0x7e, 0xa7, 0xa8, 0x7f, 0xfd,
  0x2a, 0xda, 0xad, 0x1c, 0xd3, 0xc2, 0x3a, 0x34, 0xc4, 0xc5, 0xf5, 0x62,
  0xcd, 0xe2, 0xec, 0xe5, 0x9c, 0xfa, 0xdb, 0x41, 0x10, 0x37, 0x37, 0x1e,
  0xf7, 0xe4, 0xa4, 0xd2, 0xca, 0xde, 0xdc, 0x24, 0x18, 0x05, 0xfd, 0xa3,
  0xe1, 0x96, 0x3e, 0x49, 0x32, 0xf5, 0x30, 0xa5, 0xe7, 0xcd, 0x2f, 0x3f,
  0xab, 0x08, 0xaf, 0xd7, 0x51, 0x9d, 0x81, 0xe0, 0xc8, 0xbc, 0xcc, 0x21,
  0x5a, 0xb2, 0x27, 0x94, 0x4a, 0x48, 0x51, 0x20, 0x45, 0xd3, 0xf5, 0x02,
  0x24, 0xf3, 0x2d, 0x6c, 0x38, 0xfe, 0xe8, 0x9d, 0xf7, 0x70, 0x2a, 0x24,
  0x3f, 0x49, 0x5c, 0x29, 0xe1, 0x21, 0x70, 0x88, 0xaf, 0xe7, 0xc5, 0x8f,
  0x2e, 0x7a, 0xb8, 0xc4, 0xfa, 0x44, 0x31, 0x83, 0x81, 0x9a, 0xcc, 0x51,
  0x4d, 0x2c, 0x3a, 0x30, 0x0e, 0x43, 0xfd, 0xda, 0xb1, 0xc2, 0x40, 0xf2,
  0xc0, 0x31, 0x00, 0xd8, 0x1e, 0xee, 0xca, 0xba, 0x24, 0x0c, 0x14, 0x75,
  0xc0, 0x58, 0x1e, 0xd7, 0x9e, 0x4c, 0xb5, 0xad, 0x93, 0x00, 0x2e, 0x2e,
  0xa3, 0x11, 0x61, 0xe4, 0x15, 0x93, 0x17, 0xbd, 0xe8, 0xbc, 0xf7, 0x3a,
  0x94, 0x43, 0xcd, 0x09, 0xc8, 0xe3, 0x14, 0xfc, 0x29, 0xa9, 0xfa, 0x3b,
  0x9c, 0xc3, 0xe3, 0x10, 0x41, 0x72, 0x81, 0xfa, 0x34, 0x35, 0xb6, 0x4a,
  0x4d, 0x8e, 0xdc, 0x49, 0x1d, 0x08, 0x9b, 0x42, 0x13, 0x22, 0xa5, 0xbd,
  0x5e, 0x16, 0x49, 0xee, 0xbb, 0x65, 0xb4, 0x6c, 0x0f, 0xa9, 0xf5, 0xfa,
  0xe1, 0xd4, 0x1c, 0xda, 0xc4, 0x4f, 0x5f, 0xfd, 0xff, 0x8d, 0x4e, 0xa8,
  0x03, 0xf4, 0x11, 0x58, 0x12, 0xd2, 0xc6, 0x1d, 0x38, 0x01, 0xfe, 0xbf,
  0xf0, 0xca, 0xf7, 0xff, 0x81, 0x5a, 0x42, 0xa5, 0xab, 0x57, 0x36, 0x2f,
  0xf7, 0xb7, 0xac, 0x1b, 0xe8, 0xb1, 0xcf, 0xe3, 0x81, 0x4b, 0xe6, 0xe5,
  0x29, 0xe9, 0xa7, 0xa1, 0x67, 0xe7, 0xe9, 0x8f, 0x45, 0x94, 0xfb, 0x9f,
  0x49, 0x3e, 0x1f, 0xfa, 0x67, 0xb3, 0x9b, 0xce, 0xa4, 0xa0, 0xf0, 0xfc,
  0x1f, 0x07, 0xea, 0xfd, 0xfc, 0x1b, 0x24, 0x0b, 0xed, 0xe6, 0x0c, 0x07,
  0x1f, 0xa9, 0x97, 0x52, 0xb4, 0x7d, 0xbe, 0x1a, 0x34, 0x81, 0xf9, 0x26,
  0xfe, 0x0a, 0x40, 0xd4, 0x73, 0xbd, 0xdf, 0xab, 0xf0, 0x0c, 0x91, 0x3f,
  0x34, 0xda, 0x36, 0xe4, 0xb3, 0xac, 0xa9, 0xe9, 0x51, 0x48, 0x36, 0x0a,
  0x05, 0xb9, 0xf6, 0xef, 0xec, 0x4c, 0xd6, 0xc5, 0x77, 0x15, 0xb1, 0x05,
  0xb7, 0xfa, 0x3c, 0x0c, 0x31, 0x92, 0x62, 0x1c, 0xf4, 0x08, 0x93, 0xda,
  0x87, 0xb6, 0xb7, 0x5f, 0x0f, 0xd8, 0xaa, 0x24, 0xf6, 0x18, 0x00, 0x21,
  0xf3, 0x49, 0x73, 0x4e, 0xda, 0x56, 0xa0, 0x6c, 0xf2, 0x85, 0xf2, 0x98,
  0x28, 0x22, 0x48, 0xab, 0x40, 0x02, 0x07, 0xc7, 0xeb, 0x7f, 0xb1, 0xe4,
  0x48, 0x5c, 0x30, 0x46, 0x72, 0xfd, 0xff, 0xff, 0x04, 0x00, 0x00, 0x00,
  0xc8, 0x00, 0x00, 0x00, 0x17, 0x2a, 0xc3, 0x3d, 0xb9, 0x4d, 0x64, 0xbe,
  0xd8, 0x57, 0x8e, 0xbd, 0x07, 0x5e, 0x01, 0x3e, 0x7b, 0xbf, 0x00, 0xbe,
  0xe0, 0xdd, 0x88, 0x3d, 0xe2, 0xb1, 0x69, 0xbe, 0x8e, 0x86, 0x65, 0xbd,
  0x51, 0x67, 0x9d, 0x3d, 0xe1, 0xc5, 0x36, 0xbe, 0xe3, 0x3b, 0x5a, 0xbd,
  0x29, 0x63, 0x65, 0x3e, 0x64, 0x50, 0xaa, 0x3e, 0x29, 0x9e, 0xa6, 0xbe,
  0x6a, 0x74, 0x7b, 0xbe, 0x59, 0x71, 0xba, 0x3c, 0x19, 0x98, 0xd6, 0xbe,
  0x74, 0xe5, 0x74, 0x3e, 0x8a, 0x10, 0xa9, 0xbd, 0x66, 0x60, 0x21, 0xbe,
  0xe1, 0xff, 0x0c, 0xbe, 0xab, 0xce, 0xbb, 0xbc, 0xcb, 0xb6, 0x01, 0xbe,
  0xfe, 0xa9, 0x1b, 0x3e, 0x79, 0x5e, 0x90, 0x3c, 0x56, 0x7e, 0x66, 0x3e,
  0xd8, 0x35, 0x5e, 0x3d, 0x44, 0x41, 0x1e, 0xbd, 0x48, 0xb2, 0x59, 0x3e,
  0x0c, 0x4b, 0xe4, 0xbd, 0xf7, 0x11, 0x1b, 0xbc, 0xb9, 0x14, 0x8a, 0x3e,
  0xee, 0x99, 0xc9, 0xbd, 0xa9, 0xad, 0xc9, 0x3d, 0xa1, 0xb9, 0x2a, 0x3e,
  0xbf, 0x68, 0x10, 0x3e, 0xe8, 0xab, 0x88, 0x3e, 0x23, 0xec, 0x80, 0x3e,
  0xbc, 0x67, 0x0e, 0x3d, 0x43, 0x60, 0xaf, 0x3e, 0x59, 0x8f, 0xaa, 0x3e,
  0x68, 0x87, 0x1b, 0xbe, 0x01, 0x91, 0x8d, 0xbd, 0x9c, 0x06, 0xcf, 0x3d,
  0xc0, 0xc4, 0xa2, 0x3c, 0x5e, 0x93, 0x28, 0xbe, 0x6c, 0x82, 0xa1, 0x3b,
  0x3d, 0xfc, 0x86, 0x3e, 0xa9, 0xb1, 0x30, 0xbe, 0x73, 0xbb, 0xd7, 0x3c,
  0x46, 0xfe, 0xff, 0xff, 0x04, 0x00, 0x00, 0x00, 0x04, 0x00, 0x00, 0x00,
  0x23, 0xfc, 0x0a, 0x3c, 0x56, 0xfe, 0xff, 0xff, 0x04, 0x00, 0x00, 0x00,
  0xc8, 0x00, 0x00, 0x00, 0x23, 0x5d, 0x63, 0xbd, 0xa4, 0xc8, 0xd7, 0x3a,
  0x00, 0x78, 0xc4, 0xbb, 0xdb, 0xf6, 0x29, 0x3b, 0x5a, 0xe9, 0xb9, 0xbb,
  0xc3, 0xb3, 0xaa, 0x3b, 0xe8, 0xf3, 0xd5, 0xbb, 0x00, 0x3d, 0xde, 0xbb,
  0x83, 0x1f, 0x55, 0x3b, 0x7c, 0xdb, 0xcb, 0x3c, 0xa0, 0x77, 0x95, 0xbb,
  0x79, 0xcb, 0xf8, 0x3b, 0x0e, 0xa9, 0x28, 0x3b, 0x03, 0xdc, 0x6f, 0xbb,
  0x4c, 0x57, 0xa5, 0xbb, 0x36, 0xe3, 0x0b, 0x3c, 0xd4, 0xce, 0x4a, 0xbc,
  0x8b, 0x30, 0xa9, 0x3b, 0x14, 0x25, 0xc3, 0xbb, 0xe6, 0x2a, 0xa6, 0x3d,
  0x2f, 0xc6, 0xd3, 0xbb, 0x09, 0xbb, 0xb4, 0x3a, 0xa3, 0x1e, 0x49, 0xbb,
  0x0c, 0xae, 0xc0, 0x3b, 0x66, 0xbe, 0x47, 0x3c, 0xfe, 0x47, 0xf3, 0x3b,
  0x5c, 0x21, 0xae, 0x3b, 0x3c, 0x5d, 0x08, 0x3b, 0x70, 0xfc, 0xfa, 0x3b,
  0x76, 0x43, 0xe8, 0xbb, 0x39, 0xca, 0x8d, 0xba, 0xb2, 0xdf, 0x04, 0x3c,
  0x8a, 0x41, 0xdb, 0xba, 0x2e, 0x34, 0xe0, 0xb8, 0xe7, 0x0d, 0x28, 0x3b,
  0xcd, 0x79, 0xa9, 0x3b, 0x95, 0xca, 0xe9, 0x3b, 0x76, 0xf6, 0xe1, 0xba,
  0x2b, 0xa9, 0x14, 0x3b, 0x3a, 0x46, 0xe2, 0x3b, 0x4a, 0xc0, 0x3d, 0x3c,
  0xd7, 0xf0, 0x1b, 0xbb, 0x1f, 0x8f, 0xd1, 0xbb, 0xf0, 0xfe, 0x07, 0x3c,
  0x51, 0x6f, 0xc9, 0x3b, 0x7b, 0x7a, 0xb6, 0xbb, 0x6d, 0x87, 0x06, 0x3c,
  0xe2, 0x4c, 0x3c, 0x3b, 0x7c, 0x07, 0xb4, 0xbb, 0x3d, 0xf9, 0x0c, 0xbb,
  0x2a, 0xff, 0xff, 0xff, 0x04, 0x00, 0x00, 0x00, 0xc8, 0x00, 0x00, 0x00,
  0xab, 0x24, 0x18, 0x3b, 0xc6, 0x9b, 0x84, 0x3a, 0x6b, 0xc8, 0x7c, 0xbb,
  0x12, 0x44, 0xd3, 0x3a, 0xab, 0x72, 0xd5, 0xbb, 0x3e, 0x59, 0x5f, 0x39,
  0x29, 0x3d, 0xd6, 0x3a, 0xfe, 0x8f, 0x23, 0x3d, 0x84, 0xa9, 0x2f, 0x3c,
  0xb8, 0x1e, 0x66, 0xbb, 0x71, 0x0e, 0x03, 0x3c, 0xaa, 0xdf, 0xd1, 0x3b,
  0x01, 0xa4, 0x4d, 0x3b, 0xae, 0x26, 0xf3, 0xba, 0xb3, 0x6a, 0xa9, 0xba,
  0xfe, 0x48, 0x20, 0x3b, 0x7b, 0x3d, 0xc6, 0x3c, 0x58, 0xd7, 0x8a, 0x3b,
  0xcb, 0xe3, 0x19, 0x3b, 0x24, 0x53, 0xa1, 0x3b, 0x1f, 0x91, 0x28, 0xbb,
  0xe2, 0x7d, 0x8e, 0xbb, 0x23, 0xac, 0x46, 0xba, 0x59, 0x0c, 0x37, 0x3c,
  0xb9, 0xa9, 0xf2, 0xba, 0x40, 0xc2, 0xd3, 0x3b, 0x12, 0x02, 0xd4, 0xbb,
  0x06, 0x05, 0xc9, 0xbb, 0xb3, 0x3d, 0x68, 0x3b, 0x78, 0x7c, 0x40, 0xba,
  0x37, 0xf1, 0xfc, 0xbb, 0xf8, 0xe3, 0x7d, 0xbb, 0x8b, 0xf7, 0x38, 0xbb,
  0x08, 0xe5, 0x1c, 0x3b, 0x58, 0x92, 0xba, 0xba, 0x05, 0xcb, 0x99, 0xbb,
  0xc5, 0x72, 0xc7, 0xbb, 0x02, 0x43, 0x0e, 0xba, 0x5d, 0x7c, 0x00, 0xbc,
  0x21, 0x1f, 0x30, 0x3a, 0x93, 0xc2, 0xf7, 0x3b, 0x9b, 0xa2, 0xcb, 0xbb,
  0x1e, 0x72, 0x18, 0xbc, 0x0c, 0x46, 0x13, 0x3b, 0x29, 0xcc, 0xbc, 0xba,
  0xde, 0x1d, 0x93, 0x3a, 0x6e, 0x2b, 0x43, 0xba, 0x06, 0x4f, 0x7b, 0x3b,
  0x32, 0xa5, 0x80, 0x3b, 0xbc, 0xed, 0x42, 0x39, 0x00, 0x00, 0x06, 0x00,
  0x08, 0x00, 0x04, 0x00, 0x06, 0x00, 0x00, 0x00, 0x04, 0x00, 0x00, 0x00,
  0xc8, 0x00, 0x00, 0x00, 0xe1, 0x20, 0xb3, 0x3d, 0x82, 0xe2, 0xb7, 0xbd,
  0x52, 0xfb, 0xe9, 0xbd, 0xab, 0x8a, 0xf1, 0x3d, 0xab, 0x5f, 0xb4, 0x3e,
  0xa1, 0x43, 0xdb, 0x3d, 0x2b, 0x6c, 0x4f, 0xbb, 0x8a, 0xea, 0x3a, 0xbf,
  0x29, 0x4e, 0x1e, 0x3b, 0x6c, 0x68, 0xc5, 0xbd, 0xbc, 0x28, 0xcc, 0x3d,
  0x41, 0xf1, 0xf1, 0xbd, 0x64, 0x1b, 0xd8, 0x3a, 0xa7, 0x54, 0x37, 0xbd,
  0xc8, 0xe3, 0xdd, 0xbd, 0xf0, 0xb6, 0xdb, 0x3d, 0xcf, 0xb1, 0x22, 0xbf,
  0x45, 0x1c, 0xb3, 0x3d, 0x20, 0x21, 0xaa, 0xbd, 0xda, 0x7b, 0xcb, 0xbd,
  0x09, 0xc8, 0xc9, 0xbd, 0x92, 0xa7, 0xf9, 0x3d, 0x12, 0x7e, 0xee, 0xbd,
  0x5c, 0xde, 0xed, 0x3d, 0xad, 0xe3, 0xdd, 0xbd, 0x3d, 0xf0, 0xd8, 0x3d,
  0x5a, 0x0a, 0xc7, 0xbd, 0x90, 0x7a, 0xa7, 0xba, 0x56, 0xd5, 0xc7, 0xbd,
  0xb8, 0xce, 0xd0, 0xbd, 0x76, 0x04, 0xee, 0x3e, 0x44, 0xc5, 0xf6, 0x3d,
  0xe8, 0xe8, 0xf5, 0x3d, 0xca, 0x70, 0xb7, 0x3d, 0x0a, 0x45, 0xff, 0x3d,
  0xb2, 0x0b, 0x12, 0x3d, 0xf4, 0x7a, 0xe4, 0xbd, 0x28, 0x6a, 0xc5, 0xbd,
  0x51, 0x2e, 0x0c, 0x3f, 0x0b, 0x9a, 0x88, 0x3b, 0x17, 0x50, 0xab, 0xbd,
  0x4a, 0xa2, 0xb7, 0x3d, 0x90, 0xa2, 0xdb, 0x3d, 0x9d, 0x1f, 0xde, 0xbd,
  0x0a, 0xc7, 0xda, 0x3d, 0x2b, 0xd3, 0xb2, 0x3d, 0x48, 0x92, 0xda, 0xbd,
  0x33, 0x86, 0x9d, 0xbd, 0xda, 0x3c, 0xb8, 0xbd, 0xe0, 0xbb, 0xe4, 0xbd,
  0x0c, 0xf8, 0xff, 0xff, 0x10, 0xf8, 0xff, 0xff, 0x0f, 0x00, 0x00, 0x00,
  0x4d, 0x4c, 0x49, 0x52, 0x20, 0x43, 0x6f, 0x6e, 0x76, 0x65, 0x72, 0x74,
  0x65, 0x64, 0x2e, 0x00, 0x01, 0x00, 0x00, 0x00, 0x14, 0x00, 0x00, 0x00,
  0x00, 0x00, 0x0e, 0x00, 0x18, 0x00, 0x14, 0x00, 0x10, 0x00, 0x0c, 0x00,
  0x08, 0x00, 0x04, 0x00, 0x0e, 0x00, 0x00, 0x00, 0x14, 0x00, 0x00, 0x00,
  0x1c, 0x00, 0x00, 0x00, 0x2c, 0x01, 0x00, 0x00, 0x30, 0x01, 0x00, 0x00,
  0x34, 0x01, 0x00, 0x00, 0x04, 0x00, 0x00, 0x00, 0x6d, 0x61, 0x69, 0x6e,
  0x00, 0x00, 0x00, 0x00, 0x05, 0x00, 0x00, 0x00, 0xe0, 0x00, 0x00, 0x00,
  0xac, 0x00, 0x00, 0x00, 0x5c, 0x00, 0x00, 0x00, 0x38, 0x00, 0x00, 0x00,
  0x04, 0x00, 0x00, 0x00, 0x42, 0xff, 0xff, 0xff, 0x10, 0x00, 0x00, 0x00,
  0x00, 0x00, 0x00, 0x08, 0x0c, 0x00, 0x00, 0x00, 0x10, 0x00, 0x00, 0x00,
  0x90, 0xf8, 0xff, 0xff, 0x01, 0x00, 0x00, 0x00, 0x0b, 0x00, 0x00, 0x00,
  0x03, 0x00, 0x00, 0x00, 0x0a, 0x00, 0x00, 0x00, 0x05, 0x00, 0x00, 0x00,
  0x04, 0x00, 0x00, 0x00, 0x9e, 0xff, 0xff, 0xff, 0x0c, 0x00, 0x00, 0x00,
  0x10, 0x00, 0x00, 0x00, 0x01, 0x00, 0x00, 0x00, 0x01, 0x00, 0x00, 0x00,
  0x0a, 0x00, 0x00, 0x00, 0x01, 0x00, 0x00, 0x00, 0x09, 0x00, 0x00, 0x00,
  0x92, 0xff, 0xff, 0xff, 0x1c, 0x00, 0x00, 0x00, 0x00, 0x00, 0x00, 0x08,
  0x1c, 0x00, 0x00, 0x00, 0x20, 0x00, 0x00, 0x00, 0x0c, 0x00, 0x08, 0x00,
  0x00, 0x00, 0x00, 0x00, 0x00, 0x00, 0x07, 0x00, 0x0c, 0x00, 0x00, 0x00,
  0x00, 0x00, 0x00, 0x01, 0x01, 0x00, 0x00, 0x00, 0x09, 0x00, 0x00, 0x00,
  0x03, 0x00, 0x00, 0x00, 0x08, 0x00, 0x00, 0x00, 0x06, 0x00, 0x00, 0x00,
  0x03, 0x00, 0x00, 0x00, 0x00, 0x00, 0x0a, 0x00, 0x10, 0x00, 0x0c, 0x00,
  0x08, 0x00, 0x04, 0x00, 0x0a, 0x00, 0x00, 0x00, 0x0c, 0x00, 0x00, 0x00,
  0x10, 0x00, 0x00, 0x00, 0x01, 0x00, 0x00, 0x00, 0x01, 0x00, 0x00, 0x00,
  0x08, 0x00, 0x00, 0x00, 0x01, 0x00, 0x00, 0x00, 0x07, 0x00, 0x00, 0x00,
  0x00, 0x00, 0x0e, 0x00, 0x14, 0x00, 0x00, 0x00, 0x10, 0x00, 0x0c, 0x00,
  0x0b, 0x00, 0x04, 0x00, 0x0e, 0x00, 0x00, 0x00, 0x10, 0x00, 0x00, 0x00,
  0x00, 0x00, 0x00, 0x08, 0x0c, 0x00, 0x00, 0x00, 0x10, 0x00, 0x00, 0x00,
  0x5c, 0xf9, 0xff, 0xff, 0x01, 0x00, 0x00, 0x00, 0x07, 0x00, 0x00, 0x00,
  0x03, 0x00, 0x00, 0x00, 0x00, 0x00, 0x00, 0x00, 0x01, 0x00, 0x00, 0x00,
  0x02, 0x00, 0x00, 0x00, 0x01, 0x00, 0x00, 0x00, 0x0b, 0x00, 0x00, 0x00,
  0x01, 0x00, 0x00, 0x00, 0x00, 0x00, 0x00, 0x00, 0x0c, 0x00, 0x00, 0x00,
  0x4c, 0x06, 0x00, 0x00, 0xf4, 0x05, 0x00, 0x00, 0xa0, 0x05, 0x00, 0x00,
  0x64, 0x05, 0x00, 0x00, 0x28, 0x05, 0x00, 0x00, 0xe8, 0x04, 0x00, 0x00,
  0x2c, 0x02, 0x00, 0x00, 0x98, 0x01, 0x00, 0x00, 0x3c, 0x01, 0x00, 0x00,
  0xbc, 0x00, 0x00, 0x00, 0x60, 0x00, 0x00, 0x00, 0x04, 0x00, 0x00, 0x00,
  0xfa, 0xf9, 0xff, 0xff, 0x00, 0x00, 0x00, 0x01, 0x14, 0x00, 0x00, 0x00,
  0x1c, 0x00, 0x00, 0x00, 0x1c, 0x00, 0x00, 0x00, 0x0c, 0x00, 0x00, 0x00,
  0x34, 0x00, 0x00, 0x00, 0x02, 0x00, 0x00, 0x00, 0xff, 0xff, 0xff, 0xff,
  0x01, 0x00, 0x00, 0x00, 0xe4, 0xf9, 0xff, 0xff, 0x1b, 0x00, 0x00, 0x00,
  0x53, 0x74, 0x61, 0x74, 0x65, 0x66, 0x75, 0x6c, 0x50, 0x61, 0x72, 0x74,
  0x69, 0x74, 0x69, 0x6f, 0x6e, 0x65, 0x64, 0x43, 0x61, 0x6c, 0x6c, 0x5f,
  0x31, 0x3a, 0x30, 0x00, 0x02, 0x00, 0x00, 0x00, 0x01, 0x00, 0x00, 0x00,
  0x01, 0x00, 0x00, 0x00, 0x52, 0xfa, 0xff, 0xff, 0x00, 0x00, 0x00, 0x01,
  0x14, 0x00, 0x00, 0x00, 0x1c, 0x00, 0x00, 0x00, 0x1c, 0x00, 0x00, 0x00,
  0x0b, 0x00, 0x00, 0x00, 0x34, 0x00, 0x00, 0x00, 0x02, 0x00, 0x00, 0x00,
  0xff, 0xff, 0xff, 0xff, 0x32, 0x00, 0x00, 0x00, 0x3c, 0xfa, 0xff, 0xff,
  0x1b, 0x00, 0x00, 0x00, 0x73, 0x65, 0x71, 0x75, 0x65, 0x6e, 0x74, 0x69,
  0x61, 0x6c, 0x5f, 0x31, 0x2f, 0x64, 0x65, 0x6e, 0x73, 0x65, 0x5f, 0x31,
  0x5f, 0x32, 0x2f, 0x54, 0x61, 0x6e, 0x68, 0x00, 0x02, 0x00, 0x00, 0x00,
  0x01, 0x00, 0x00, 0x00, 0x32, 0x00, 0x00, 0x00, 0xaa, 0xfa, 0xff, 0xff,
  0x00, 0x00, 0x00, 0x01, 0x14, 0x00, 0x00, 0x00, 0x1c, 0x00, 0x00, 0x00,
  0x1c, 0x00, 0x00, 0x00, 0x0a, 0x00, 0x00, 0x00, 0x58, 0x00, 0x00, 0x00,
  0x02, 0x00, 0x00, 0x00, 0xff, 0xff, 0xff, 0xff, 0x32, 0x00, 0x00, 0x00,
  0x94, 0xfa, 0xff, 0xff, 0x3c, 0x00, 0x00, 0x00, 0x73, 0x65, 0x71, 0x75,
  0x65, 0x6e, 0x74, 0x69, 0x61, 0x6c, 0x5f, 0x31, 0x2f, 0x64, 0x65, 0x6e,
  0x73, 0x65, 0x5f, 0x31, 0x5f, 0x32, 0x2f, 0x4d, 0x61, 0x74, 0x4d, 0x75,
  0x6c, 0x3b, 0x73, 0x65, 0x71, 0x75, 0x65, 0x6e, 0x74, 0x69, 0x61, 0x6c,
  0x5f, 0x31, 0x2f, 0x64, 0x65, 0x6e, 0x73, 0x65, 0x5f, 0x31, 0x5f, 0x32,
  0x2f, 0x42, 0x69, 0x61, 0x73, 0x41, 0x64, 0x64, 0x00, 0x00, 0x00, 0x00,
  0x02, 0x00, 0x00, 0x00, 0x01, 0x00, 0x00, 0x00, 0x32, 0x00, 0x00, 0x00,
  0x26, 0xfb, 0xff, 0xff, 0x00, 0x00, 0x00, 0x01, 0x14, 0x00, 0x00, 0x00,
  0x1c, 0x00, 0x00, 0x00, 0x1c, 0x00, 0x00, 0x00, 0x09, 0x00, 0x00, 0x00,
  0x34, 0x00, 0x00, 0x00, 0x02, 0x00, 0x00, 0x00, 0xff, 0xff, 0xff, 0xff,
  0x32, 0x00, 0x00, 0x00, 0x10, 0xfb, 0xff, 0xff, 0x19, 0x00, 0x00, 0x00,
  0x73, 0x65, 0x71, 0x75, 0x65, 0x6e, 0x74, 0x69, 0x61, 0x6c, 0x5f, 0x31,
  0x2f, 0x64, 0x65, 0x6e, 0x73, 0x65, 0x5f, 0x31, 0x2f, 0x54, 0x61, 0x6e,
  0x68, 0x00, 0x00, 0x00, 0x02, 0x00, 0x00, 0x00, 0x01, 0x00, 0x00, 0x00,
  0x32, 0x00, 0x00, 0x00, 0x7e, 0xfb, 0xff, 0xff, 0x00, 0x00, 0x00, 0x01,
  0x14, 0x00, 0x00, 0x00, 0x1c, 0x00, 0x00, 0x00, 0x1c, 0x00, 0x00, 0x00,
  0x08, 0x00, 0x00, 0x00, 0x54, 0x00, 0x00, 0x00, 0x02, 0x00, 0x00, 0x00,
  0xff, 0xff, 0xff, 0xff, 0x32, 0x00, 0x00, 0x00, 0x68, 0xfb, 0xff, 0xff,
  0x38, 0x00, 0x00, 0x00, 0x73, 0x65, 0x71, 0x75, 0x65, 0x6e, 0x74, 0x69,
  0x61, 0x6c, 0x5f, 0x31, 0x2f, 0x64, 0x65, 0x6e, 0x73, 0x65, 0x5f, 0x31,
  0x2f, 0x4d, 0x61, 0x74, 0x4d, 0x75, 0x6c, 0x3b, 0x73, 0x65, 0x71, 0x75,
  0x65, 0x6e, 0x74, 0x69, 0x61, 0x6c, 0x5f, 0x31, 0x2f, 0x64, 0x65, 0x6e,
  0x73, 0x65, 0x5f, 0x31, 0x2f, 0x42, 0x69, 0x61, 0x73, 0x41, 0x64, 0x64,
  0x00, 0x00, 0x00, 0x00, 0x02, 0x00, 0x00, 0x00, 0x01, 0x00, 0x00, 0x00,
  0x32, 0x00, 0x00, 0x00, 0x00, 0x00, 0x16, 0x00, 0x1c, 0x00, 0x18, 0x00,
  0x17, 0x00, 0x10, 0x00, 0x0c, 0x00, 0x08, 0x00, 0x00, 0x00, 0x00, 0x00,
  0x00, 0x00, 0x07, 0x00, 0x16, 0x00, 0x00, 0x00, 0x00, 0x00, 0x00, 0x01,
  0x20, 0x00, 0x00, 0x00, 0x88, 0x02, 0x00, 0x00, 0x07, 0x00, 0x00, 0x00,
  0x00, 0x00, 0x00, 0x09, 0x94, 0x02, 0x00, 0x00, 0x0c, 0x00, 0x0c, 0x00,
  0x00, 0x00, 0x00, 0x00, 0x08, 0x00, 0x04, 0x00, 0x0c, 0x00, 0x00, 0x00,
  0x08, 0x00, 0x00, 0x00, 0x98, 0x01, 0x00, 0x00, 0x32, 0x00, 0x00, 0x00,
  0x00, 0x00, 0x00, 0x00, 0x00, 0x00, 0x00, 0x00, 0x00, 0x00, 0x00, 0x00,
  0x00, 0x00, 0x00, 0x00, 0x00, 0x00, 0x00, 0x00, 0x00, 0x00, 0x00, 0x00,
  0x00, 0x00, 0x00, 0x00, 0x00, 0x00, 0x00, 0x00, 0x00, 0x00, 0x00, 0x00,
  0x00, 0x00, 0x00, 0x00, 0x00, 0x00, 0x00, 0x00, 0x00, 0x00, 0x00, 0x00,
  0x00, 0x00, 0x00, 0x00, 0x00, 0x00, 0x00, 0x00, 0x00, 0x00, 0x00, 0x00,
  0x00, 0x00, 0x00, 0x00, 0x00, 0x00, 0x00, 0x00, 0x00, 0x00, 0x00, 0x00,
  0x00, 0x00, 0x00, 0x00, 0x00, 0x00, 0x00, 0x00, 0x00, 0x00, 0x00, 0x00,
  0x00, 0x00, 0x00, 0x00, 0x00, 0x00, 0x00, 0x00, 0x00, 0x00, 0x00, 0x00,
  0x00, 0x00, 0x00, 0x00, 0x00, 0x00, 0x00, 0x00, 0x00, 0x00, 0x00, 0x00,
  0x00, 0x00, 0x00, 0x00, 0x00, 0x00, 0x00, 0x00, 0x00, 0x00, 0x00, 0x00,
  0x00, 0x00, 0x00, 0x00, 0x00, 0x00, 0x00, 0x00, 0x00, 0x00, 0x00, 0x00,
  0x00, 0x00, 0x00, 0x00, 0x00, 0x00, 0x00, 0x00, 0x00, 0x00, 0x00, 0x00,
  0x00, 0x00, 0x00, 0x00, 0x00, 0x00, 0x00, 0x00, 0x00, 0x00, 0x00, 0x00,
  0x00, 0x00, 0x00, 0x00, 0x00, 0x00, 0x00, 0x00, 0x00, 0x00, 0x00, 0x00,
  0x00, 0x00, 0x00, 0x00, 0x00, 0x00, 0x00, 0x00, 0x00, 0x00, 0x00, 0x00,
  0x00, 0x00, 0x00, 0x00, 0x00, 0x00, 0x00, 0x00, 0x00, 0x00, 0x00, 0x00,
  0x00, 0x00, 0x00, 0x00, 0x00, 0x00, 0x00, 0x00, 0x00, 0x00, 0x00, 0x00,
  0x00, 0x00, 0x00, 0x00, 0x00, 0x00, 0x00, 0x00, 0x00, 0x00, 0x00, 0x00,
  0x00, 0x00, 0x00, 0x00, 0x00, 0x00, 0x00, 0x00, 0x00, 0x00, 0x00, 0x00,
  0x00, 0x00, 0x00, 0x00, 0x00, 0x00, 0x00, 0x00, 0x00, 0x00, 0x00, 0x00,
  0x00, 0x00, 0x00, 0x00, 0x00, 0x00, 0x00, 0x00, 0x00, 0x00, 0x00, 0x00,
  0x00, 0x00, 0x00, 0x00, 0x00, 0x00, 0x00, 0x00, 0x00, 0x00, 0x00, 0x00,
  0x00, 0x00, 0x00, 0x00, 0x00, 0x00, 0x00, 0x00, 0x00, 0x00, 0x00, 0x00,
  0x00, 0x00, 0x00, 0x00, 0x00, 0x00, 0x00, 0x00, 0x00, 0x00, 0x00, 0x00,
  0x00, 0x00, 0x00, 0x00, 0x00, 0x00, 0x00, 0x00, 0x00, 0x00, 0x00, 0x00,
  0x00, 0x00, 0x00, 0x00, 0x00, 0x00, 0x00, 0x00, 0x00, 0x00, 0x00, 0x00,
  0x00, 0x00, 0x00, 0x00, 0x00, 0x00, 0x00, 0x00, 0x00, 0x00, 0x00, 0x00,
  0x00, 0x00, 0x00, 0x00, 0x00, 0x00, 0x00, 0x00, 0x00, 0x00, 0x00, 0x00,
  0x00, 0x00, 0x00, 0x00, 0x00, 0x00, 0x00, 0x00, 0x00, 0x00, 0x00, 0x00,
  0x00, 0x00, 0x00, 0x00, 0x00, 0x00, 0x00, 0x00, 0x00, 0x00, 0x00, 0x00,
  0x00, 0x00, 0x00, 0x00, 0x00, 0x00, 0x00, 0x00, 0x00, 0x00, 0x00, 0x00,
  0x00, 0x00, 0x00, 0x00, 0x00, 0x00, 0x00, 0x00, 0x00, 0x00, 0x00, 0x00,
  0x00, 0x00, 0x00, 0x00, 0x00, 0x00, 0x00, 0x00, 0x00, 0x00, 0x00, 0x00,
  0x00, 0x00, 0x00, 0x00, 0x32, 0x00, 0x00, 0x00, 0x1e, 0x9f, 0x5c, 0x3b,
  0xe4, 0x04, 0x50, 0x3b, 0x05, 0xe9, 0x0e, 0x3b, 0x82, 0x48, 0x2c, 0x3b,
  0x96, 0x5e, 0x16, 0x3b, 0xbf, 0x43, 0x13, 0x3b, 0xf1, 0x25, 0x2e, 0x3b,
  0x65, 0xd3, 0x15, 0x3b, 0xb6, 0x47, 0x3a, 0x3b, 0xc8, 0x74, 0x52, 0x3b,
  0x76, 0xe8, 0x10, 0x3b, 0x0b, 0x07, 0x12, 0x3b, 0xe4, 0xa4, 0x73, 0x3b,
  0x21, 0xfa, 0x82, 0x3b, 0xc5, 0x20, 0x3c, 0x3b, 0x3a, 0x20, 0x28, 0x3b,
  0x47, 0xf4, 0x6e, 0x3b, 0xab, 0x05, 0x26, 0x3b, 0x5c, 0xce, 0x14, 0x3b,
  0x87, 0xed, 0x8f, 0x3b, 0x14, 0xfd, 0x61, 0x3b, 0x42, 0xfb, 0x22, 0x3b,
  0xd2, 0xbb, 0x24, 0x3b, 0x54, 0x18, 0x40, 0x3b, 0xea, 0x79, 0x82, 0x3b,
  0x16, 0x86, 0x2b, 0x3b, 0xb0, 0xb4, 0x26, 0x3b, 0x99, 0x31, 0x50, 0x3b,
  0x1b, 0x46, 0x89, 0x3b, 0x3b, 0xe6, 0x20, 0x3b, 0x20, 0x32, 0xff, 0x3a,
  0xdd, 0x7e, 0x29, 0x3b, 0x62, 0x10, 0x35, 0x3b, 0xdf, 0x36, 0x04, 0x3b,
  0x67, 0xbe, 0x4d, 0x3b, 0xc7, 0xd8, 0x20, 0x3b, 0xb3, 0xa5, 0x44, 0x3b,
  0x71, 0x4e, 0x38, 0x3b, 0xa7, 0x9d, 0x05, 0x3b, 0xd0, 0x0e, 0x45, 0x3b,
  0xa3, 0x1c, 0x5a, 0x3b, 0x5c, 0x7a, 0x24, 0x3b, 0xc3, 0x12, 0x25, 0x3b,
  0xd2, 0x9d, 0x39, 0x3b, 0xbd, 0x30, 0x0c, 0x3b, 0xb3, 0x05, 0x1c, 0x3b,
  0x8b, 0xf3, 0x0c, 0x3b, 0x7d, 0x3f, 0x2a, 0x3b, 0x35, 0x0e, 0x46, 0x3b,
  0xc4, 0xf9, 0x10, 0x3b, 0x11, 0x00, 0x00, 0x00, 0x74, 0x66, 0x6c, 0x2e,
  0x70, 0x73, 0x65, 0x75, 0x64, 0x6f, 0x5f, 0x71, 0x63, 0x6f, 0x6e, 0x73,
  0x74, 0x00, 0x00, 0x00, 0x02, 0x00, 0x00, 0x00, 0x32, 0x00, 0x00, 0x00,
  0x32, 0x00, 0x00, 0x00, 0x1a, 0xff, 0xff, 0xff, 0x00, 0x00, 0x00, 0x01,
  0x10, 0x00, 0x00, 0x00, 0x10, 0x00, 0x00, 0x00, 0x06, 0x00, 0x00, 0x00,
  0x1c, 0x00, 0x00, 0x00, 0xa0, 0xfe, 0xff, 0xff, 0x0f, 0x00, 0x00, 0x00,
  0x61, 0x72, 0x69, 0x74, 0x68, 0x2e, 0x63, 0x6f, 0x6e, 0x73, 0x74, 0x61,
  0x6e, 0x74, 0x34, 0x00, 0x02, 0x00, 0x00, 0x00, 0x01, 0x00, 0x00, 0x00,
  0x32, 0x00, 0x00, 0x00, 0x56, 0xff, 0xff, 0xff, 0x00, 0x00, 0x00, 0x01,
  0x10, 0x00, 0x00, 0x00, 0x10, 0x00, 0x00, 0x00, 0x05, 0x00, 0x00, 0x00,
  0x1c, 0x00, 0x00, 0x00, 0xdc, 0xfe, 0xff, 0xff, 0x0f, 0x00, 0x00, 0x00,
  0x61, 0x72, 0x69, 0x74, 0x68, 0x2e, 0x63, 0x6f, 0x6e, 0x73, 0x74, 0x61,
  0x6e, 0x74, 0x33, 0x00, 0x01, 0x00, 0x00, 0x00, 0x01, 0x00, 0x00, 0x00,
  0x8e, 0xff, 0xff, 0xff, 0x00, 0x00, 0x00, 0x01, 0x10, 0x00, 0x00, 0x00,
  0x10, 0x00, 0x00, 0x00, 0x04, 0x00, 0x00, 0x00, 0x1c, 0x00, 0x00, 0x00,
  0x14, 0xff, 0xff, 0xff, 0x0f, 0x00, 0x00, 0x00, 0x61, 0x72, 0x69, 0x74,
  0x68, 0x2e, 0x63, 0x6f, 0x6e, 0x73, 0x74, 0x61, 0x6e, 0x74, 0x32, 0x00,
  0x01, 0x00, 0x00, 0x00, 0x32, 0x00, 0x00, 0x00, 0xc6, 0xff, 0xff, 0xff,
  0x00, 0x00, 0x00, 0x01, 0x10, 0x00, 0x00, 0x00, 0x10, 0x00, 0x00, 0x00,
  0x03, 0x00, 0x00, 0x00, 0x1c, 0x00, 0x00, 0x00, 0x4c, 0xff, 0xff, 0xff,
  0x0f, 0x00, 0x00, 0x00, 0x61, 0x72, 0x69, 0x74, 0x68, 0x2e, 0x63, 0x6f,
  0x6e, 0x73, 0x74, 0x61, 0x6e, 0x74, 0x31, 0x00, 0x01, 0x00, 0x00, 0x00,
  0x32, 0x00, 0x00, 0x00, 0x00, 0x00, 0x16, 0x00, 0x18, 0x00, 0x14, 0x00,
  0x00, 0x00, 0x10, 0x00, 0x0c, 0x00, 0x08, 0x00, 0x00, 0x00, 0x00, 0x00,
  0x00, 0x00, 0x07, 0x00, 0x16, 0x00, 0x00, 0x00, 0x00, 0x00, 0x00, 0x01,
  0x10, 0x00, 0x00, 0x00, 0x10, 0x00, 0x00, 0x00, 0x02, 0x00, 0x00, 0x00,
  0x1c, 0x00, 0x00, 0x00, 0x9c, 0xff, 0xff, 0xff, 0x0e, 0x00, 0x00, 0x00,
  0x61, 0x72, 0x69, 0x74, 0x68, 0x2e, 0x63, 0x6f, 0x6e, 0x73, 0x74, 0x61,
  0x6e, 0x74, 0x00, 0x00, 0x02, 0x00, 0x00, 0x00, 0x32, 0x00, 0x00, 0x00,
  0x01, 0x00, 0x00, 0x00, 0x00, 0x00, 0x16, 0x00, 0x1c, 0x00, 0x18, 0x00,
  0x00, 0x00, 0x14, 0x00, 0x10, 0x00, 0x0c, 0x00, 0x00, 0x00, 0x00, 0x00,
  0x08, 0x00, 0x07, 0x00, 0x16, 0x00, 0x00, 0x00, 0x00, 0x00, 0x00, 0x01,
  0x14, 0x00, 0x00, 0x00, 0x20, 0x00, 0x00, 0x00, 0x20, 0x00, 0x00, 0x00,
  0x01, 0x00, 0x00, 0x00, 0x3c, 0x00, 0x00, 0x00, 0x02, 0x00, 0x00, 0x00,
  0xff, 0xff, 0xff, 0xff, 0x01, 0x00, 0x00, 0x00, 0x04, 0x00, 0x04, 0x00,
  0x04, 0x00, 0x00, 0x00, 0x1e, 0x00, 0x00, 0x00, 0x73, 0x65, 0x72, 0x76,
  0x69, 0x6e, 0x67, 0x5f, 0x64, 0x65, 0x66, 0x61, 0x75, 0x6c, 0x74, 0x5f,
  0x6b, 0x65, 0x72, 0x61, 0x73, 0x5f, 0x74, 0x65, 0x6e, 0x73, 0x6f, 0x72,
  0x3a, 0x30, 0x00, 0x00, 0x02, 0x00, 0x00, 0x00, 0x01, 0x00, 0x00, 0x00,
  0x01, 0x00, 0x00, 0x00, 0x02, 0x00, 0x00, 0x00, 0x2c, 0x00, 0x00, 0x00,
  0x10, 0x00, 0x00, 0x00, 0x0c, 0x00, 0x0c, 0x00, 0x0b, 0x00, 0x00, 0x00,
  0x00, 0x00, 0x04, 0x00, 0x0c, 0x00, 0x00, 0x00, 0x1c, 0x00, 0x00, 0x00,
  0x00, 0x00, 0x00, 0x1c, 0x0c, 0x00, 0x10, 0x00, 0x0f, 0x00, 0x00, 0x00,
  0x08, 0x00, 0x04, 0x00, 0x0c, 0x00, 0x00, 0x00, 0x09, 0x00, 0x00, 0x00,
  0x0c, 0x00, 0x00, 0x00, 0x00, 0x00, 0x00, 0x09
};
unsigned int modelo_seno_tflite_len = 6032;
