unsigned char mnist_cnn_small_tflite[] = {
  0x20, 0x00, 0x00, 0x00, 0x54, 0x46, 0x4c, 0x33, 0x00, 0x00, 0x00, 0x00,
  0x14, 0x00, 0x20, 0x00, 0x1c, 0x00, 0x18, 0x00, 0x14, 0x00, 0x10, 0x00,
  0x0c, 0x00, 0x00, 0x00, 0x08, 0x00, 0x04, 0x00, 0x14, 0x00, 0x00, 0x00,
  0x1c, 0x00, 0x00, 0x00, 0x8c, 0x00, 0x00, 0x00, 0xe4, 0x00, 0x00, 0x00,
  0x04, 0x40, 0x00, 0x00, 0x14, 0x40, 0x00, 0x00, 0x5c, 0x4c, 0x00, 0x00,
  0x03, 0x00, 0x00, 0x00, 0x01, 0x00, 0x00, 0x00, 0x04, 0x00, 0x00, 0x00,
  0xee, 0xbe, 0xff, 0xff, 0x0c, 0x00, 0x00, 0x00, 0x1c, 0x00, 0x00, 0x00,
  0x3c, 0x00, 0x00, 0x00, 0x0f, 0x00, 0x00, 0x00, 0x73, 0x65, 0x72, 0x76,
  0x69, 0x6e, 0x67, 0x5f, 0x64, 0x65, 0x66, 0x61, 0x75, 0x6c, 0x74, 0x00,
  0x01, 0x00, 0x00, 0x00, 0x04, 0x00, 0x00, 0x00, 0x90, 0xff, 0xff, 0xff,
  0x11, 0x00, 0x00, 0x00, 0x04, 0x00, 0x00, 0x00, 0x08, 0x00, 0x00, 0x00,
  0x6f, 0x75, 0x74, 0x70, 0x75, 0x74, 0x5f, 0x30, 0x00, 0x00, 0x00, 0x00,
  0x01, 0x00, 0x00, 0x00, 0x04, 0x00, 0x00, 0x00, 0xd6, 0xbf, 0xff, 0xff,
  0x04, 0x00, 0x00, 0x00, 0x0c, 0x00, 0x00, 0x00, 0x6b, 0x65, 0x72, 0x61,
  0x73, 0x5f, 0x74, 0x65, 0x6e, 0x73, 0x6f, 0x72, 0x00, 0x00, 0x00, 0x00,
  0x02, 0x00, 0x00, 0x00, 0x34, 0x00, 0x00, 0x00, 0x04, 0x00, 0x00, 0x00,
  0xdc, 0xff, 0xff, 0xff, 0x14, 0x00, 0x00, 0x00, 0x04, 0x00, 0x00, 0x00,
  0x13, 0x00, 0x00, 0x00, 0x43, 0x4f, 0x4e, 0x56, 0x45, 0x52, 0x53, 0x49,
  0x4f, 0x4e, 0x5f, 0x4d, 0x45, 0x54, 0x41, 0x44, 0x41, 0x54, 0x41, 0x00,
  0x08, 0x00, 0x0c, 0x00, 0x08, 0x00, 0x04, 0x00, 0x08, 0x00, 0x00, 0x00,
  0x13, 0x00, 0x00, 0x00, 0x04, 0x00, 0x00, 0x00, 0x13, 0x00, 0x00, 0x00,
  0x6d, 0x69, 0x6e, 0x5f, 0x72, 0x75, 0x6e, 0x74, 0x69, 0x6d, 0x65, 0x5f,
  0x76, 0x65, 0x72, 0x73, 0x69, 0x6f, 0x6e, 0x00, 0x15, 0x00, 0x00, 0x00,
  0x1c, 0x3f, 0x00, 0x00, 0x14, 0x3f, 0x00, 0x00, 0xe4, 0x3e, 0x00, 0x00,
  0xb4, 0x3d, 0x00, 0x00, 0x9c, 0x3d, 0x00, 0x00, 0x64, 0x3d, 0x00, 0x00,
  0xd4, 0x3c, 0x00, 0x00, 0xc4, 0x37, 0x00, 0x00, 0x74, 0x37, 0x00, 0x00,
  0xe4, 0x32, 0x00, 0x00, 0xd4, 0x00, 0x00, 0x00, 0xcc, 0x00, 0x00, 0x00,
  0xc4, 0x00, 0x00, 0x00, 0xbc, 0x00, 0x00, 0x00, 0xb4, 0x00, 0x00, 0x00,
  0xac, 0x00, 0x00, 0x00, 0xa4, 0x00, 0x00, 0x00, 0x9c, 0x00, 0x00, 0x00,
  0x94, 0x00, 0x00, 0x00, 0x74, 0x00, 0x00, 0x00, 0x04, 0x00, 0x00, 0x00,
  0xa6, 0xc0, 0xff, 0xff, 0x04, 0x00, 0x00, 0x00, 0x60, 0x00, 0x00, 0x00,
  0x0c, 0x00, 0x00, 0x00, 0x08, 0x00, 0x0e, 0x00, 0x08, 0x00, 0x04, 0x00,
  0x08, 0x00, 0x00, 0x00, 0x10, 0x00, 0x00, 0x00, 0x28, 0x00, 0x00, 0x00,
  0x00, 0x00, 0x06, 0x00, 0x08, 0x00, 0x04, 0x00, 0x06, 0x00, 0x00, 0x00,
  0x04, 0x00, 0x00, 0x00, 0x01, 0x00, 0x00, 0x00, 0xea, 0x03, 0x00, 0x00,
  0x0c, 0x00, 0x18, 0x00, 0x14, 0x00, 0x10, 0x00, 0x0c, 0x00, 0x04, 0x00,
  0x0c, 0x00, 0x00, 0x00, 0x19, 0x72, 0x4b, 0xeb, 0xaa, 0xf3, 0x39, 0x6c,
  0x02, 0x00, 0x00, 0x00, 0x02, 0x00, 0x00, 0x00, 0x04, 0x00, 0x00, 0x00,
  0x06, 0x00, 0x00, 0x00, 0x32, 0x2e, 0x31, 0x38, 0x2e, 0x30, 0x00, 0x00,
  0x12, 0xc1, 0xff, 0xff, 0x04, 0x00, 0x00, 0x00, 0x10, 0x00, 0x00, 0x00,
  0x32, 0x2e, 0x31, 0x37, 0x2e, 0x30, 0x00, 0x00, 0x00, 0x00, 0x00, 0x00,
  0x00, 0x00, 0x00, 0x00, 0x9c, 0xb5, 0xff, 0xff, 0xa0, 0xb5, 0xff, 0xff,
  0xa4, 0xb5, 0xff, 0xff, 0xa8, 0xb5, 0xff, 0xff, 0xac, 0xb5, 0xff, 0xff,
  0xb0, 0xb5, 0xff, 0xff, 0xb4, 0xb5, 0xff, 0xff, 0xb8, 0xb5, 0xff, 0xff,
  0x4e, 0xc1, 0xff, 0xff, 0x04, 0x00, 0x00, 0x00, 0x00, 0x32, 0x00, 0x00,
  0x11, 0x35, 0xe1, 0x06, 0xe7, 0xd5, 0x2d, 0x4b, 0x3f, 0x3c, 0x05, 0x10,
  0xd6, 0xf1, 0x39, 0x2d, 0x0c, 0x31, 0xd8, 0x14, 0x38, 0x20, 0x2f, 0x27,
  0xaa, 0x1b, 0x20, 0x28, 0xe1, 0x16, 0x51, 0xe4, 0xe5, 0x37, 0x07, 0x04,
  0x1c, 0xb9, 0x14, 0xf7, 0x2c, 0x56, 0x1e, 0xd4, 0xd7, 0x05, 0x33, 0xf9,
  0x19, 0x14, 0xe6, 0xf9, 0x08, 0xf4, 0xed, 0x03, 0x0d, 0x27, 0x1b, 0xc8,
  0xc8, 0xb4, 0xd9, 0xe5, 0xfb, 0xd3, 0xdc, 0x23, 0x08, 0xc4, 0xe8, 0xd0,
  0x31, 0x1e, 0x25, 0xce, 0x11, 0xbb, 0xfa, 0xe4, 0xf6, 0x1c, 0xfd, 0x08,
  0x06, 0xee, 0x25, 0x40, 0xc7, 0x18, 0xd9, 0x5d, 0x0c, 0x2f, 0x7f, 0x21,
  0x03, 0x3d, 0x1b, 0x15, 0xdd, 0xd4, 0x18, 0x19, 0x14, 0x70, 0xe4, 0xe2,
  0xdd, 0x0e, 0x4b, 0x40, 0xed, 0xf8, 0x0f, 0xe1, 0x27, 0x11, 0x5d, 0x2c,
  0x39, 0x22, 0x11, 0x24, 0xe2, 0x00, 0x5d, 0x45, 0xee, 0x2a, 0x1b, 0x01,
  0xd4, 0x34, 0x1e, 0x22, 0x30, 0x1e, 0x29, 0x15, 0x32, 0xf9, 0xda, 0x08,
  0xf3, 0x04, 0x00, 0x1e, 0x2a, 0x4b, 0x1e, 0xe2, 0x44, 0xdc, 0x1b, 0x0b,
  0x02, 0xf9, 0xae, 0xef, 0xfa, 0xfe, 0xdd, 0xf2, 0xf9, 0x4d, 0x41, 0xf9,
  0xc0, 0x63, 0xda, 0x61, 0xe8, 0xca, 0x6d, 0x3b, 0xc1, 0x2d, 0xe8, 0x0f,
  0x02, 0x43, 0x07, 0x17, 0x11, 0x4f, 0x41, 0x08, 0xfa, 0xf7, 0x18, 0xfc,
  0x0b, 0x05, 0x2c, 0x05, 0xeb, 0x41, 0xc9, 0x08, 0x23, 0x0a, 0xfb, 0x43,
  0x2d, 0xf6, 0xe5, 0xe8, 0xd7, 0x18, 0xfa, 0xd5, 0xe6, 0xec, 0x1b, 0x17,
  0x0a, 0xfd, 0xfe, 0xd4, 0x26, 0xec, 0xeb, 0xda, 0x06, 0xe0, 0xd3, 0x0a,
  0xf3, 0x39, 0x17, 0x11, 0xc9, 0xfb, 0x6b, 0x02, 0xab, 0xe4, 0x02, 0xdd,
  0xd9, 0xe4, 0x05, 0xb5, 0xd9, 0x61, 0xf4, 0xd0, 0x06, 0xde, 0x48, 0x47,
  0xc3, 0xe2, 0xfd, 0x0a, 0x11, 0xbb, 0xea, 0x09, 0x10, 0x58, 0x1d, 0x0b,
  0x60, 0xfd, 0x12, 0x51, 0xf4, 0x26, 0xee, 0xc9, 0x0a, 0xbc, 0x09, 0x18,
  0xe3, 0x19, 0xfe, 0xc9, 0xfe, 0xa2, 0xcf, 0xb2, 0xc9, 0x32, 0x95, 0x2e,
  0x15, 0xcd, 0x43, 0x02, 0x03, 0xfe, 0x22, 0x05, 0x17, 0xf9, 0xee, 0xd1,
  0xe1, 0xd8, 0x09, 0xf9, 0xd5, 0x02, 0x22, 0xdc, 0x38, 0xe1, 0x40, 0xf3,
  0xed, 0x34, 0x0a, 0x1d, 0xf0, 0x1c, 0x0e, 0xe3, 0xfe, 0xfe, 0x12, 0x0a,
  0xdc, 0x38, 0xf2, 0xf5, 0xdf, 0xcc, 0x1b, 0x16, 0x1f, 0x2b, 0xc8, 0xbf,
  0x0e, 0x39, 0xc8, 0x07, 0x03, 0x67, 0xae, 0xd7, 0xea, 0xdf, 0xfa, 0xd2,
  0xe4, 0x13, 0xda, 0xcc, 0x25, 0xfc, 0xd1, 0x20, 0x24, 0xee, 0xee, 0xce,
  0xd0, 0xc9, 0xec, 0xf9, 0xdf, 0xf2, 0x05, 0xfd, 0xf4, 0x29, 0x32, 0xf2,
  0x0e, 0x04, 0xf3, 0xe9, 0x0e, 0xde, 0xdb, 0x1a, 0x3d, 0x1b, 0xf9, 0xf3,
  0x1d, 0x17, 0xd9, 0xd7, 0xe3, 0x0e, 0x02, 0x07, 0xd2, 0xf6, 0xdd, 0xf6,
  0x1f, 0xb0, 0x11, 0xe9, 0x0f, 0xf9, 0x10, 0x1b, 0xef, 0x2c, 0x13, 0xf3,
  0xe9, 0x2f, 0xfd, 0x27, 0xca, 0x15, 0x37, 0xe8, 0xf7, 0xc7, 0x07, 0x02,
  0xd5, 0x5d, 0x17, 0xb0, 0xf4, 0x01, 0x0e, 0x0d, 0x01, 0x00, 0x1f, 0x03,
  0x1f, 0xd5, 0xe7, 0x25, 0x34, 0x5d, 0xf6, 0xc1, 0xdc, 0xad, 0xe7, 0x57,
  0x32, 0xe1, 0xdd, 0xdd, 0xd6, 0x1e, 0x1b, 0xbf, 0xf7, 0x16, 0xff, 0x1f,
  0xef, 0xf1, 0x29, 0xd2, 0x1a, 0xc5, 0xff, 0x33, 0xe9, 0xf4, 0x23, 0xed,
  0xc5, 0xf2, 0xfa, 0xff, 0x18, 0x08, 0x1c, 0xfd, 0xba, 0xba, 0x1f, 0x03,
  0xe1, 0xf5, 0x31, 0x24, 0x38, 0x33, 0xda, 0xcb, 0x2c, 0xc9, 0xf7, 0x31,
  0xd3, 0x16, 0xd6, 0xbb, 0x23, 0x0f, 0x0e, 0xf8, 0xf6, 0x38, 0xb6, 0xd4,
  0xeb, 0xaa, 0x00, 0x2c, 0xe7, 0x3a, 0xb8, 0xfb, 0x2f, 0xec, 0x1e, 0x03,
  0xeb, 0x06, 0x07, 0xf6, 0xcf, 0xc3, 0x06, 0x25, 0x20, 0xfd, 0x01, 0x1c,
  0x1b, 0x14, 0xeb, 0xfa, 0x23, 0x34, 0x2e, 0xeb, 0x1b, 0xd3, 0x27, 0x0b,
  0xda, 0x1c, 0x49, 0xfa, 0xf6, 0x14, 0xef, 0x2c, 0x02, 0x0e, 0xc0, 0xe7,
  0x32, 0x38, 0xf7, 0xd7, 0x25, 0xdf, 0x0b, 0xef, 0x1b, 0x2d, 0x01, 0x07,
  0x44, 0x1a, 0xc1, 0xe0, 0x15, 0xcf, 0x24, 0xd9, 0x42, 0x05, 0x81, 0xe3,
  0x0b, 0xda, 0xec, 0x21, 0x16, 0xfe, 0x08, 0x0f, 0x20, 0xfa, 0xd1, 0x1a,
  0x1d, 0x01, 0x21, 0x04, 0x44, 0x0f, 0xda, 0x15, 0xff, 0x1b, 0xf0, 0x06,
  0xf4, 0x1a, 0x06, 0xc9, 0xf4, 0x18, 0x00, 0xfe, 0x4b, 0xa7, 0x17, 0x3a,
  0x09, 0xf9, 0xda, 0xde, 0x0a, 0xef, 0x2a, 0x1f, 0xf5, 0x1c, 0xbc, 0x38,
  0x31, 0x28, 0x21, 0xe8, 0x35, 0xf3, 0x0f, 0xbe, 0x23, 0xd3, 0x8d, 0xd1,
  0x1e, 0x61, 0xfd, 0x0f, 0xe1, 0x0b, 0xd9, 0xff, 0xf7, 0xdb, 0xdf, 0x42,
  0x14, 0xd9, 0xab, 0xcf, 0x22, 0x12, 0xfa, 0x3b, 0xe7, 0xf8, 0xe1, 0x04,
  0xdf, 0x31, 0xf0, 0x06, 0xeb, 0xd2, 0x9c, 0x35, 0x12, 0x35, 0xcb, 0x26,
  0x37, 0x06, 0x18, 0x30, 0xd7, 0x25, 0xed, 0x0e, 0x1f, 0x0d, 0xca, 0x54,
  0x18, 0x06, 0x0e, 0xed, 0x31, 0xba, 0x01, 0x40, 0xea, 0x2d, 0x24, 0x37,
  0xff, 0x0b, 0xee, 0x5c, 0xc2, 0x3e, 0xc2, 0x2e, 0xc6, 0xe4, 0x10, 0x0e,
  0xe6, 0x0b, 0x34, 0x20, 0xd6, 0x12, 0xd4, 0x04, 0x04, 0xf0, 0x03, 0x35,
  0x00, 0xd9, 0xf9, 0xfa, 0xa8, 0x15, 0xe3, 0xbe, 0x11, 0x0f, 0x02, 0x0d,
  0x02, 0xe2, 0x14, 0xdd, 0xee, 0x1f, 0x00, 0x0f, 0xe1, 0x31, 0xe8, 0x15,
  0x1a, 0xc0, 0xad, 0xf5, 0x07, 0xf8, 0xec, 0x18, 0xe0, 0xc7, 0xe4, 0x2d,
  0xf3, 0xea, 0x00, 0xdd, 0xca, 0xe6, 0xc7, 0xff, 0x34, 0x66, 0xbe, 0xef,
  0xc3, 0xeb, 0xfb, 0x01, 0x0f, 0x0e, 0xa2, 0xec, 0xcf, 0xdf, 0xc3, 0xd2,
  0x3b, 0x34, 0x17, 0xf7, 0x0e, 0x19, 0x1e, 0x1b, 0xe4, 0x02, 0xf3, 0xd7,
  0xd1, 0x23, 0x2e, 0xf5, 0xfb, 0xf5, 0x21, 0xeb, 0x0e, 0xe3, 0x0c, 0x00,
  0xdc, 0xe8, 0xfb, 0xed, 0x0f, 0xd3, 0x1e, 0x23, 0x09, 0xff, 0xff, 0xe6,
  0x2e, 0x18, 0x3c, 0x2d, 0x13, 0xb4, 0xf0, 0xda, 0xfd, 0x2a, 0xce, 0x0d,
  0xd6, 0x14, 0x08, 0x3a, 0x2d, 0x2f, 0xf3, 0x02, 0x0d, 0xdd, 0x39, 0xee,
  0x1f, 0x00, 0xdb, 0xe8, 0x03, 0xe7, 0x2e, 0xed, 0x26, 0x4d, 0x51, 0xf2,
  0x40, 0x26, 0x0d, 0x0a, 0x0c, 0x3f, 0xc3, 0x49, 0xef, 0x02, 0x10, 0xef,
  0x1a, 0x12, 0xfd, 0xd6, 0x02, 0xf1, 0x54, 0x3c, 0x11, 0x48, 0xe0, 0xf6,
  0x12, 0x1d, 0x15, 0xf0, 0x08, 0x1c, 0x10, 0x25, 0x09, 0x12, 0x10, 0xf0,
  0x16, 0xd8, 0x0e, 0x0d, 0xf1, 0x29, 0xb1, 0x25, 0xeb, 0x3a, 0xf8, 0x46,
  0x39, 0x0e, 0xd4, 0xfd, 0x22, 0x2c, 0xdb, 0xe2, 0x21, 0xda, 0x93, 0x26,
  0x0c, 0x11, 0xe5, 0xe5, 0xec, 0xc9, 0x16, 0xe2, 0x0e, 0xfe, 0x1f, 0x03,
  0x0b, 0xf1, 0x06, 0x18, 0xda, 0xf9, 0x33, 0xdd, 0xd4, 0x0f, 0x07, 0x29,
  0xcd, 0x36, 0xee, 0x07, 0xc0, 0x0b, 0x2f, 0x24, 0x1e, 0xf9, 0x29, 0x31,
  0x11, 0xf3, 0x2c, 0x2e, 0xc0, 0x2d, 0xd3, 0xd0, 0x42, 0x21, 0xca, 0x02,
  0x2a, 0xec, 0xe7, 0xff, 0xe4, 0x0a, 0xe6, 0x2a, 0x05, 0xf7, 0x13, 0xc1,
  0xdd, 0x0d, 0x34, 0x21, 0xfc, 0x4a, 0x05, 0xd9, 0x21, 0x8b, 0x0c, 0xf7,
  0x1c, 0xf3, 0xbf, 0x8d, 0x54, 0x2a, 0xde, 0x26, 0xd9, 0x0e, 0x14, 0x1c,
  0xed, 0x1a, 0x1e, 0xf1, 0x39, 0xdb, 0xda, 0xcf, 0xf3, 0x10, 0x0b, 0xed,
  0xeb, 0x2b, 0xdd, 0x3c, 0x08, 0xfc, 0xf9, 0x28, 0x16, 0x37, 0xad, 0xd6,
  0x06, 0xa4, 0x20, 0x08, 0xd7, 0x15, 0x1b, 0xd4, 0xda, 0x2b, 0x20, 0x1e,
  0xd5, 0x10, 0x25, 0xf7, 0xd7, 0xcc, 0x5c, 0x01, 0x2f, 0x25, 0x21, 0x2e,
  0xc3, 0x00, 0xf7, 0xd0, 0x29, 0xd9, 0x40, 0xe6, 0xfe, 0xd2, 0xee, 0x0d,
  0x45, 0x0d, 0xe2, 0xec, 0x3d, 0xed, 0xf5, 0xf9, 0x17, 0x14, 0xf3, 0xe0,
  0x1c, 0xda, 0xd2, 0xfc, 0x24, 0x3c, 0xce, 0x1d, 0x33, 0xf3, 0x22, 0xcf,
  0xed, 0xc4, 0xb4, 0xae, 0xdd, 0x24, 0x37, 0x23, 0x2b, 0x25, 0x14, 0x0d,
  0xf9, 0xf6, 0xe2, 0x25, 0xf8, 0x15, 0xf5, 0x0a, 0x3e, 0xd1, 0x22, 0xc7,
  0x1e, 0x38, 0x13, 0x21, 0x2c, 0x16, 0x08, 0xd1, 0x0c, 0x57, 0xea, 0xb9,
  0x5b, 0x4d, 0xdb, 0xbd, 0x1f, 0xf9, 0x2a, 0x4a, 0x59, 0xe7, 0x40, 0xe2,
  0xd9, 0x24, 0xed, 0x11, 0x21, 0x0f, 0xc9, 0x1a, 0x55, 0x34, 0x42, 0x2b,
  0x5d, 0x81, 0x39, 0xfe, 0xc2, 0x00, 0xd4, 0xad, 0x1b, 0x07, 0xc5, 0x52,
  0x1f, 0x4b, 0x2f, 0xea, 0x1e, 0xba, 0x08, 0xef, 0x33, 0x2f, 0x44, 0xd8,
  0x07, 0xe7, 0xc9, 0xf1, 0xf2, 0x21, 0x0d, 0xec, 0x1e, 0x21, 0x1f, 0xf7,
  0x36, 0xfb, 0x29, 0xf8, 0xc8, 0xb3, 0x03, 0xda, 0xf0, 0x32, 0xc6, 0xe0,
  0xf9, 0x05, 0x14, 0x14, 0x25, 0xa7, 0x94, 0x38, 0xd7, 0x49, 0x01, 0x3b,
  0x0d, 0xd4, 0xd6, 0xf7, 0x12, 0x1b, 0xfe, 0xfb, 0xee, 0xf7, 0xef, 0x0b,
  0x1b, 0xfa, 0xf1, 0xfe, 0x03, 0xab, 0xf8, 0xf8, 0x21, 0xf3, 0xef, 0x12,
  0x3c, 0x19, 0xfa, 0xf1, 0xf7, 0x2b, 0xf1, 0xe4, 0xf4, 0x1d, 0x1e, 0x15,
  0x00, 0xe5, 0x02, 0x47, 0x17, 0xfe, 0x11, 0x14, 0xcc, 0xeb, 0xd7, 0x04,
  0x08, 0x16, 0x06, 0x0d, 0x17, 0xd6, 0x2b, 0x19, 0x0d, 0x04, 0x10, 0x0d,
  0xf4, 0xf8, 0xdc, 0x07, 0x0d, 0x0c, 0x2d, 0xe4, 0x08, 0x21, 0xfd, 0xf4,
  0xfa, 0xf4, 0x0a, 0x19, 0x26, 0x01, 0x12, 0xe5, 0xde, 0x0b, 0xfb, 0xe5,
  0x0a, 0x35, 0xf8, 0xe5, 0x00, 0xe6, 0x16, 0x24, 0xd9, 0xfd, 0xce, 0x0a,
  0x1f, 0x08, 0xe9, 0x22, 0x0b, 0xdf, 0x23, 0xeb, 0x08, 0xd8, 0x14, 0xbd,
  0x0e, 0x04, 0x07, 0x0b, 0xf6, 0x49, 0xf8, 0x1d, 0xfc, 0xe2, 0xfb, 0x28,
  0xfc, 0xf5, 0xc8, 0xe2, 0xef, 0xf2, 0x1a, 0x22, 0x0d, 0x1c, 0x13, 0x06,
  0x0c, 0xea, 0x0e, 0x03, 0xfc, 0x0f, 0xbd, 0xd6, 0xff, 0xe8, 0xdf, 0x00,
  0x08, 0x2e, 0x1c, 0x08, 0x1f, 0xfe, 0x25, 0x08, 0x17, 0xfe, 0xeb, 0xd8,
  0x2a, 0x16, 0x14, 0x12, 0xe2, 0x2f, 0x1f, 0x03, 0x20, 0xb2, 0x45, 0x17,
  0x0a, 0x1a, 0x3a, 0xd1, 0x09, 0x04, 0x07, 0x14, 0xf4, 0x38, 0x2d, 0xf4,
  0x22, 0xc0, 0x3b, 0x2e, 0xca, 0x3d, 0xea, 0x81, 0x03, 0x0f, 0x37, 0xfd,
  0x0c, 0x49, 0x29, 0x1f, 0x2d, 0xcf, 0x01, 0xfb, 0xc4, 0x0c, 0xf0, 0xfa,
  0x1e, 0x0d, 0x51, 0xd1, 0x2c, 0x17, 0x2b, 0x25, 0xf1, 0x0e, 0x28, 0xe1,
  0x2b, 0x02, 0x18, 0x29, 0x05, 0xf7, 0xf1, 0xca, 0xda, 0x05, 0xec, 0xed,
  0xf3, 0x56, 0xff, 0x1d, 0x09, 0xdd, 0xe8, 0x10, 0xf4, 0x29, 0x16, 0xf9,
  0x10, 0x0a, 0xff, 0xff, 0x0d, 0xd5, 0xee, 0xfc, 0xf5, 0x25, 0x30, 0x3e,
  0x23, 0x0e, 0x46, 0x01, 0x28, 0x1f, 0xe7, 0x0e, 0x03, 0xf8, 0x16, 0x05,
  0x10, 0x16, 0x18, 0x25, 0xea, 0x04, 0x1f, 0xeb, 0xec, 0xfa, 0xfa, 0xdd,
  0x13, 0xf5, 0x3b, 0x1b, 0x20, 0x51, 0xf5, 0x2e, 0x41, 0xfc, 0x02, 0x26,
  0xf8, 0xfc, 0xff, 0x21, 0x09, 0x08, 0x0c, 0xf4, 0xd7, 0x1c, 0x0a, 0xfd,
  0x02, 0xde, 0x2a, 0xf0, 0xe9, 0xf8, 0xd8, 0x15, 0xdc, 0xe7, 0x0e, 0xe1,
  0xd0, 0xdb, 0xf4, 0x07, 0xeb, 0xd7, 0xf0, 0xf7, 0xe0, 0x01, 0xe2, 0x22,
  0xe3, 0x1d, 0x29, 0x07, 0xe1, 0x09, 0x19, 0xee, 0xf3, 0x16, 0xca, 0x05,
  0xde, 0xfb, 0x13, 0x06, 0x17, 0x18, 0x1b, 0x12, 0xea, 0x09, 0xf9, 0x10,
  0xf7, 0xfa, 0xbe, 0xf3, 0xf0, 0xf8, 0xd7, 0x20, 0x1e, 0x12, 0xd8, 0x1b,
  0xe5, 0x1f, 0xf4, 0xff, 0xf4, 0xd7, 0xd2, 0x04, 0x0f, 0x04, 0x12, 0x06,
  0x0c, 0xc8, 0x15, 0xdb, 0x10, 0x0d, 0xf2, 0xf9, 0x03, 0x01, 0xc8, 0xff,
  0xff, 0x0c, 0x1e, 0xfd, 0x3b, 0xb8, 0xe7, 0xd9, 0xe2, 0x01, 0x35, 0xc0,
  0x33, 0x2a, 0x17, 0xee, 0x51, 0x89, 0xe4, 0x66, 0xc8, 0x5b, 0xe8, 0x13,
  0xd3, 0xc0, 0x9c, 0x97, 0xef, 0xc7, 0x63, 0x07, 0x33, 0x47, 0x3a, 0xe0,
  0x82, 0x83, 0x02, 0x40, 0x54, 0x5d, 0x44, 0x57, 0x9f, 0x04, 0xbe, 0x0b,
  0xf7, 0x1d, 0x53, 0xba, 0x1c, 0x4d, 0x88, 0xd9, 0xe9, 0xb8, 0xeb, 0x23,
  0x07, 0xc3, 0x8d, 0xf9, 0xa5, 0x17, 0xf0, 0x37, 0x30, 0x84, 0xa3, 0x32,
  0x2a, 0x5a, 0x07, 0xed, 0xdb, 0xe2, 0x13, 0x62, 0xe4, 0xae, 0x5a, 0x90,
  0xe2, 0xac, 0xaf, 0xf7, 0x28, 0x20, 0x02, 0x4e, 0xbe, 0xeb, 0xd2, 0x2f,
  0x2a, 0xb7, 0xed, 0x23, 0x3c, 0xc5, 0x71, 0xb6, 0x25, 0x8d, 0x8c, 0xa3,
  0xcb, 0xd2, 0x72, 0x99, 0x06, 0xef, 0x32, 0x3a, 0xc8, 0x54, 0x9a, 0x3e,
  0xad, 0x0d, 0xd1, 0xb3, 0xc3, 0xc9, 0xde, 0x05, 0x05, 0xff, 0x60, 0x19,
  0xbd, 0x5b, 0x01, 0xfe, 0x99, 0x24, 0x64, 0x15, 0xae, 0x63, 0xa1, 0x9e,
  0x97, 0xaf, 0x62, 0x0e, 0x23, 0xc7, 0x4e, 0x4e, 0x5a, 0x87, 0x49, 0x54,
  0xff, 0x85, 0x05, 0xe0, 0x4f, 0xf1, 0x91, 0x9a, 0xe9, 0x25, 0x3e, 0x87,
  0x0e, 0xfd, 0x89, 0x35, 0x32, 0x3b, 0x9f, 0xa0, 0xe0, 0xe5, 0xe0, 0x1b,
  0x4d, 0x29, 0xc9, 0x35, 0x00, 0x8e, 0xa8, 0x12, 0xc6, 0xe0, 0xac, 0xed,
  0x9c, 0x1c, 0x4e, 0x1a, 0x42, 0x5f, 0x08, 0x24, 0xb1, 0xed, 0xc7, 0x46,
  0x83, 0xae, 0xaf, 0xe4, 0xc8, 0xea, 0x9f, 0x4e, 0xc0, 0x3f, 0x84, 0x81,
  0x72, 0xa2, 0x0b, 0x20, 0xc4, 0x43, 0xdf, 0xce, 0x40, 0x00, 0x01, 0x49,
  0xcc, 0xfe, 0x53, 0x99, 0x07, 0xa8, 0xfb, 0x0c, 0x04, 0x5d, 0xb0, 0x93,
  0xae, 0x3d, 0xc7, 0x0d, 0xe8, 0x98, 0x33, 0x1c, 0xf5, 0x35, 0xb0, 0x4f,
  0x01, 0xa2, 0x68, 0x33, 0xe4, 0xf9, 0xc5, 0x0e, 0xed, 0x66, 0x88, 0x84,
  0x2d, 0x54, 0xca, 0x3b, 0x59, 0xb1, 0x9a, 0x4a, 0x0b, 0xf4, 0x0b, 0x97,
  0xcd, 0x93, 0x86, 0x46, 0xe2, 0x9b, 0xe8, 0x10, 0x86, 0x45, 0x4e, 0x2f,
  0x30, 0xd9, 0xcf, 0xb7, 0xb8, 0x12, 0x84, 0xdc, 0x09, 0x8a, 0x33, 0x58,
  0x3c, 0xfb, 0x4f, 0x3a, 0xbe, 0x1a, 0x32, 0x43, 0xe6, 0x10, 0xdd, 0x5b,
  0xbc, 0x1c, 0x57, 0xb4, 0x25, 0xf6, 0x9e, 0x56, 0xce, 0x1e, 0x02, 0x28,
  0x90, 0x58, 0xcd, 0x5d, 0xaf, 0xe5, 0x9a, 0xaa, 0x0a, 0x01, 0xe0, 0xd5,
  0xee, 0x26, 0x04, 0x8c, 0xd6, 0xf3, 0xbd, 0x74, 0x23, 0xb8, 0x9f, 0x59,
  0x40, 0xac, 0xf2, 0xe6, 0x5e, 0xc3, 0x64, 0xe4, 0x86, 0xd7, 0x12, 0xcc,
  0x4a, 0x4a, 0x64, 0xf6, 0xdb, 0xbe, 0x03, 0x09, 0x1e, 0xde, 0x8b, 0x18,
  0x05, 0x4c, 0x56, 0xb0, 0x8b, 0x03, 0x8d, 0x46, 0xf1, 0xb4, 0xfc, 0xa4,
  0x2d, 0x40, 0xb0, 0xaf, 0x5d, 0xb7, 0x10, 0xb2, 0x33, 0x8c, 0x46, 0xb8,
  0xba, 0xd1, 0xb5, 0x8e, 0x38, 0xce, 0xf8, 0xdc, 0xe6, 0x55, 0xad, 0x95,
  0x8a, 0x37, 0x4d, 0x53, 0xe2, 0x4f, 0xc3, 0xd4, 0xfb, 0xed, 0xf4, 0xe6,
  0xdf, 0xec, 0x3a, 0xff, 0x2a, 0xe6, 0xa5, 0xf1, 0xfa, 0xc6, 0x07, 0xf5,
  0xf1, 0xf8, 0xdc, 0x2b, 0xea, 0x56, 0x14, 0x17, 0x00, 0x16, 0x12, 0x19,
  0x3f, 0x25, 0x12, 0x2a, 0xd9, 0x16, 0xce, 0xf7, 0xf5, 0x29, 0xe9, 0x08,
  0xdb, 0xf6, 0xa8, 0x47, 0x2d, 0x5f, 0xfc, 0x18, 0xd9, 0xe8, 0xe3, 0x45,
  0x33, 0x11, 0xc3, 0xe6, 0x22, 0x1b, 0xef, 0x39, 0x2a, 0x3a, 0xa4, 0x0d,
  0xd7, 0x0d, 0x11, 0xf4, 0xd6, 0xe5, 0x21, 0x06, 0x3d, 0xfc, 0xd0, 0x19,
  0x3d, 0x5e, 0xcc, 0x22, 0xe4, 0x2c, 0x2a, 0xd0, 0x22, 0x14, 0xe8, 0x13,
  0xfe, 0x15, 0xfd, 0xf2, 0xfb, 0xfe, 0x15, 0x2b, 0xed, 0x0c, 0xe4, 0x16,
  0xd9, 0xdc, 0xfb, 0xfa, 0xb7, 0x46, 0xe3, 0xbe, 0xec, 0x01, 0xe5, 0x27,
  0xe8, 0x07, 0x01, 0xdf, 0x1f, 0xea, 0x0f, 0xee, 0xdb, 0x20, 0xde, 0xe5,
  0x08, 0x2b, 0x34, 0xd2, 0x05, 0xd6, 0xda, 0x14, 0xe1, 0x0d, 0xdd, 0xd4,
  0xcb, 0xe6, 0xf9, 0xfe, 0x29, 0x22, 0x32, 0xf8, 0xea, 0x0e, 0x20, 0xd7,
  0x2a, 0x1d, 0xf4, 0x3a, 0xed, 0xba, 0x1c, 0x42, 0xf0, 0xe5, 0xe2, 0x0b,
  0xe2, 0xe3, 0x02, 0xef, 0x0e, 0xc7, 0x20, 0xf9, 0xcd, 0x21, 0x6f, 0x1f,
  0xed, 0x18, 0x2e, 0x2b, 0x23, 0xf6, 0xef, 0x03, 0x15, 0x92, 0xed, 0x2a,
  0x14, 0x27, 0x29, 0xe1, 0xfc, 0x0b, 0x0e, 0xcd, 0x2f, 0x42, 0x3a, 0xec,
  0x32, 0xc9, 0xc4, 0xd2, 0x29, 0xc1, 0x22, 0x9f, 0x1d, 0xe7, 0xe5, 0xfc,
  0xec, 0x0d, 0x00, 0x12, 0x23, 0x11, 0x0c, 0x13, 0x19, 0xe3, 0x44, 0x13,
  0xb1, 0xf6, 0x29, 0x1c, 0x06, 0xd4, 0xe7, 0xdf, 0xc7, 0x28, 0x25, 0x30,
  0xd1, 0xf5, 0x4f, 0x06, 0xcc, 0xca, 0x2b, 0xe5, 0x2c, 0xe5, 0x0c, 0x1c,
  0x0e, 0x6d, 0x20, 0x3a, 0x0f, 0x07, 0x29, 0x41, 0xfd, 0xe8, 0x2d, 0x18,
  0xf2, 0x1b, 0xdc, 0xef, 0xef, 0x73, 0x00, 0xdc, 0x7a, 0xcd, 0x3d, 0x12,
  0xd5, 0xcd, 0xec, 0x22, 0x33, 0x1f, 0x0d, 0x08, 0x1e, 0x1a, 0xf8, 0x22,
  0x3c, 0xea, 0x9f, 0x08, 0x17, 0x27, 0xf9, 0x2b, 0x0a, 0x19, 0x17, 0x1d,
  0x16, 0x07, 0xea, 0xfb, 0x29, 0x0a, 0xfa, 0x12, 0xe0, 0xd4, 0x4e, 0x13,
  0x0f, 0x37, 0x1c, 0x1c, 0x0a, 0xdc, 0x16, 0x30, 0xd5, 0x47, 0x7f, 0x13,
  0xf8, 0xa0, 0x5f, 0xe1, 0x12, 0x16, 0x04, 0x12, 0xd1, 0x34, 0x26, 0x10,
  0x31, 0x17, 0xc2, 0x37, 0xef, 0x01, 0xef, 0xea, 0x10, 0xdf, 0xd6, 0x34,
  0x11, 0x15, 0xe1, 0xff, 0xfc, 0x11, 0xc5, 0x21, 0x01, 0xea, 0xa0, 0xf7,
  0xee, 0x3b, 0x0a, 0x18, 0x27, 0xd9, 0xe5, 0xf7, 0xb5, 0x14, 0xde, 0xcf,
  0x11, 0xf3, 0x2f, 0xf6, 0x27, 0x36, 0xf3, 0x04, 0x28, 0xc3, 0x43, 0x08,
  0x07, 0x20, 0x00, 0xe7, 0xf2, 0xf9, 0xfa, 0x11, 0x3c, 0x7b, 0x26, 0x1d,
  0xfe, 0x2a, 0x56, 0x2f, 0x2e, 0x4f, 0x27, 0xea, 0x2d, 0x2c, 0x40, 0x1d,
  0x1a, 0xe3, 0x18, 0xcf, 0xe3, 0xe1, 0xf5, 0x1d, 0x23, 0x35, 0xec, 0xea,
  0xc9, 0xcc, 0x13, 0x02, 0xe2, 0x03, 0x1a, 0xfb, 0x04, 0xc8, 0xff, 0x18,
  0xe7, 0x25, 0x17, 0x0e, 0x03, 0x1b, 0x05, 0x17, 0x37, 0x07, 0x23, 0xef,
  0x0d, 0xf3, 0x1c, 0xfb, 0x03, 0x4c, 0xf1, 0xbd, 0xfa, 0x04, 0xf7, 0x21,
  0x07, 0xe5, 0x20, 0x25, 0x09, 0x0c, 0xf6, 0xd1, 0x32, 0x17, 0x03, 0xa4,
  0x29, 0x0f, 0x1c, 0x14, 0x2c, 0xfb, 0xf2, 0x13, 0x19, 0x15, 0xbf, 0xe7,
  0xf1, 0xea, 0xe4, 0x81, 0x4b, 0x0f, 0xf9, 0x0a, 0xee, 0xee, 0xf8, 0xc7,
  0xd7, 0x29, 0x17, 0xf6, 0x28, 0x2d, 0x09, 0x48, 0xc4, 0xdf, 0x50, 0x0e,
  0xea, 0xf9, 0x04, 0xd8, 0x0f, 0xeb, 0x1a, 0x0e, 0x11, 0x2c, 0x16, 0xe5,
  0xd8, 0x08, 0xeb, 0x2a, 0x1a, 0xf6, 0x1a, 0xf8, 0x27, 0xd0, 0xf8, 0x0a,
  0xf5, 0x32, 0x22, 0xe0, 0xfe, 0xe7, 0xf3, 0x04, 0x1a, 0xf2, 0x23, 0xf2,
  0x10, 0xf9, 0xf6, 0xdd, 0x12, 0x15, 0xe4, 0xe5, 0x59, 0x3b, 0xbf, 0xf5,
  0x26, 0xf8, 0xda, 0x1d, 0x05, 0xd9, 0xe4, 0xdf, 0xe6, 0xc7, 0xbc, 0xf3,
  0x50, 0x45, 0xc2, 0xde, 0x03, 0x08, 0xe0, 0xed, 0xdc, 0x18, 0x00, 0x04,
  0x32, 0x18, 0x58, 0xfe, 0x04, 0x0b, 0x23, 0x08, 0xd3, 0x05, 0xeb, 0xdf,
  0x23, 0x14, 0xff, 0x1e, 0x0f, 0x07, 0x2d, 0x1d, 0xd4, 0xe3, 0x20, 0xf9,
  0x1b, 0x19, 0x0a, 0x27, 0xfb, 0x02, 0xfb, 0xed, 0x25, 0x29, 0x08, 0x1a,
  0x1d, 0xdb, 0x11, 0x01, 0x02, 0xe2, 0xd8, 0x16, 0xe7, 0x39, 0xf1, 0x0e,
  0x25, 0xd8, 0xf3, 0x1b, 0xf6, 0x0d, 0xc9, 0xea, 0x14, 0xdc, 0x13, 0x0d,
  0xff, 0x0b, 0xf5, 0xf7, 0x01, 0x9b, 0xf8, 0x1d, 0xee, 0x38, 0xb0, 0x05,
  0x17, 0xe2, 0x16, 0xfd, 0x1e, 0xe0, 0xe3, 0xf4, 0xfc, 0xe9, 0x27, 0x10,
  0x13, 0x21, 0xe5, 0x12, 0x25, 0x17, 0x1e, 0x16, 0xff, 0xd3, 0xfd, 0xfa,
  0x1f, 0x06, 0xeb, 0x14, 0xec, 0xf6, 0x10, 0xd6, 0x1f, 0xcf, 0x16, 0x1f,
  0x15, 0xfc, 0xfe, 0xf9, 0x0f, 0x07, 0x31, 0x26, 0x1f, 0xf3, 0x28, 0x14,
  0x13, 0x13, 0x00, 0x09, 0x1b, 0x3c, 0xdd, 0xf4, 0xfa, 0xe0, 0x14, 0x13,
  0xee, 0x0d, 0x1a, 0x29, 0x04, 0x16, 0x1b, 0xee, 0xfe, 0xf7, 0xe1, 0x13,
  0xf4, 0xff, 0x53, 0xf9, 0xdb, 0xe0, 0xec, 0xe1, 0x06, 0x16, 0x2b, 0x02,
  0xfb, 0x61, 0x1f, 0x0f, 0x20, 0x1d, 0x0d, 0x13, 0x22, 0x17, 0xd9, 0x04,
  0x0c, 0x17, 0xd8, 0x10, 0xe9, 0x03, 0x1e, 0x1d, 0xdd, 0xd9, 0x18, 0x32,
  0xf0, 0x23, 0x12, 0xf7, 0xf8, 0x04, 0x17, 0x08, 0x0a, 0x17, 0xfe, 0x16,
  0x28, 0xfc, 0x19, 0x0b, 0xf6, 0xf9, 0xff, 0xf5, 0x03, 0x17, 0x37, 0xf5,
  0x05, 0xed, 0x2a, 0xf0, 0xe8, 0x12, 0x17, 0xe7, 0x25, 0x05, 0x2c, 0x22,
  0x20, 0xf3, 0x13, 0x2b, 0xea, 0xef, 0x3b, 0xfa, 0xf2, 0x0e, 0x7a, 0xf3,
  0x0a, 0xfe, 0x28, 0xeb, 0xe6, 0x1e, 0x1e, 0x08, 0xe8, 0xf6, 0x12, 0x00,
  0xfd, 0xf8, 0x17, 0xdd, 0x22, 0x1c, 0x1e, 0x03, 0xe4, 0x04, 0xfa, 0x24,
  0x21, 0x5f, 0x05, 0x10, 0xff, 0x31, 0xfc, 0x40, 0xe8, 0xee, 0x35, 0xfd,
  0x25, 0xdf, 0x12, 0x21, 0xee, 0x0f, 0x09, 0xe0, 0x02, 0xf6, 0x00, 0x11,
  0x3f, 0x0d, 0xdb, 0x32, 0xee, 0x10, 0xf8, 0x2c, 0xef, 0x15, 0xca, 0xf8,
  0xfb, 0xb5, 0xd1, 0xd2, 0x73, 0x32, 0xd7, 0x33, 0xe5, 0x01, 0x08, 0x24,
  0x1a, 0x17, 0xd8, 0x0b, 0x1c, 0x03, 0xcb, 0x05, 0x7f, 0x60, 0xd1, 0x20,
  0xff, 0xfa, 0xeb, 0xe0, 0xde, 0x19, 0x0f, 0x26, 0x12, 0xfa, 0x0e, 0x20,
  0x1a, 0x0c, 0x1d, 0x14, 0xe5, 0x0c, 0xfd, 0x28, 0x26, 0x0d, 0x18, 0xdf,
  0x12, 0xe1, 0x12, 0xd8, 0x1e, 0x19, 0xfa, 0x0e, 0x14, 0xeb, 0xee, 0x1a,
  0xf3, 0x05, 0xc2, 0xf5, 0xe7, 0x08, 0x10, 0xef, 0xeb, 0x0b, 0xef, 0x09,
  0xf3, 0xec, 0xfd, 0xfc, 0xf8, 0xe8, 0x00, 0xd4, 0x0b, 0xf7, 0x0e, 0xfb,
  0x12, 0x54, 0xe7, 0xe4, 0x24, 0xff, 0x1d, 0x20, 0x0f, 0xff, 0xf6, 0xd0,
  0xfa, 0xf3, 0xf1, 0x07, 0x42, 0x64, 0xfd, 0xdc, 0x0a, 0x06, 0xf0, 0x18,
  0xef, 0xea, 0x10, 0xe0, 0x1a, 0x09, 0x1c, 0xec, 0xff, 0x22, 0x05, 0xe0,
  0x0f, 0xf0, 0x0d, 0x27, 0x1e, 0x26, 0x23, 0x18, 0x11, 0x10, 0x2b, 0x2e,
  0xe6, 0x01, 0xd9, 0x14, 0x0a, 0x11, 0xef, 0x02, 0x1b, 0x45, 0xe1, 0xdf,
  0x09, 0x0b, 0x21, 0xfc, 0x0f, 0xf8, 0xba, 0xdb, 0x27, 0x1b, 0xd6, 0xf2,
  0xf9, 0x0f, 0xf5, 0x06, 0x41, 0xd6, 0x06, 0xca, 0xf8, 0x13, 0xbd, 0x0c,
  0xf0, 0x06, 0xf2, 0x03, 0xe7, 0x16, 0x11, 0x15, 0xed, 0xee, 0x23, 0xe4,
  0xf2, 0x40, 0xe1, 0xf6, 0xf1, 0xec, 0x0f, 0x05, 0x12, 0x10, 0xe0, 0xdb,
  0x0e, 0xdf, 0xe3, 0x10, 0x09, 0x25, 0xdb, 0x00, 0x06, 0xd9, 0x08, 0x34,
  0x34, 0x4b, 0xe5, 0xe9, 0x17, 0xca, 0x14, 0x1e, 0x2c, 0x2d, 0xb3, 0x03,
  0x2a, 0xf7, 0x33, 0xe4, 0xfb, 0x1a, 0xd5, 0xde, 0x30, 0xca, 0xe8, 0xdc,
  0x19, 0x01, 0xc0, 0x2a, 0xe8, 0x27, 0xf2, 0xe8, 0x11, 0x07, 0x25, 0x0a,
  0xf2, 0xf5, 0xdf, 0x19, 0xdb, 0xe6, 0x29, 0x25, 0x1d, 0x39, 0xf3, 0xe4,
  0x04, 0x22, 0x27, 0x4b, 0x21, 0x4b, 0x25, 0x2c, 0xd1, 0xd6, 0x38, 0xfc,
  0xfd, 0x09, 0x04, 0xf8, 0xfa, 0x21, 0xeb, 0xfc, 0x1a, 0xd1, 0xc9, 0xd2,
  0xef, 0xec, 0xdc, 0x17, 0x1f, 0x00, 0xeb, 0xff, 0x29, 0xe8, 0x28, 0xea,
  0x29, 0xe1, 0xd9, 0xfb, 0xff, 0x18, 0xd3, 0x1e, 0x25, 0xfe, 0x0f, 0x3c,
  0xf3, 0xc8, 0x1f, 0xfc, 0xcb, 0xe4, 0xec, 0x0a, 0x31, 0x33, 0xe5, 0x1a,
  0x0a, 0x1a, 0x26, 0xf0, 0x0c, 0xe8, 0x08, 0x35, 0xe6, 0x2d, 0x11, 0x1b,
  0x25, 0xbb, 0x0c, 0x21, 0x2c, 0x3d, 0x1e, 0xf9, 0x22, 0xfe, 0xf8, 0x0e,
  0xf8, 0x1c, 0x27, 0x2e, 0xff, 0xd7, 0x4f, 0x10, 0x19, 0x17, 0x43, 0x21,
  0x42, 0x37, 0xbe, 0xbd, 0xc9, 0x08, 0xe4, 0x09, 0x2a, 0xf4, 0x03, 0xd9,
  0xeb, 0x1d, 0x05, 0xe6, 0x3e, 0x23, 0x9c, 0xac, 0xe5, 0xae, 0xe4, 0x28,
  0x49, 0x30, 0xfc, 0x0e, 0xe1, 0xe5, 0xbf, 0x24, 0xec, 0x4d, 0xce, 0xfd,
  0x1e, 0xbc, 0xd0, 0x69, 0xf6, 0xde, 0xd4, 0x15, 0x12, 0x15, 0xc8, 0xe8,
  0xb4, 0x10, 0xf1, 0x2c, 0x16, 0x11, 0xd8, 0x6a, 0xd1, 0x02, 0xd2, 0x3a,
  0x18, 0x0f, 0x13, 0xf8, 0x06, 0xfa, 0x4d, 0xfc, 0xe6, 0x30, 0xf2, 0x29,
  0xad, 0x4a, 0x10, 0xe7, 0xfd, 0xf7, 0x25, 0xf2, 0x02, 0x25, 0xeb, 0x01,
  0xca, 0x12, 0xdd, 0xdc, 0x21, 0x0f, 0xa6, 0xed, 0x2c, 0xf7, 0x0e, 0x09,
  0x20, 0x06, 0xc2, 0xe7, 0xf5, 0xea, 0xc8, 0x38, 0x17, 0x44, 0xe1, 0x34,
  0xe7, 0x0a, 0x00, 0x1a, 0xd2, 0x59, 0x15, 0x29, 0xd5, 0xcd, 0xed, 0x34,
  0xf6, 0xf4, 0x11, 0x0f, 0xb7, 0x1c, 0xb3, 0xe8, 0xab, 0x3e, 0x0c, 0x0f,
  0xf0, 0x12, 0x6d, 0x2b, 0xd9, 0xc5, 0x2f, 0x2b, 0xfd, 0x1b, 0xea, 0x26,
  0xfb, 0x2a, 0x2d, 0x36, 0xec, 0x56, 0x6f, 0x68, 0xa7, 0xae, 0x52, 0xd6,
  0xd0, 0x00, 0xea, 0x1d, 0xf0, 0xf2, 0xf3, 0x3b, 0x0b, 0x21, 0xce, 0xe4,
  0xfb, 0xe0, 0x1f, 0xe7, 0xf1, 0xec, 0x1e, 0x15, 0x00, 0xce, 0xd8, 0x14,
  0xc4, 0xfe, 0x19, 0x31, 0xde, 0x21, 0x29, 0xeb, 0xe4, 0xf9, 0xe4, 0x06,
  0x37, 0x13, 0xe9, 0xd7, 0xe1, 0x01, 0x40, 0x24, 0x32, 0x11, 0xef, 0x3e,
  0x12, 0x1a, 0x13, 0xed, 0xe0, 0xd1, 0xcd, 0xe9, 0x00, 0x0a, 0xde, 0xf1,
  0xee, 0xe4, 0x64, 0xe8, 0xc5, 0x2c, 0xca, 0xe6, 0xe6, 0xcd, 0xf4, 0x01,
  0xe4, 0x77, 0x22, 0xde, 0xec, 0x81, 0xfe, 0xce, 0xce, 0x30, 0x15, 0xea,
  0x01, 0x03, 0x11, 0xcb, 0xbd, 0x29, 0x36, 0x2c, 0xcd, 0xce, 0xe5, 0x01,
  0xf9, 0x23, 0xee, 0x0a, 0x08, 0x25, 0xfd, 0xd0, 0x0c, 0xf2, 0x40, 0xf7,
  0x25, 0x08, 0x1d, 0xc5, 0x23, 0xec, 0x0b, 0x21, 0xd9, 0x33, 0x0a, 0xea,
  0x13, 0x00, 0x15, 0x0b, 0x23, 0x2d, 0x16, 0xe8, 0x1c, 0xe1, 0x33, 0x17,
  0x07, 0x0e, 0xdc, 0xc4, 0x2f, 0xc0, 0xb0, 0xc5, 0xc8, 0x13, 0x1a, 0xda,
  0xf1, 0x11, 0x04, 0xe0, 0xed, 0xec, 0xf4, 0x27, 0x08, 0x14, 0x34, 0xc2,
  0x0a, 0x0f, 0x21, 0xd7, 0x0b, 0xf7, 0xf9, 0xdd, 0xf2, 0x23, 0xf0, 0x25,
  0x30, 0xd0, 0xf0, 0x14, 0x2b, 0x0c, 0x18, 0x22, 0x15, 0x13, 0xf5, 0x38,
  0x0d, 0x2e, 0x47, 0xf5, 0x50, 0x11, 0x0e, 0x35, 0x18, 0x25, 0xd8, 0xdf,
  0x31, 0xdf, 0x50, 0x1f, 0xd5, 0xdd, 0xd4, 0x37, 0x1f, 0x21, 0x1d, 0x10,
  0x13, 0x06, 0xc4, 0x43, 0x08, 0xe6, 0xe6, 0xe3, 0x22, 0xf6, 0xef, 0x1f,
  0xf3, 0x27, 0x36, 0xf0, 0x07, 0xf3, 0x4b, 0x16, 0x1a, 0xf5, 0x25, 0xfd,
  0xf9, 0x0a, 0x1a, 0xea, 0x04, 0x39, 0x35, 0xd8, 0xf6, 0xe5, 0x19, 0x13,
  0x12, 0x27, 0xdf, 0x08, 0xeb, 0x2d, 0x1c, 0x0c, 0xe9, 0x07, 0x24, 0x08,
  0x11, 0xda, 0x18, 0xe6, 0xfd, 0xe7, 0xe9, 0x12, 0x1b, 0x0c, 0xd0, 0xef,
  0x05, 0x03, 0xf3, 0x20, 0x09, 0xfc, 0x0f, 0x19, 0x23, 0xec, 0x24, 0x06,
  0x10, 0xf5, 0xdd, 0xdd, 0xf4, 0xda, 0xf7, 0x26, 0xf0, 0xe8, 0xc4, 0x36,
  0x01, 0x0c, 0x10, 0xf1, 0x1b, 0xe7, 0x21, 0x27, 0x0b, 0xf5, 0x2f, 0xe8,
  0xf4, 0x0b, 0x20, 0x2b, 0xd1, 0xdd, 0xd2, 0x1b, 0x0e, 0xf9, 0x0d, 0xdc,
  0x03, 0x33, 0xeb, 0x0a, 0xc3, 0xba, 0x25, 0x1e, 0xdd, 0xf8, 0x20, 0x2d,
  0x0f, 0x16, 0x00, 0xfd, 0x15, 0x18, 0x2f, 0x02, 0xe7, 0xfc, 0xf9, 0x21,
  0x02, 0x1e, 0x23, 0x08, 0x17, 0x07, 0x12, 0x07, 0xdf, 0x13, 0x19, 0x30,
  0xf8, 0xf4, 0xfb, 0xfb, 0x2e, 0xe7, 0x32, 0xfe, 0xfd, 0x24, 0x2f, 0x30,
  0x16, 0xfa, 0x12, 0x20, 0x34, 0x0f, 0x1f, 0xfd, 0x0f, 0xe4, 0x0c, 0x20,
  0xfb, 0x13, 0xfe, 0x31, 0xef, 0x16, 0x43, 0x19, 0x37, 0x08, 0x31, 0x07,
  0xf2, 0xe3, 0x25, 0xed, 0xfb, 0xf1, 0xc2, 0xd7, 0x07, 0x13, 0x00, 0xf0,
  0x44, 0x3b, 0x05, 0x0e, 0x22, 0xfe, 0x14, 0xf2, 0xeb, 0x1a, 0x11, 0xe3,
  0xfe, 0xf4, 0x05, 0x10, 0xf3, 0x05, 0x20, 0xf4, 0xfc, 0x10, 0x18, 0xe0,
  0x28, 0x02, 0x06, 0x08, 0x36, 0xe8, 0x54, 0x2d, 0xd6, 0xe5, 0xf9, 0xeb,
  0x19, 0xdc, 0xf9, 0xe3, 0x19, 0xfa, 0xf8, 0x07, 0xe9, 0xd2, 0x1c, 0x03,
  0x17, 0xd7, 0xe1, 0xed, 0x14, 0xfc, 0x07, 0x09, 0x1e, 0x15, 0xb1, 0xb4,
  0x06, 0xff, 0xec, 0xe2, 0x25, 0x1c, 0x09, 0x28, 0x16, 0xe2, 0x23, 0x07,
  0xfb, 0xe4, 0xf9, 0xcf, 0x03, 0xf8, 0xcf, 0xd5, 0x54, 0x58, 0xf5, 0x14,
  0x1a, 0xd1, 0x0a, 0xdd, 0x0f, 0x20, 0xef, 0xc8, 0x34, 0xf1, 0x0e, 0x2f,
  0x1f, 0x02, 0xc9, 0xfe, 0x0b, 0xd4, 0xea, 0x2c, 0x23, 0x7f, 0xfd, 0x09,
  0x38, 0xe1, 0xd8, 0x39, 0xe2, 0xfb, 0xc8, 0xde, 0x28, 0x00, 0xf9, 0xde,
  0x20, 0x48, 0xf6, 0xcc, 0x29, 0xb5, 0xfa, 0x2f, 0x15, 0x1d, 0xd0, 0x0e,
  0xe3, 0xda, 0xdc, 0xe7, 0xe0, 0x50, 0xf2, 0x0c, 0x15, 0x00, 0x26, 0x06,
  0xe7, 0x08, 0xc3, 0xf9, 0x10, 0x26, 0xf9, 0xe0, 0xda, 0x12, 0x1f, 0x31,
  0x20, 0x30, 0x3b, 0x1d, 0xc0, 0xd7, 0x27, 0x22, 0xed, 0xf5, 0xf3, 0x27,
  0xdf, 0x2b, 0xe5, 0x01, 0x40, 0xe1, 0x10, 0xc7, 0x02, 0x08, 0xb9, 0xf0,
  0x2a, 0xe8, 0xeb, 0x39, 0xfa, 0x10, 0x0b, 0xff, 0x0a, 0xc1, 0xca, 0xfe,
  0x08, 0x43, 0xba, 0x0c, 0x1f, 0xe3, 0x1e, 0x13, 0x14, 0x0b, 0x2a, 0x0b,
  0xe9, 0xf8, 0xd4, 0xf9, 0x15, 0x37, 0xcc, 0x21, 0xe9, 0x18, 0x26, 0x04,
  0xe0, 0xdd, 0xe6, 0x31, 0xd2, 0x20, 0x2b, 0xf4, 0x17, 0xf2, 0xf4, 0xe9,
  0xf1, 0x09, 0xfe, 0x06, 0x28, 0x06, 0x2c, 0x0e, 0xda, 0x46, 0x74, 0xef,
  0x18, 0xaa, 0x1a, 0x13, 0x2f, 0xea, 0xe1, 0x14, 0x32, 0xd0, 0xf5, 0xfa,
  0xf7, 0xd6, 0xfc, 0xe0, 0xe1, 0xf3, 0x17, 0xca, 0x06, 0x2e, 0xdd, 0xeb,
  0x10, 0xea, 0x24, 0xf0, 0x12, 0x08, 0x2a, 0xf2, 0xfe, 0xd5, 0x4c, 0x1a,
  0x04, 0x42, 0x06, 0x10, 0xec, 0xfd, 0x07, 0x28, 0x07, 0x18, 0x26, 0xcb,
  0x0f, 0xc7, 0x12, 0xd5, 0x2b, 0x4c, 0x38, 0x23, 0x20, 0xcc, 0x11, 0x10,
  0xfa, 0x0f, 0x11, 0x1d, 0x06, 0xe5, 0x1a, 0xc9, 0x17, 0x3b, 0xe0, 0x10,
  0x18, 0x18, 0xdb, 0xfd, 0x1e, 0x2a, 0xff, 0xff, 0xfc, 0x11, 0x42, 0xf8,
  0x0f, 0x03, 0x0c, 0x00, 0x1a, 0xc3, 0x1d, 0x0d, 0x3c, 0x15, 0x36, 0xbe,
  0xe4, 0x06, 0xf0, 0x1d, 0x12, 0x1d, 0x24, 0x19, 0xe8, 0xec, 0x15, 0xfb,
  0xfb, 0xf6, 0x0b, 0xef, 0x0f, 0xf9, 0x1d, 0xfb, 0x10, 0x41, 0x07, 0x20,
  0x0b, 0xf6, 0x15, 0x28, 0x20, 0xfc, 0xea, 0xcf, 0xee, 0xdf, 0x04, 0x1e,
  0x29, 0x05, 0x21, 0x31, 0x18, 0x18, 0xf3, 0x17, 0xfd, 0x0f, 0xb8, 0xe0,
  0xfb, 0x06, 0xc4, 0xe1, 0x25, 0x17, 0x30, 0x17, 0xfd, 0x0b, 0xea, 0xfb,
  0x4a, 0x08, 0xbe, 0x06, 0x3f, 0x4a, 0xd1, 0x3c, 0x1e, 0x0a, 0x2f, 0x1d,
  0x08, 0x0c, 0xe3, 0x1d, 0x06, 0x01, 0xd6, 0x16, 0xeb, 0x09, 0x18, 0xf5,
  0xfd, 0x0c, 0x2d, 0x36, 0xf3, 0x1b, 0x1e, 0xf9, 0x10, 0xda, 0x2e, 0xf4,
  0x26, 0x1d, 0xf3, 0x26, 0x1d, 0x2c, 0x09, 0xdd, 0x26, 0x2a, 0x13, 0x1c,
  0xf2, 0xf0, 0xee, 0xe9, 0x01, 0xf1, 0x4f, 0x1c, 0xef, 0xf7, 0x37, 0x09,
  0x26, 0x14, 0x06, 0x28, 0x1e, 0x31, 0xd0, 0xde, 0x22, 0x21, 0x00, 0x24,
  0x0e, 0x2b, 0x0d, 0xfd, 0xfc, 0x3e, 0x29, 0x3f, 0x43, 0x23, 0x2c, 0x29,
  0xe0, 0x0c, 0x15, 0x08, 0x39, 0x09, 0x06, 0xee, 0xf6, 0xdf, 0x2f, 0x01,
  0xe5, 0xfb, 0x05, 0xf7, 0xfc, 0xf8, 0x33, 0x07, 0xe6, 0x2c, 0x20, 0xe6,
  0x10, 0xd4, 0x5c, 0x13, 0xdc, 0x55, 0x2b, 0xe2, 0xff, 0x13, 0x61, 0x3d,
  0xd5, 0x30, 0x03, 0x04, 0x1a, 0xa1, 0x06, 0x15, 0xf4, 0xf7, 0x0a, 0xbf,
  0xfd, 0xe0, 0x20, 0xfe, 0xe6, 0x1a, 0x38, 0x08, 0x09, 0x11, 0x2c, 0x0e,
  0x1e, 0xfb, 0x25, 0x08, 0x1b, 0x21, 0x04, 0x21, 0x22, 0xff, 0x11, 0x17,
  0x08, 0x3a, 0x09, 0x41, 0x1a, 0x01, 0xda, 0x07, 0x0f, 0x4a, 0x1a, 0x40,
  0xde, 0x1a, 0x22, 0x03, 0xed, 0xd1, 0xf3, 0xf8, 0xf5, 0x0f, 0x02, 0x16,
  0xed, 0x1c, 0x36, 0xfb, 0xe2, 0x2c, 0xf8, 0x17, 0x00, 0x24, 0xdf, 0xfc,
  0xfb, 0xeb, 0xf6, 0x0a, 0xfe, 0xe4, 0x34, 0xe8, 0xfb, 0x31, 0xfd, 0xc9,
  0xea, 0x27, 0xfa, 0x13, 0x1e, 0x19, 0xca, 0x03, 0xd7, 0xe1, 0x08, 0xdb,
  0x1d, 0x36, 0x0b, 0xdb, 0x02, 0x54, 0xeb, 0xf9, 0xf9, 0x14, 0x0d, 0xf0,
  0xfa, 0x24, 0xdb, 0x05, 0xfa, 0x05, 0xbb, 0xf5, 0x03, 0xf1, 0xcc, 0xef,
  0xdc, 0xdc, 0x81, 0x22, 0xd7, 0x2c, 0x0c, 0xe7, 0x4e, 0x46, 0x52, 0x11,
  0x38, 0x2f, 0x47, 0x9a, 0x11, 0xf2, 0x46, 0xde, 0x35, 0x13, 0xa0, 0xd9,
  0xdd, 0xef, 0x51, 0xe7, 0xa2, 0xcb, 0x9b, 0x22, 0x59, 0x9e, 0xfd, 0xe9,
  0x97, 0x4a, 0x43, 0xce, 0x98, 0xcd, 0xd8, 0xd8, 0x06, 0x38, 0xeb, 0x49,
  0xbf, 0xf2, 0x4c, 0xd0, 0x48, 0x2c, 0x3f, 0xc5, 0xfe, 0xe4, 0xea, 0x2c,
  0xdb, 0xc8, 0xfd, 0x50, 0x0b, 0x17, 0x95, 0x53, 0x3a, 0x27, 0xf8, 0xcd,
  0x02, 0xda, 0xf3, 0x55, 0x1f, 0xcd, 0x2e, 0xe2, 0x06, 0xee, 0xca, 0xdb,
  0xe2, 0x43, 0x17, 0x34, 0xe1, 0xdc, 0xba, 0x98, 0x34, 0x0c, 0x64, 0x44,
  0x03, 0xaf, 0xec, 0x67, 0xea, 0xf1, 0x0c, 0xac, 0x15, 0xdf, 0xc4, 0xab,
  0x0f, 0xbe, 0x2a, 0xa5, 0xc1, 0xb5, 0x53, 0x60, 0x04, 0xd9, 0xd4, 0xcb,
  0xf5, 0xf7, 0xb6, 0xcf, 0xfd, 0x11, 0x5e, 0x4d, 0x53, 0x33, 0xd4, 0xed,
  0xaa, 0x90, 0xa5, 0xb2, 0xa2, 0x44, 0x55, 0x43, 0xfc, 0x91, 0x37, 0xd0,
  0x89, 0x38, 0x1d, 0xfd, 0xb5, 0xcd, 0x0f, 0x10, 0x3b, 0x3e, 0x12, 0x54,
  0xda, 0xf7, 0xee, 0x97, 0xb7, 0xb6, 0x5a, 0x95, 0xfc, 0xcc, 0x03, 0x14,
  0xea, 0xdb, 0xc1, 0x3c, 0x03, 0xd3, 0xab, 0xb2, 0x16, 0x95, 0x95, 0x48,
  0x94, 0x04, 0x16, 0x40, 0x9e, 0xc3, 0x91, 0xb3, 0x9f, 0xe3, 0xc4, 0x9d,
  0x5b, 0xe4, 0x43, 0x08, 0x4d, 0x86, 0x35, 0x97, 0xb5, 0x4b, 0x28, 0xec,
  0x22, 0xba, 0x23, 0xf0, 0x2c, 0x9b, 0xd0, 0x4d, 0x1f, 0x4c, 0x38, 0x1f,
  0x43, 0x30, 0x17, 0xac, 0x60, 0x98, 0xe3, 0x38, 0xd3, 0x09, 0x08, 0x90,
  0x5e, 0xa3, 0xdd, 0x38, 0x3f, 0xe4, 0x2d, 0xe7, 0x16, 0xa1, 0x44, 0xc6,
  0xa7, 0x92, 0x29, 0xc7, 0xe1, 0x3f, 0x00, 0x91, 0x4d, 0x9a, 0xc2, 0x94,
  0x14, 0x13, 0xfb, 0x27, 0x96, 0x81, 0xda, 0x08, 0x13, 0xfc, 0x2f, 0x88,
  0x25, 0xb6, 0x02, 0xdb, 0xa7, 0x31, 0xbd, 0x2c, 0xde, 0xd3, 0x0c, 0xb2,
  0x0d, 0x4a, 0x4e, 0xbe, 0x05, 0x2d, 0x56, 0xad, 0x97, 0xa5, 0xde, 0x44,
  0x2e, 0xb8, 0x13, 0xf4, 0x4b, 0x08, 0x96, 0xb2, 0xb2, 0xa0, 0xd0, 0xf5,
  0xe1, 0x6d, 0xc8, 0x42, 0xbe, 0xef, 0xcb, 0xdc, 0xed, 0x13, 0xa1, 0x9f,
  0xe6, 0x20, 0x37, 0x19, 0xf9, 0x35, 0x0f, 0xb4, 0xc5, 0x0d, 0x9d, 0xe4,
  0x5c, 0xe5, 0xfb, 0x93, 0xe5, 0x2e, 0xb1, 0xd8, 0x2c, 0xe9, 0xdc, 0x13,
  0x49, 0xdc, 0xe1, 0xdc, 0x9e, 0xfd, 0x28, 0x08, 0x1a, 0x16, 0x96, 0x04,
  0x1e, 0xa3, 0xf3, 0x26, 0x37, 0xed, 0x42, 0xeb, 0xad, 0xdb, 0xbb, 0xf0,
  0xc6, 0xc7, 0x07, 0x28, 0x2e, 0xbc, 0xca, 0x3b, 0x40, 0xe9, 0x2a, 0x22,
  0x68, 0x57, 0x50, 0x29, 0xcb, 0x49, 0x11, 0x9b, 0x3f, 0x2f, 0x8a, 0xdc,
  0xcf, 0xb8, 0x09, 0x11, 0xee, 0xb5, 0xbd, 0xbb, 0x8b, 0xe0, 0x5c, 0x4e,
  0x13, 0xbb, 0x22, 0xbb, 0x49, 0xcc, 0xc5, 0xf7, 0xb0, 0x48, 0x06, 0xf3,
  0x18, 0x3d, 0xf0, 0x13, 0xe8, 0xe9, 0x69, 0x15, 0x1e, 0x37, 0xe9, 0xeb,
  0xfa, 0xd9, 0x11, 0x31, 0xe0, 0x39, 0xe5, 0xeb, 0x17, 0xd5, 0x2e, 0x10,
  0xc1, 0x25, 0xdb, 0xfa, 0x0f, 0xd2, 0x4e, 0xf5, 0xef, 0x2e, 0x10, 0x18,
  0xe0, 0xde, 0x3e, 0xfb, 0xe7, 0x67, 0xfc, 0xc7, 0xdd, 0xd1, 0x7f, 0xe7,
  0x22, 0xf8, 0xde, 0x29, 0xf9, 0xbd, 0x1b, 0x29, 0x0e, 0x5b, 0x0d, 0xaa,
  0xfe, 0xed, 0x25, 0x07, 0x1c, 0x10, 0x01, 0x1a, 0x28, 0x04, 0xf9, 0xf0,
  0xde, 0x28, 0x0c, 0xb4, 0xd3, 0xd2, 0xe8, 0x1c, 0x10, 0x47, 0x1b, 0xf9,
  0x04, 0xd0, 0x4b, 0x2a, 0xcf, 0x4e, 0xcc, 0x02, 0xcd, 0xcf, 0x39, 0x14,
  0x0e, 0x23, 0xde, 0x0c, 0xf9, 0xc2, 0x27, 0x11, 0xd6, 0x65, 0xff, 0xfd,
  0x02, 0x01, 0x74, 0x08, 0xe8, 0x1b, 0x15, 0x0f, 0x23, 0xd6, 0x12, 0x45,
  0xfb, 0x45, 0x28, 0xf1, 0xf2, 0xfb, 0x28, 0x04, 0x04, 0xf2, 0x2e, 0xea,
  0x2b, 0x21, 0x19, 0x31, 0x20, 0x41, 0x13, 0xfc, 0xe7, 0xf0, 0x31, 0x25,
  0x24, 0x0b, 0x06, 0x03, 0x1f, 0x08, 0xe4, 0x01, 0xf7, 0xd3, 0x04, 0x3c,
  0xfb, 0xe3, 0xc6, 0x0f, 0x02, 0x00, 0xcb, 0xdb, 0xc4, 0xfe, 0xdf, 0xf1,
  0xe5, 0xf5, 0x29, 0x2f, 0xfd, 0xc3, 0x0d, 0xd4, 0xf3, 0x1a, 0xfb, 0xce,
  0xc3, 0x05, 0x0a, 0x1a, 0xe4, 0x34, 0x79, 0xed, 0xc6, 0xe6, 0x11, 0xd3,
  0x16, 0xe9, 0x18, 0xfa, 0x0f, 0x38, 0xf5, 0xea, 0x5b, 0xeb, 0x0e, 0x21,
  0xeb, 0xf5, 0xe4, 0x33, 0x26, 0xe2, 0xe6, 0xf5, 0x1b, 0x17, 0xe1, 0xf8,
  0xd7, 0xfc, 0xce, 0xe7, 0xfc, 0x03, 0x0c, 0x35, 0xe9, 0x19, 0xfe, 0x07,
  0xde, 0x0b, 0x02, 0xf6, 0xdb, 0x0f, 0x44, 0x2c, 0x1e, 0xb4, 0x04, 0xed,
  0x04, 0xdd, 0x02, 0xfe, 0x02, 0x27, 0xf0, 0x0b, 0x35, 0xc9, 0xf8, 0xfc,
  0x08, 0x11, 0xec, 0xef, 0x29, 0x2c, 0x1d, 0x22, 0xe4, 0x47, 0x17, 0x0c,
  0x1f, 0x06, 0x25, 0x22, 0x08, 0x33, 0x3b, 0x1f, 0x05, 0xe3, 0xf6, 0x1e,
  0xf1, 0x24, 0x09, 0xcd, 0xf4, 0xfd, 0xf7, 0x19, 0xed, 0x0f, 0xfc, 0xf9,
  0xe0, 0x15, 0xf7, 0x00, 0x1d, 0xe4, 0x21, 0xe1, 0x0b, 0xf4, 0xe4, 0xfe,
  0x01, 0xe9, 0x13, 0xe4, 0x08, 0x01, 0x0c, 0x03, 0xfc, 0xee, 0xe0, 0x21,
  0xff, 0xde, 0x01, 0xf3, 0xfc, 0x2a, 0x2a, 0xfb, 0x22, 0xe4, 0x1e, 0x04,
  0xf9, 0x0f, 0xd9, 0xcb, 0x0f, 0xec, 0xf5, 0x10, 0x0e, 0xe7, 0x07, 0x16,
  0xe0, 0xec, 0x07, 0xf2, 0x0e, 0x1d, 0xd9, 0xef, 0x0d, 0xfe, 0x19, 0x19,
  0xf9, 0x02, 0x10, 0x09, 0x1a, 0xe3, 0xfe, 0x17, 0xe3, 0xf4, 0xdb, 0xee,
  0xf9, 0xfe, 0xd4, 0x2b, 0xe7, 0xf0, 0xeb, 0xdc, 0x12, 0xe7, 0xdd, 0xf5,
  0x02, 0xff, 0xf1, 0x10, 0x38, 0xeb, 0xe3, 0x38, 0xd3, 0xef, 0x00, 0xf6,
  0xf9, 0x17, 0xd3, 0xd5, 0xd6, 0x3b, 0xf0, 0x0b, 0xf8, 0xf8, 0xdc, 0x2d,
  0xdd, 0xe0, 0x1f, 0xec, 0x09, 0x0f, 0xf6, 0x06, 0x11, 0x00, 0x09, 0x09,
  0xfb, 0x21, 0x27, 0x11, 0x15, 0x31, 0xf4, 0xf7, 0x17, 0x18, 0x11, 0x0c,
  0xec, 0x42, 0xf3, 0xf3, 0x09, 0x12, 0xff, 0xfe, 0x2c, 0x03, 0xd9, 0x11,
  0x06, 0x14, 0x10, 0xe6, 0xe1, 0x23, 0xfb, 0xd1, 0x25, 0x0f, 0x07, 0x0d,
  0x1d, 0x0f, 0x0d, 0x17, 0xec, 0xe9, 0xf3, 0xed, 0x1f, 0x45, 0xdd, 0x12,
  0x21, 0xeb, 0xf5, 0x4d, 0x37, 0x45, 0xaf, 0x33, 0x1f, 0x0c, 0x26, 0xfd,
  0xfe, 0x16, 0x0c, 0x2d, 0xeb, 0x04, 0xf8, 0x5f, 0x26, 0x7f, 0x0d, 0x2c,
  0x1f, 0x08, 0x05, 0x26, 0xfc, 0x2a, 0xf6, 0xf5, 0x02, 0x05, 0x12, 0xdb,
  0xfd, 0xfc, 0xda, 0x0d, 0x11, 0x08, 0x1e, 0x28, 0xfd, 0x01, 0xfb, 0xe1,
  0xf5, 0x05, 0xe0, 0x04, 0x13, 0xfc, 0xc6, 0xee, 0x09, 0xe4, 0xe6, 0x14,
  0xe2, 0x41, 0xfb, 0x03, 0xeb, 0xe8, 0xf2, 0xf8, 0x0c, 0x10, 0xe4, 0xdc,
  0x09, 0xfe, 0xf5, 0xe5, 0x00, 0x23, 0xe1, 0xe6, 0x29, 0xd3, 0xf7, 0x32,
  0x0e, 0x08, 0xdb, 0x0a, 0xeb, 0xe7, 0x0a, 0x01, 0x0b, 0x16, 0x29, 0x0b,
  0xfc, 0xe0, 0x01, 0x44, 0xc5, 0x23, 0x05, 0xf1, 0xf8, 0x1d, 0x12, 0xf9,
  0x26, 0xea, 0x19, 0xf4, 0xfe, 0x01, 0xf6, 0xc7, 0x0f, 0xfe, 0xf3, 0xf7,
  0x0c, 0xfe, 0xf9, 0xf4, 0x29, 0xdb, 0x1c, 0x1d, 0x0f, 0xfe, 0xe4, 0xe6,
  0x04, 0x13, 0xd5, 0xe4, 0xf4, 0xf9, 0x23, 0xea, 0x03, 0x03, 0x03, 0xef,
  0xf5, 0x11, 0xf1, 0x09, 0xf3, 0xf9, 0xfe, 0x03, 0xf1, 0x2b, 0xf9, 0x16,
  0xfa, 0x0d, 0x19, 0x27, 0x33, 0x00, 0x2b, 0x22, 0xe2, 0xdd, 0x03, 0x08,
  0x01, 0x18, 0x1b, 0x04, 0xdb, 0x14, 0x05, 0x1d, 0xf8, 0x11, 0xf9, 0x0b,
  0xc7, 0xc8, 0x23, 0xff, 0x1c, 0x15, 0x02, 0xe7, 0xfb, 0x09, 0x12, 0x1b,
  0xee, 0x2d, 0x2a, 0x33, 0x03, 0x0f, 0x1c, 0x26, 0x24, 0x27, 0xf6, 0x1e,
  0x08, 0xe8, 0xe4, 0xe8, 0x1b, 0xee, 0x08, 0xeb, 0xf6, 0xe9, 0x0f, 0xfb,
  0x21, 0x0d, 0x33, 0x2b, 0x18, 0xea, 0x19, 0xf9, 0x19, 0x1b, 0x16, 0xe1,
  0x21, 0x28, 0x31, 0x29, 0x07, 0x1b, 0x32, 0x1f, 0x12, 0xc3, 0x09, 0x02,
  0xea, 0x20, 0xcc, 0xe5, 0x02, 0xd8, 0x57, 0x0d, 0xf3, 0x3b, 0xf6, 0xdf,
  0x06, 0xe6, 0xf4, 0xec, 0xec, 0xf2, 0xdf, 0xd2, 0x22, 0x0a, 0x22, 0x00,
  0x02, 0x1d, 0x1e, 0x19, 0x26, 0xc1, 0x00, 0xf0, 0xe1, 0xf1, 0x03, 0x18,
  0x14, 0x1a, 0xf7, 0x0d, 0xf9, 0xf8, 0x26, 0xf7, 0x03, 0xd6, 0xf4, 0x0e,
  0xe1, 0x0b, 0x14, 0xcf, 0xec, 0xfe, 0xd3, 0xdb, 0x09, 0x1a, 0xf9, 0x29,
  0xfa, 0xf0, 0xe3, 0xfc, 0xe9, 0x25, 0xf0, 0xea, 0xf1, 0x1d, 0x04, 0x07,
  0xff, 0x48, 0x19, 0x06, 0x1d, 0x08, 0xf7, 0x1d, 0x20, 0xff, 0xe3, 0xfe,
  0x09, 0x20, 0xeb, 0x12, 0x0f, 0x16, 0x1a, 0xf9, 0x08, 0xf4, 0x1d, 0xec,
  0x13, 0xd1, 0xd6, 0xfe, 0xe5, 0x13, 0xf9, 0xf9, 0xf3, 0xdd, 0x26, 0xe3,
  0x1f, 0xe6, 0x0a, 0xf7, 0xd1, 0xd2, 0x34, 0xff, 0x29, 0xfd, 0xd6, 0x23,
  0x18, 0x0b, 0xe5, 0x02, 0x41, 0xc3, 0x1f, 0xf2, 0x64, 0xf7, 0x06, 0xc2,
  0x0d, 0x3e, 0x08, 0x42, 0x1d, 0x01, 0x32, 0x15, 0x23, 0xff, 0xd9, 0x32,
  0x2f, 0xcf, 0x41, 0xd4, 0x26, 0x2c, 0xad, 0x2a, 0xda, 0x25, 0xf9, 0x11,
  0xf4, 0xde, 0x05, 0xef, 0xf4, 0x3c, 0x49, 0xf4, 0x11, 0xe6, 0x69, 0xa9,
  0xdf, 0x07, 0xd4, 0x13, 0xcd, 0x1a, 0x28, 0x35, 0x20, 0xd5, 0x1d, 0xd7,
  0xc3, 0x31, 0x15, 0xeb, 0x36, 0x1a, 0x23, 0xff, 0xfa, 0xeb, 0xad, 0xcb,
  0xe4, 0x03, 0xcf, 0xb8, 0x2a, 0x07, 0xab, 0xd2, 0x35, 0x2f, 0x29, 0x0b,
  0x27, 0x0c, 0xc8, 0xeb, 0x08, 0xc3, 0x16, 0x34, 0x07, 0x0e, 0xa1, 0x02,
  0x3e, 0x3b, 0xeb, 0x30, 0x0e, 0x1e, 0xfc, 0xdb, 0x1f, 0xde, 0xc1, 0x1c,
  0x10, 0x0e, 0x17, 0x1b, 0x2b, 0x1c, 0x1b, 0xe9, 0x30, 0xe2, 0xbb, 0x00,
  0x0e, 0x0b, 0xea, 0x3a, 0x07, 0x0e, 0x12, 0x08, 0x05, 0x3d, 0x1b, 0x0b,
  0xd5, 0x4e, 0xea, 0x0b, 0x3d, 0x55, 0xd8, 0x04, 0xdf, 0x19, 0xf5, 0xe3,
  0xff, 0x30, 0x04, 0x1c, 0xed, 0xa6, 0xf7, 0x27, 0xd5, 0xcc, 0xf5, 0xa9,
  0x30, 0x35, 0xcd, 0x08, 0xdc, 0xe4, 0x1e, 0xec, 0x36, 0xbd, 0x25, 0x25,
  0x23, 0xe4, 0xdd, 0xf1, 0x22, 0x04, 0x05, 0xff, 0x25, 0xfc, 0xc5, 0xfd,
  0x19, 0x26, 0x13, 0x34, 0x98, 0x35, 0xda, 0x22, 0xe6, 0xce, 0xfa, 0x04,
  0x42, 0xfc, 0x1c, 0x26, 0x22, 0x21, 0x1c, 0x04, 0x11, 0x1b, 0xd3, 0x2f,
  0x08, 0x17, 0xe6, 0x16, 0xec, 0xab, 0xf1, 0x09, 0xd4, 0x30, 0x1f, 0xe0,
  0xff, 0xcd, 0xd7, 0x00, 0xfe, 0x2e, 0xf6, 0xf5, 0xed, 0x17, 0x3a, 0x02,
  0xe7, 0xe4, 0xf2, 0x0d, 0xfc, 0xe4, 0x1c, 0xfd, 0x2b, 0x1e, 0x24, 0x3d,
  0x26, 0x3f, 0x06, 0x18, 0xf3, 0x9f, 0x0e, 0x0a, 0xcf, 0x2b, 0x13, 0x04,
  0xe8, 0x0c, 0x42, 0x26, 0xe7, 0x3a, 0xc8, 0xf5, 0x07, 0xdc, 0x27, 0x1d,
  0xcb, 0x3c, 0x3f, 0x3b, 0x3e, 0xe1, 0x4d, 0xe6, 0x02, 0xc2, 0xc7, 0x29,
  0x2c, 0x56, 0xf4, 0x35, 0xf2, 0x1b, 0x38, 0x30, 0x23, 0x4e, 0xea, 0x30,
  0x12, 0xc8, 0xf4, 0x17, 0xf8, 0xe2, 0xe5, 0xe9, 0xdf, 0xf3, 0xd2, 0x1a,
  0xc1, 0xfc, 0xdb, 0x10, 0xb8, 0x10, 0xc9, 0x14, 0x03, 0xee, 0x2a, 0x29,
  0xef, 0x24, 0x3d, 0x19, 0x18, 0xf9, 0x4b, 0x20, 0xcc, 0xb2, 0xca, 0xb9,
  0xbe, 0x30, 0xe2, 0xf1, 0x45, 0xec, 0x36, 0x47, 0xe5, 0xfa, 0x59, 0xeb,
  0x01, 0xdd, 0xfc, 0x1f, 0xc4, 0x3a, 0xc6, 0x15, 0x3b, 0xca, 0xe7, 0x1a,
  0x18, 0x0f, 0xd5, 0xef, 0x18, 0xae, 0xe5, 0x36, 0x36, 0x53, 0xf6, 0x10,
  0xd6, 0xd5, 0xf1, 0xe2, 0x3a, 0x7f, 0xfb, 0x03, 0xf0, 0xcd, 0xee, 0x03,
  0x17, 0xa9, 0xd8, 0xf8, 0xe1, 0x07, 0xfc, 0x02, 0x4a, 0x76, 0x19, 0xeb,
  0x08, 0x06, 0x33, 0x1d, 0x24, 0x1c, 0x1a, 0x04, 0x17, 0x20, 0xf4, 0xe5,
  0x2b, 0x16, 0xe2, 0x2c, 0x18, 0xf5, 0xf2, 0xf6, 0xf0, 0x4c, 0xe4, 0xeb,
  0x16, 0xc7, 0xe9, 0x2d, 0x36, 0x38, 0xf3, 0x11, 0xfe, 0xd1, 0xf0, 0x05,
  0x12, 0x2c, 0xd0, 0xc5, 0x22, 0x8b, 0xe1, 0x25, 0x27, 0x2b, 0x92, 0xfe,
  0x2b, 0xb8, 0xe9, 0x1c, 0xec, 0xe5, 0xd9, 0xd1, 0x22, 0xb8, 0x12, 0xf7,
  0x47, 0x2b, 0xcf, 0x12, 0x27, 0x06, 0x33, 0x18, 0xff, 0xf6, 0x0b, 0x13,
  0xfc, 0xff, 0xde, 0xe9, 0x4b, 0x7f, 0xfb, 0xfb, 0x1a, 0xfb, 0x21, 0xfe,
  0x03, 0x2b, 0xea, 0xe4, 0xe5, 0x1f, 0x08, 0xf0, 0x06, 0xf5, 0xcb, 0x0a,
  0xfe, 0xfa, 0xe9, 0xfd, 0x2d, 0x32, 0xc8, 0xbb, 0xcf, 0xb8, 0x03, 0xf0,
  0x1b, 0x30, 0xc2, 0xd8, 0xf0, 0xe0, 0xf0, 0x04, 0x28, 0x28, 0xc9, 0xb8,
  0x19, 0xd0, 0x01, 0x01, 0x2e, 0x06, 0x9c, 0xd9, 0x16, 0x08, 0x12, 0xf6,
  0x19, 0xfb, 0x16, 0xe4, 0xff, 0xc7, 0x25, 0x0e, 0xfd, 0x27, 0xe6, 0x0d,
  0xf9, 0x06, 0x04, 0x2b, 0x00, 0x0e, 0x29, 0x29, 0x0d, 0x37, 0x25, 0xf7,
  0x05, 0x17, 0x11, 0x0b, 0x34, 0xff, 0xfd, 0x18, 0xf9, 0xc5, 0xc6, 0xc9,
  0xfa, 0xfb, 0xf7, 0xd1, 0x15, 0xf1, 0xcb, 0xda, 0x09, 0x0b, 0x18, 0xee,
  0x10, 0xed, 0xe3, 0xc3, 0x2c, 0xe4, 0x0d, 0xf3, 0x34, 0x14, 0xc3, 0x00,
  0x2f, 0xe6, 0xfc, 0xf7, 0x29, 0xff, 0x0b, 0xec, 0x34, 0xf9, 0x13, 0xcd,
  0xeb, 0x13, 0xb7, 0x1d, 0x1b, 0xf2, 0x11, 0x0a, 0x23, 0x11, 0x18, 0xf4,
  0xfa, 0x0c, 0x16, 0x00, 0xfa, 0x13, 0x02, 0x1d, 0x14, 0x11, 0xd4, 0xe0,
  0x16, 0xdf, 0xea, 0x18, 0x1a, 0x10, 0xdb, 0xf9, 0xf9, 0x31, 0xf3, 0xf5,
  0x0a, 0xd0, 0x0b, 0x22, 0xf9, 0xf4, 0xd7, 0xd6, 0x0e, 0xd9, 0xd6, 0xd8,
  0xe5, 0xeb, 0xc6, 0xec, 0xf0, 0x05, 0xd6, 0xee, 0x0c, 0x61, 0xe6, 0xdc,
  0x47, 0xdb, 0xeb, 0x1c, 0x03, 0x20, 0xc9, 0x00, 0xea, 0x1b, 0xfc, 0xe9,
  0x17, 0x2e, 0xfc, 0xe0, 0xee, 0xf9, 0xc0, 0x0b, 0xe0, 0x08, 0xe5, 0x0e,
  0x19, 0x13, 0xe3, 0xfa, 0xfd, 0x17, 0x28, 0x24, 0xd9, 0x29, 0xf6, 0xfd,
  0x13, 0x22, 0x18, 0xf3, 0xe6, 0x22, 0x07, 0x01, 0xf8, 0xed, 0xf1, 0x03,
  0xf5, 0xfd, 0xcd, 0xe4, 0xf5, 0x14, 0xf9, 0x05, 0xea, 0x13, 0x19, 0x0f,
  0xfd, 0xba, 0xf8, 0x15, 0x0c, 0xe4, 0xc2, 0xf3, 0x12, 0x1f, 0xce, 0xe3,
  0x0e, 0x03, 0x25, 0x34, 0x26, 0xec, 0xf6, 0xec, 0x06, 0xf5, 0xc8, 0xb5,
  0xf5, 0xf6, 0xca, 0x1b, 0x02, 0x31, 0xf2, 0x0e, 0x1d, 0xc4, 0x00, 0x22,
  0x05, 0xfd, 0xfb, 0xce, 0x1e, 0xf9, 0xd7, 0x0a, 0xe1, 0x06, 0xe4, 0x09,
  0x17, 0xfa, 0x01, 0xf7, 0xe1, 0x17, 0x25, 0xfe, 0xe9, 0x11, 0x2d, 0xe7,
  0xe8, 0x16, 0xe5, 0xf9, 0xe1, 0xf8, 0x03, 0xfb, 0x17, 0xbf, 0xc6, 0xd0,
  0xe9, 0xf0, 0xf1, 0x0d, 0x01, 0x1d, 0x1b, 0xf9, 0xee, 0xec, 0x14, 0x08,
  0x10, 0x20, 0xee, 0x20, 0x2a, 0x02, 0x05, 0xef, 0x0a, 0xd7, 0x11, 0x19,
  0x14, 0x55, 0x06, 0xd1, 0xee, 0x04, 0x12, 0x35, 0x29, 0x2b, 0x4f, 0xf1,
  0x25, 0xf6, 0xdc, 0xfd, 0x2e, 0x17, 0x0d, 0x44, 0x04, 0xf3, 0x0a, 0x5e,
  0xe4, 0xfd, 0xf7, 0x1f, 0xe3, 0xee, 0xf3, 0x15, 0xfc, 0xe0, 0x20, 0xf1,
  0xdf, 0xd7, 0xda, 0xd7, 0xff, 0xf9, 0xe1, 0xe1, 0x26, 0xfb, 0xd3, 0x0d,
  0xe3, 0xcc, 0xfe, 0x20, 0x0f, 0x1d, 0x22, 0x35, 0x03, 0x1e, 0x0d, 0x1d,
  0xfc, 0xf7, 0x08, 0x13, 0x13, 0xe2, 0xe1, 0x1c, 0x0e, 0x2b, 0x1b, 0x27,
  0x3c, 0x3a, 0x15, 0x10, 0x0f, 0x22, 0xef, 0xed, 0xef, 0x08, 0x0f, 0xd9,
  0x0d, 0xd6, 0xfd, 0x16, 0x21, 0x10, 0x17, 0x34, 0xd8, 0x11, 0x31, 0x15,
  0x21, 0x28, 0x13, 0xfc, 0xf5, 0x05, 0xe9, 0xed, 0xed, 0x05, 0x07, 0x1c,
  0x1a, 0x04, 0xf3, 0x05, 0xdb, 0xea, 0xf3, 0x1b, 0xe5, 0x27, 0xed, 0x16,
  0x15, 0xf7, 0xe8, 0xdd, 0x14, 0xfa, 0x39, 0x0a, 0xfd, 0xf0, 0x0d, 0xe4,
  0x10, 0x3f, 0x2d, 0xe2, 0x02, 0x15, 0xf0, 0xf0, 0x0f, 0xe4, 0x1f, 0x03,
  0xf6, 0xec, 0xe5, 0x15, 0xe7, 0x1c, 0x13, 0xea, 0xfb, 0x06, 0x28, 0x28,
  0x05, 0x2a, 0x20, 0x13, 0xf1, 0xec, 0x10, 0x08, 0x01, 0xfe, 0x63, 0xec,
  0xfb, 0xed, 0xc6, 0x03, 0xe4, 0x1b, 0xfd, 0x1c, 0x1f, 0x43, 0xe4, 0xfa,
  0x07, 0xfe, 0x31, 0xcf, 0x08, 0x08, 0x07, 0xf4, 0x18, 0x18, 0x14, 0xd5,
  0x13, 0xea, 0xd0, 0x19, 0xe9, 0x29, 0x2b, 0xcf, 0x37, 0x17, 0xf1, 0xe1,
  0x1d, 0x20, 0x14, 0x35, 0xe3, 0x0d, 0x02, 0x1d, 0xe5, 0xec, 0x2f, 0x0f,
  0x1e, 0x4e, 0x22, 0x1d, 0x2f, 0xbc, 0xd8, 0xf1, 0xf3, 0x5f, 0xf9, 0xe6,
  0x02, 0xee, 0x09, 0x3f, 0x25, 0x1d, 0xf8, 0xdb, 0x46, 0xc6, 0x15, 0x1e,
  0x18, 0x55, 0xb9, 0xc8, 0x5a, 0xc7, 0xda, 0x0d, 0x21, 0x0a, 0xb5, 0x38,
  0xee, 0x1a, 0x03, 0x02, 0x3b, 0x1c, 0xf2, 0x01, 0x4a, 0xd3, 0xf0, 0xe2,
  0xd6, 0xf5, 0x81, 0x35, 0x11, 0xe9, 0xff, 0xe4, 0x1d, 0xef, 0x19, 0x02,
  0x30, 0x19, 0xe4, 0x39, 0xf3, 0xfc, 0x23, 0x2a, 0x31, 0x36, 0xfa, 0xf2,
  0x03, 0x1d, 0x14, 0x2a, 0x23, 0x02, 0x2d, 0xf3, 0xda, 0x11, 0x3b, 0xf9,
  0xf3, 0xfc, 0xd3, 0x2d, 0xf4, 0xcf, 0xe0, 0xd4, 0x19, 0xef, 0xa2, 0xcb,
  0xf7, 0x0b, 0xb1, 0xfb, 0xe3, 0x0a, 0xf9, 0x4f, 0x20, 0x05, 0xed, 0x01,
  0xf5, 0xed, 0xa0, 0xe2, 0x53, 0x27, 0xaf, 0xf6, 0x1c, 0x26, 0x0a, 0x19,
  0x0e, 0x22, 0x33, 0x17, 0xbd, 0x14, 0xc5, 0x0a, 0xf2, 0x10, 0xbd, 0xf5,
  0x24, 0x10, 0xff, 0xfc, 0x1f, 0x19, 0xfc, 0x38, 0xf1, 0x23, 0xf4, 0xe5,
  0xf6, 0x08, 0x0f, 0xe6, 0xd6, 0x4a, 0x22, 0x20, 0x1c, 0x25, 0x25, 0xf5,
  0x17, 0xfa, 0xf7, 0x0b, 0xf0, 0xad, 0x48, 0xd8, 0x03, 0xdd, 0x14, 0xd7,
  0xe1, 0x0f, 0xf2, 0x29, 0x16, 0x04, 0xdf, 0x1c, 0xf1, 0x06, 0x29, 0x12,
  0x30, 0xe5, 0x1c, 0xf5, 0x08, 0xd1, 0xef, 0xd7, 0x02, 0x11, 0x1b, 0x0f,
  0xdd, 0x30, 0x04, 0xf4, 0xfc, 0xda, 0x18, 0x25, 0xfe, 0xf3, 0x3e, 0x2c,
  0x06, 0x3e, 0x20, 0xe3, 0xe8, 0xd5, 0x10, 0x3e, 0x23, 0xdf, 0x13, 0x1d,
  0x33, 0xe6, 0x3f, 0xfe, 0xf2, 0x2e, 0xf7, 0x81, 0xe4, 0xdb, 0x2f, 0x25,
  0x04, 0xe3, 0xfe, 0x16, 0x16, 0xe7, 0xfb, 0xcc, 0x04, 0xeb, 0x09, 0xca,
  0xad, 0x9d, 0xf1, 0xf6, 0xda, 0xe2, 0xd3, 0xfe, 0xdb, 0x6d, 0x0f, 0xdc,
  0x24, 0xee, 0x15, 0x2d, 0x15, 0x16, 0xe4, 0xe0, 0xde, 0xe1, 0x17, 0xdb,
  0x00, 0x13, 0x2d, 0x2e, 0xee, 0xe7, 0x39, 0x1b, 0xef, 0x23, 0x02, 0x34,
  0x21, 0x0b, 0x1b, 0x2e, 0x0c, 0x03, 0x25, 0x24, 0x20, 0x07, 0x14, 0x2b,
  0x11, 0xf3, 0x12, 0x28, 0x14, 0x02, 0x0c, 0x2a, 0x3d, 0xa0, 0xfa, 0x3a,
  0xd5, 0x07, 0xf4, 0xc8, 0x16, 0x1b, 0x18, 0x03, 0x35, 0x3c, 0x06, 0xf6,
  0x38, 0xdc, 0xc2, 0xf8, 0xe6, 0x55, 0xef, 0xaf, 0x2f, 0xff, 0x2c, 0xdc,
  0x06, 0xe9, 0x05, 0x05, 0xf9, 0x10, 0xdf, 0x03, 0x09, 0x13, 0x26, 0x33,
  0x24, 0x0a, 0xed, 0xcd, 0xf5, 0x1b, 0xf7, 0xfb, 0x0c, 0x18, 0x2c, 0xfd,
  0x20, 0x0c, 0xfd, 0x09, 0x00, 0xe9, 0x24, 0xf8, 0xe5, 0xfe, 0x13, 0xf6,
  0xde, 0xd8, 0x30, 0xec, 0x14, 0xe5, 0x1a, 0x07, 0xc8, 0xfd, 0x30, 0xfa,
  0xe3, 0x0d, 0x03, 0xfa, 0xda, 0xee, 0xc5, 0x12, 0xf5, 0x00, 0xf1, 0x0d,
  0x06, 0x01, 0x11, 0xe6, 0x08, 0x0b, 0x3a, 0xe3, 0x13, 0xcf, 0xca, 0xe0,
  0x0d, 0x24, 0x0e, 0xf3, 0x30, 0x57, 0xf2, 0xef, 0x14, 0xf0, 0x23, 0x0c,
  0x2d, 0xf0, 0xba, 0xd6, 0x19, 0xe5, 0xde, 0xf2, 0x14, 0x26, 0xf8, 0xd2,
  0x2e, 0xee, 0xfc, 0xf9, 0x11, 0xdf, 0xd4, 0xd9, 0x0a, 0xdc, 0xf8, 0xfe,
  0xe5, 0x14, 0x07, 0x16, 0xfb, 0x2b, 0xe3, 0x24, 0x27, 0x08, 0x06, 0xea,
  0x10, 0xdf, 0xd4, 0x38, 0xd9, 0xef, 0x1b, 0x14, 0x1f, 0x10, 0xee, 0xfd,
  0x0f, 0x26, 0xf0, 0xd8, 0x0e, 0xff, 0x28, 0xf9, 0x1f, 0x13, 0xbb, 0xf4,
  0x04, 0x0b, 0xf3, 0xf3, 0xf8, 0x2a, 0x2a, 0x04, 0x1f, 0xfa, 0x24, 0xfc,
  0x08, 0xd2, 0xf1, 0x03, 0x1c, 0xf6, 0xf2, 0xf7, 0x33, 0x16, 0x12, 0x06,
  0x22, 0xe7, 0xbf, 0x0a, 0x1f, 0x23, 0xf7, 0x20, 0xee, 0xf3, 0x24, 0x24,
  0x03, 0xd7, 0x32, 0x26, 0xd2, 0xff, 0xe6, 0x02, 0x0c, 0x14, 0xfe, 0x35,
  0x25, 0x13, 0x20, 0xe9, 0x2d, 0x00, 0x10, 0x1b, 0x33, 0xf3, 0x5c, 0x22,
  0x03, 0xfc, 0x38, 0xf7, 0x08, 0xe9, 0x0c, 0x06, 0x17, 0xe4, 0x15, 0x12,
  0xf0, 0xe7, 0x3c, 0x16, 0xe6, 0x0a, 0x1a, 0xf8, 0x23, 0x36, 0x2f, 0xff,
  0x09, 0xf0, 0x02, 0x0a, 0x10, 0x25, 0x61, 0x0c, 0x18, 0x09, 0x41, 0x13,
  0x9a, 0x5d, 0x30, 0xaa, 0xef, 0x4a, 0xf2, 0x63, 0x24, 0xf8, 0x92, 0xda,
  0xb6, 0x8e, 0xe7, 0x52, 0xb6, 0x61, 0x29, 0xd8, 0x69, 0xad, 0xab, 0xd5,
  0x4e, 0xb9, 0x2e, 0x57, 0x95, 0x97, 0x46, 0x3e, 0x60, 0x3a, 0x09, 0xcb,
  0x88, 0x8a, 0x86, 0xe4, 0x24, 0x16, 0x16, 0x3d, 0xc4, 0xdd, 0x16, 0xa9,
  0xc3, 0x9a, 0x09, 0x05, 0x2e, 0xa5, 0x92, 0xb5, 0x5a, 0x45, 0x25, 0x15,
  0x44, 0xcc, 0x3e, 0x1d, 0xe5, 0x04, 0x34, 0x46, 0xce, 0x63, 0x4f, 0xb3,
  0xda, 0x51, 0x3a, 0x67, 0xa9, 0x93, 0x59, 0xde, 0x44, 0x9b, 0x06, 0xbc,
  0x96, 0xb0, 0xa8, 0x1e, 0x81, 0x68, 0x39, 0xcd, 0xc1, 0x5a, 0xca, 0x9d,
  0x14, 0x85, 0x53, 0xdf, 0xa1, 0xf0, 0xce, 0x1f, 0xb2, 0x59, 0xca, 0x2a,
  0xc0, 0xf1, 0x0d, 0xc2, 0xc9, 0xa8, 0x13, 0xd5, 0xf7, 0x54, 0x8d, 0xe5,
  0xda, 0xc9, 0x49, 0x15, 0xb5, 0x48, 0x2e, 0xb0, 0xfb, 0x59, 0xf2, 0xac,
  0xe4, 0xc0, 0x20, 0x84, 0xe2, 0x3b, 0x22, 0x4c, 0x9d, 0x49, 0x3a, 0x49,
  0x0a, 0xa4, 0xd7, 0xb7, 0xdc, 0x4b, 0x64, 0xa3, 0xeb, 0x10, 0xbc, 0x40,
  0x34, 0xe9, 0x41, 0xde, 0xc0, 0x92, 0xe6, 0x2b, 0xdd, 0x20, 0x18, 0x86,
  0xee, 0x91, 0x32, 0x1f, 0x89, 0x1a, 0xf5, 0xff, 0x4b, 0x61, 0xbe, 0x8b,
  0x05, 0x4e, 0x49, 0x12, 0xf7, 0x54, 0xc7, 0x0d, 0xcc, 0xd2, 0x9d, 0x96,
  0xf9, 0xb9, 0x15, 0x48, 0xdc, 0x1e, 0xd3, 0xd0, 0xb5, 0x00, 0x2f, 0x42,
  0x42, 0x92, 0x11, 0x05, 0x61, 0xd9, 0x54, 0xf5, 0x96, 0x3d, 0xfa, 0xd3,
  0x1c, 0xd2, 0x15, 0xcb, 0xd9, 0x18, 0xba, 0xf2, 0x22, 0x58, 0xe1, 0x00,
  0xcc, 0xda, 0x5a, 0xf1, 0x49, 0x4e, 0x1d, 0x54, 0xcb, 0x15, 0x4a, 0xd5,
  0x1d, 0x16, 0xa9, 0xbb, 0x8d, 0xac, 0x3b, 0xba, 0xdc, 0x04, 0xad, 0x1b,
  0xdf, 0x54, 0x15, 0xd5, 0x20, 0xfb, 0x2e, 0x37, 0xc2, 0x3a, 0xaf, 0x0f,
  0xd7, 0xf6, 0xde, 0x5c, 0xe9, 0xd7, 0x5a, 0x5d, 0xc5, 0x3c, 0x53, 0xfc,
  0xd1, 0xd3, 0xe1, 0xcb, 0x92, 0x8d, 0x3c, 0x4c, 0x4a, 0xa6, 0x10, 0xaa,
  0xb9, 0xff, 0xe4, 0x38, 0xed, 0x0c, 0x1f, 0x42, 0x28, 0xe3, 0x42, 0x47,
  0xa6, 0xf7, 0xb3, 0x8e, 0x4c, 0xdd, 0x60, 0xbe, 0x59, 0x1d, 0xe8, 0x24,
  0x9f, 0xc9, 0xd4, 0x52, 0xce, 0x34, 0x60, 0xa1, 0xfd, 0x1d, 0xbf, 0xde,
  0x62, 0x29, 0x41, 0xe7, 0x48, 0xe4, 0x52, 0xca, 0x9d, 0xbf, 0x65, 0x33,
  0xd6, 0xed, 0x83, 0x38, 0x4a, 0x21, 0xee, 0x18, 0x38, 0xb2, 0x4d, 0x05,
  0x5f, 0xe7, 0x34, 0x29, 0x9c, 0x84, 0xdc, 0x3c, 0x4b, 0x2a, 0x32, 0xc5,
  0x05, 0xc1, 0x1e, 0xb7, 0xb7, 0xc9, 0xc9, 0xe5, 0x2b, 0xcd, 0x0c, 0xcc,
  0x3b, 0x91, 0x57, 0x81, 0x9a, 0x84, 0x40, 0x3b, 0x50, 0x59, 0x61, 0xc9,
  0x87, 0x56, 0xbd, 0xc9, 0xe8, 0xa5, 0xc8, 0xab, 0x20, 0x26, 0x3b, 0xbc,
  0xc3, 0x66, 0xb5, 0x0a, 0xf4, 0x0a, 0x13, 0x14, 0x15, 0xf1, 0x06, 0x28,
  0xf4, 0x14, 0xef, 0x26, 0xe4, 0x06, 0x0f, 0xfe, 0x05, 0x09, 0xf0, 0xe5,
  0x13, 0xa5, 0x0d, 0x25, 0xf4, 0x00, 0x1f, 0xea, 0xeb, 0xf7, 0xe4, 0x03,
  0xfd, 0x16, 0xf3, 0xff, 0x0c, 0xcd, 0x41, 0x0d, 0xf6, 0x24, 0x3a, 0xda,
  0xe6, 0xc4, 0x1a, 0xfb, 0xfb, 0x30, 0x0d, 0x01, 0xf9, 0x13, 0x1b, 0x18,
  0x0b, 0x17, 0x30, 0x09, 0xdc, 0xc1, 0x21, 0xd4, 0xf8, 0x19, 0x1d, 0xf2,
  0xf9, 0x27, 0xf4, 0x00, 0x16, 0xdb, 0x05, 0xe9, 0x94, 0x81, 0x14, 0xfd,
  0x14, 0x07, 0x20, 0xfb, 0x05, 0x1e, 0x2c, 0x2b, 0x24, 0xef, 0x12, 0x0d,
  0x0b, 0x17, 0x0a, 0xff, 0x11, 0xe5, 0x09, 0xea, 0x09, 0x1d, 0x1c, 0x10,
  0x28, 0x07, 0xff, 0x2a, 0x00, 0xed, 0x3d, 0x27, 0x06, 0x13, 0x20, 0x1c,
  0x03, 0xce, 0x09, 0x2d, 0xea, 0x43, 0x27, 0x0e, 0x06, 0xe0, 0x29, 0x0c,
  0x1a, 0x1d, 0x16, 0x17, 0x1e, 0xfa, 0x29, 0x02, 0xfa, 0x22, 0xdd, 0xf8,
  0xf9, 0xf6, 0x0d, 0x1b, 0x21, 0x1c, 0xf9, 0x11, 0x16, 0x21, 0x16, 0x05,
  0xf3, 0x1d, 0xfe, 0x15, 0x0d, 0xf0, 0x21, 0xef, 0xe5, 0xf6, 0xf9, 0xf8,
  0xfa, 0x3d, 0x16, 0x21, 0xfe, 0x09, 0xf8, 0xf5, 0xe2, 0xd5, 0x1a, 0x2d,
  0x05, 0x24, 0xe9, 0x11, 0xea, 0x10, 0x1d, 0x04, 0xf9, 0x1e, 0x10, 0x24,
  0x16, 0xf7, 0x27, 0xe4, 0x08, 0x10, 0xfe, 0x06, 0x20, 0xf1, 0x2a, 0x15,
  0xe7, 0x22, 0x0f, 0x13, 0x07, 0x0e, 0x09, 0x12, 0x0e, 0xed, 0x1d, 0x29,
  0x06, 0x2b, 0x27, 0x10, 0x35, 0x05, 0x04, 0x17, 0xe4, 0xe7, 0xf3, 0x0b,
  0x24, 0x10, 0x14, 0x0e, 0xfb, 0x22, 0xf4, 0x16, 0x23, 0xf2, 0x18, 0x2d,
  0xe9, 0xf4, 0x07, 0xf5, 0xf3, 0xfb, 0xfb, 0xf2, 0x1f, 0xcf, 0x07, 0x13,
  0x12, 0xf4, 0x0e, 0xd9, 0xf2, 0x10, 0x36, 0x13, 0xd9, 0x09, 0x02, 0xf6,
  0xea, 0xd1, 0x21, 0x10, 0x02, 0x00, 0x24, 0xf1, 0xf3, 0x0c, 0x13, 0xf4,
  0x09, 0x04, 0xea, 0xf9, 0xef, 0xe4, 0x1e, 0x30, 0x0d, 0x43, 0x16, 0xf8,
  0x07, 0x17, 0x25, 0x1b, 0x07, 0x1b, 0xed, 0x1a, 0xe1, 0x0d, 0xed, 0xf3,
  0x20, 0x0a, 0xf5, 0xf1, 0x15, 0xe4, 0xe7, 0x0a, 0xe8, 0xe0, 0x17, 0x14,
  0x09, 0xff, 0xe7, 0xe9, 0x08, 0xc8, 0xb8, 0xf9, 0x07, 0x29, 0xe1, 0x08,
  0x0d, 0x05, 0xe9, 0x12, 0x01, 0xf7, 0x0f, 0xeb, 0x03, 0x0f, 0x49, 0xf9,
  0xf2, 0x16, 0x0d, 0xea, 0xec, 0x16, 0xf9, 0xdc, 0xf8, 0x28, 0xdb, 0xe4,
  0x1d, 0x27, 0x37, 0x29, 0xc8, 0xd0, 0x2b, 0xe9, 0xf0, 0xf8, 0xec, 0xdd,
  0xd9, 0x10, 0x01, 0xf1, 0x08, 0x0d, 0x11, 0xec, 0x0a, 0x13, 0x05, 0xf8,
  0x03, 0xd0, 0xeb, 0x17, 0x0f, 0x2c, 0xd5, 0xed, 0x0d, 0xf1, 0xcf, 0xec,
  0xfe, 0x05, 0xd8, 0x0c, 0xe7, 0xf6, 0x04, 0xf4, 0xfc, 0xe7, 0xd1, 0xec,
  0x0c, 0xf2, 0xb8, 0xdc, 0x0c, 0x15, 0xca, 0x01, 0x1e, 0xec, 0xf4, 0xe1,
  0x0b, 0xf6, 0x03, 0x05, 0x20, 0xf2, 0x15, 0x19, 0xee, 0xf8, 0x28, 0xf9,
  0xce, 0xf0, 0xdb, 0xda, 0xeb, 0x28, 0xdf, 0xde, 0xfa, 0x04, 0xcb, 0x0d,
  0xea, 0xc6, 0x27, 0x05, 0x09, 0xef, 0xe9, 0xff, 0xf0, 0xf8, 0xe4, 0xc1,
  0xcf, 0xec, 0xf5, 0x14, 0x0c, 0x13, 0xeb, 0xd9, 0xf7, 0x0f, 0x1e, 0xfb,
  0x02, 0xe0, 0xaa, 0xad, 0x16, 0xfb, 0x01, 0xf3, 0xf8, 0x07, 0x01, 0xec,
  0xf6, 0x21, 0x0e, 0xe7, 0xfe, 0xea, 0xec, 0xe9, 0x27, 0xe3, 0x03, 0xe7,
  0xea, 0x16, 0x0d, 0x02, 0x0c, 0xe6, 0x1c, 0xef, 0x11, 0x35, 0xe1, 0xfa,
  0xf9, 0xf7, 0x09, 0x12, 0x18, 0x29, 0x30, 0xfd, 0xe6, 0xc6, 0xfb, 0xf8,
  0xdc, 0xef, 0xf7, 0xd7, 0x06, 0xe0, 0xf3, 0xdd, 0xfa, 0xe4, 0xdc, 0xf1,
  0xf4, 0xdb, 0xf2, 0xf1, 0x0c, 0xf1, 0xcf, 0xf7, 0xf8, 0xdc, 0x16, 0x0b,
  0x0b, 0x1e, 0xbc, 0x01, 0x20, 0xda, 0x1c, 0x14, 0xfa, 0xf3, 0x0b, 0xfd,
  0x2f, 0xe4, 0x0f, 0x12, 0xf6, 0x16, 0xf8, 0x08, 0xea, 0xf6, 0x2e, 0xfc,
  0xff, 0x11, 0xf3, 0x06, 0x11, 0x13, 0x09, 0x11, 0xce, 0x10, 0xe9, 0x01,
  0xf1, 0x12, 0x1a, 0xfb, 0x15, 0x02, 0xdc, 0x04, 0x14, 0xeb, 0x0e, 0x06,
  0x11, 0x27, 0xd4, 0xed, 0x0c, 0xe1, 0xeb, 0xeb, 0x15, 0xe2, 0xf4, 0xd8,
  0xea, 0xe2, 0x04, 0xd3, 0xf0, 0xf4, 0xc4, 0xea, 0x07, 0xe1, 0x1e, 0xf1,
  0xf3, 0x05, 0x07, 0xfc, 0xf5, 0xfa, 0x24, 0x1b, 0x09, 0x1a, 0xed, 0x0e,
  0x19, 0x0b, 0xff, 0x17, 0xf0, 0x2b, 0x1b, 0xef, 0x15, 0xe1, 0xd4, 0x16,
  0xf0, 0x01, 0x02, 0x36, 0x18, 0x0e, 0x0e, 0x1c, 0x0b, 0xfd, 0xf1, 0x14,
  0xd1, 0x01, 0x81, 0x08, 0x14, 0x03, 0x07, 0x1a, 0xf8, 0x1f, 0x10, 0x12,
  0x12, 0x11, 0x2d, 0x10, 0xff, 0x2e, 0xcc, 0x29, 0x02, 0xf5, 0x13, 0x16,
  0x17, 0xf0, 0x07, 0x01, 0x25, 0xe9, 0x18, 0x03, 0x03, 0xfa, 0xe2, 0x11,
  0x03, 0xf7, 0x33, 0x0a, 0x22, 0xe3, 0x16, 0xee, 0xf7, 0x35, 0x01, 0x06,
  0xf5, 0x05, 0xe5, 0x21, 0xfd, 0x21, 0x12, 0xf8, 0xe8, 0xd1, 0x02, 0x03,
  0x07, 0x19, 0x0a, 0x14, 0x1f, 0xcf, 0xd7, 0xfe, 0xda, 0xfd, 0xe8, 0x25,
  0xf9, 0xc9, 0xec, 0xdf, 0xd5, 0xfb, 0xe8, 0xf4, 0xc7, 0xf8, 0xbd, 0x00,
  0xe5, 0x09, 0xcb, 0x00, 0xe7, 0x0a, 0xf6, 0x0e, 0xf1, 0x05, 0xda, 0xfb,
  0xff, 0x03, 0xef, 0x18, 0xe8, 0xe3, 0x09, 0xe7, 0xf1, 0x13, 0xe9, 0xe7,
  0x0f, 0x09, 0x03, 0xd4, 0x07, 0x27, 0x04, 0xfe, 0x06, 0x00, 0x2a, 0xfb,
  0x06, 0xde, 0x0d, 0x17, 0xee, 0x00, 0x07, 0xd6, 0x19, 0x06, 0x1d, 0xee,
  0x16, 0x24, 0xed, 0x1c, 0xe4, 0xec, 0xf3, 0xfa, 0xfb, 0x0a, 0xce, 0xd4,
  0xde, 0xd3, 0x06, 0x0f, 0xd7, 0xd0, 0x05, 0x07, 0xcc, 0xf6, 0xe1, 0xdd,
  0xd2, 0xf5, 0xd1, 0x01, 0xfc, 0xd5, 0x28, 0xec, 0xfb, 0x04, 0xf3, 0xd2,
  0x30, 0x0d, 0xdc, 0xe7, 0x0e, 0x03, 0xec, 0xd2, 0x12, 0x14, 0x17, 0x40,
  0x2b, 0x06, 0xec, 0x30, 0x1c, 0xee, 0x0b, 0x18, 0x13, 0x33, 0xf3, 0xf2,
  0x12, 0x0f, 0xe5, 0x1c, 0xec, 0xfe, 0xa3, 0xf1, 0xf0, 0xe0, 0x28, 0xff,
  0x1b, 0x10, 0xfd, 0x13, 0x0d, 0x04, 0x11, 0x58, 0xfc, 0xd2, 0xda, 0x2c,
  0x11, 0xe1, 0x18, 0xd9, 0x1c, 0xfd, 0x7a, 0x3f, 0x2f, 0xd3, 0x10, 0x64,
  0xa1, 0xfa, 0xe0, 0x3f, 0x19, 0xf1, 0xf7, 0x09, 0xde, 0x1c, 0x15, 0x53,
  0xfb, 0xe9, 0xe4, 0x77, 0xac, 0xbb, 0xd9, 0xf1, 0x29, 0xcc, 0x27, 0xee,
  0xdb, 0xf2, 0x05, 0x1b, 0x23, 0x04, 0x23, 0x22, 0xf6, 0x05, 0xee, 0xe7,
  0xd0, 0x14, 0xf7, 0x17, 0x0b, 0x1d, 0x17, 0x30, 0x3a, 0x0a, 0x13, 0x1b,
  0xf0, 0x1e, 0x1a, 0x11, 0x3c, 0x3e, 0x00, 0xe7, 0x00, 0xfb, 0x42, 0x10,
  0xfe, 0x22, 0x1d, 0x35, 0x10, 0xd3, 0x28, 0x12, 0xdf, 0x2c, 0xf1, 0xfc,
  0x20, 0x0d, 0x30, 0x21, 0x2f, 0xff, 0x19, 0x12, 0xcc, 0xa3, 0x6b, 0x12,
  0xf2, 0x06, 0x02, 0x28, 0xf9, 0xf5, 0x32, 0x5d, 0x03, 0x65, 0x1d, 0x21,
  0xa3, 0x9b, 0x1b, 0xfc, 0xd1, 0x47, 0x11, 0xf6, 0x29, 0xe1, 0xef, 0xf5,
  0x13, 0x28, 0xcb, 0xeb, 0x0e, 0xf1, 0xc8, 0x2d, 0xd4, 0xf7, 0x10, 0xfd,
  0xf9, 0xec, 0x01, 0xe8, 0xef, 0xdd, 0xe7, 0xe7, 0x17, 0xea, 0xc2, 0x0a,
  0x40, 0xe3, 0x25, 0x3a, 0x20, 0xe0, 0xf6, 0xca, 0x23, 0x15, 0x45, 0xde,
  0x28, 0x19, 0x00, 0x23, 0x1e, 0x1a, 0x39, 0x01, 0x2c, 0xfd, 0x31, 0x3e,
  0x50, 0x2b, 0x5d, 0x16, 0xb1, 0x81, 0x5b, 0x07, 0xe8, 0x6a, 0x27, 0xe7,
  0x10, 0x05, 0x2f, 0x36, 0x01, 0x16, 0x22, 0xf3, 0x09, 0xbc, 0x3a, 0xe3,
  0x03, 0xfc, 0x1e, 0xeb, 0x3a, 0xd0, 0xff, 0xe8, 0x04, 0xed, 0xe2, 0xc6,
  0x02, 0x2f, 0x3e, 0xea, 0xf2, 0x31, 0xe7, 0x23, 0xfd, 0xd6, 0x0b, 0xf1,
  0xe8, 0x03, 0x05, 0xc2, 0xed, 0xed, 0xd2, 0x0f, 0xe9, 0xe8, 0x2e, 0x13,
  0xff, 0xd7, 0xfb, 0x25, 0xe9, 0x46, 0xd2, 0x0d, 0xe4, 0x48, 0x04, 0xeb,
  0xfe, 0x5c, 0x31, 0xfb, 0x24, 0xcf, 0x06, 0xf1, 0xfe, 0x1b, 0xc9, 0xff,
  0x40, 0xf2, 0x1f, 0xdb, 0x1c, 0xec, 0xd6, 0x08, 0xee, 0x0e, 0xbb, 0xa7,
  0x05, 0xb0, 0xc7, 0xdf, 0x0b, 0x29, 0xb4, 0xeb, 0xdc, 0x03, 0x13, 0xf0,
  0x04, 0xed, 0xfc, 0x30, 0xc3, 0xfe, 0x07, 0x05, 0x0c, 0xef, 0x47, 0x01,
  0xf4, 0x15, 0xe6, 0x04, 0x20, 0xce, 0xeb, 0xee, 0xd5, 0x38, 0x06, 0x18,
  0x1a, 0xde, 0x37, 0x14, 0x16, 0x1b, 0x05, 0xfa, 0xed, 0xb4, 0x36, 0x38,
  0xe3, 0x03, 0x52, 0x03, 0x2f, 0xed, 0x18, 0x0d, 0x00, 0x24, 0xf6, 0xe9,
  0x30, 0x20, 0x31, 0x10, 0x09, 0xf6, 0x27, 0x1a, 0xc8, 0x23, 0xf4, 0xf0,
  0x21, 0xc5, 0xcd, 0xeb, 0xf5, 0x18, 0x14, 0xeb, 0x36, 0x9c, 0x88, 0xf6,
  0x9e, 0xfd, 0x8f, 0xf1, 0xf3, 0xba, 0xcb, 0xf5, 0x21, 0x0d, 0x37, 0x35,
  0x67, 0x1f, 0xb2, 0xdf, 0x29, 0x1f, 0x25, 0xd4, 0xf6, 0x00, 0xef, 0x20,
  0xef, 0xcd, 0x01, 0x14, 0xdd, 0x31, 0xcf, 0x0e, 0xfc, 0xf0, 0x38, 0x0d,
  0x1f, 0x16, 0xd6, 0x0c, 0x1f, 0x3b, 0xfb, 0xaf, 0x1e, 0x3d, 0x09, 0xce,
  0x01, 0x1f, 0x15, 0xf1, 0xf2, 0x15, 0xe2, 0xff, 0x24, 0x0d, 0x2c, 0x06,
  0x33, 0x29, 0xf3, 0xb3, 0x34, 0x04, 0x2c, 0x3e, 0x2d, 0x01, 0xf4, 0x1a,
  0x35, 0x01, 0x37, 0x2b, 0xf8, 0xe5, 0x05, 0x2f, 0x0a, 0xe2, 0xa4, 0x4d,
  0x0f, 0xd3, 0xaf, 0xfa, 0x19, 0x3f, 0x1c, 0x1d, 0xe5, 0x43, 0xc6, 0x25,
  0xec, 0xdb, 0x41, 0xe6, 0xc3, 0x1a, 0xf2, 0x14, 0xbd, 0x25, 0x01, 0xf5,
  0xf6, 0x12, 0x1d, 0xdd, 0xcd, 0xe3, 0x10, 0x36, 0x2b, 0x1e, 0x27, 0x1b,
  0xc5, 0x19, 0xf6, 0xca, 0x23, 0x2f, 0x0d, 0xca, 0x13, 0xe4, 0xb6, 0xf9,
  0x2b, 0x12, 0x09, 0xce, 0x04, 0xe8, 0x36, 0x2c, 0xea, 0x14, 0x4c, 0xbc,
  0x1f, 0xaa, 0x20, 0x1d, 0xca, 0x1c, 0xd1, 0xe2, 0x08, 0x00, 0xec, 0x26,
  0xf5, 0xb7, 0xf5, 0xd1, 0x23, 0x1d, 0x16, 0xc7, 0x1b, 0xd5, 0xe1, 0xc7,
  0xf6, 0x28, 0x1d, 0x45, 0x24, 0x2e, 0x7f, 0x33, 0xfc, 0xd5, 0x3c, 0xc8,
  0x20, 0x13, 0x29, 0xc3, 0x10, 0xc4, 0xdd, 0x50, 0x1a, 0xfd, 0x00, 0xcc,
  0xdd, 0xf3, 0xee, 0xb2, 0xdd, 0xd1, 0xf5, 0x11, 0x10, 0x37, 0x53, 0xf7,
  0x22, 0x13, 0x1c, 0xea, 0xd3, 0x05, 0xdb, 0xd1, 0x01, 0x3b, 0x0a, 0x29,
  0xdf, 0x37, 0x54, 0x24, 0xfa, 0x2a, 0x46, 0xe5, 0xe4, 0xa4, 0x32, 0x2b,
  0xd2, 0xfe, 0xfc, 0x24, 0x2c, 0x00, 0x38, 0xd6, 0x24, 0x30, 0x53, 0xf1,
  0xb3, 0xff, 0x10, 0xe2, 0xf5, 0x37, 0x12, 0x10, 0xd8, 0xd9, 0xe1, 0xef,
  0x09, 0xe0, 0x5f, 0xec, 0x08, 0x17, 0x1e, 0x23, 0x36, 0x33, 0xdb, 0xe4,
  0xdc, 0xd7, 0xce, 0x15, 0xc8, 0xf5, 0x0f, 0xc8, 0xd5, 0x21, 0x09, 0x14,
  0x33, 0x3b, 0x09, 0x06, 0x11, 0xfc, 0x14, 0x00, 0x1b, 0x38, 0xb2, 0xf3,
  0xfd, 0xfa, 0x37, 0x03, 0x0a, 0x17, 0xea, 0xd2, 0x00, 0x0a, 0xce, 0x27,
  0xcc, 0x46, 0xfb, 0xe4, 0x24, 0xf5, 0x1b, 0x27, 0xfd, 0xe9, 0xf7, 0xde,
  0x3e, 0x33, 0xf9, 0x01, 0xf7, 0xe3, 0x18, 0x06, 0x10, 0xf3, 0x32, 0xdd,
  0x1b, 0x3b, 0x1b, 0x1c, 0x29, 0x03, 0x16, 0x03, 0xcb, 0x40, 0xc9, 0x44,
  0x15, 0xff, 0xf2, 0x42, 0xf7, 0x38, 0x58, 0x3a, 0x32, 0xe9, 0x11, 0xf5,
  0xdb, 0x3a, 0x18, 0xe0, 0x01, 0x0b, 0x41, 0x20, 0x42, 0x2f, 0xf3, 0xdc,
  0x29, 0x8c, 0x59, 0x43, 0x37, 0x4a, 0x17, 0x06, 0xca, 0x9e, 0x1f, 0x35,
  0x09, 0x3d, 0x65, 0x12, 0x1b, 0xd3, 0x55, 0x0a, 0x38, 0x3a, 0x0b, 0x1c,
  0xf6, 0xa3, 0xd3, 0xdf, 0x4f, 0x44, 0xe3, 0xf6, 0xf9, 0x1f, 0xde, 0x3a,
  0x3d, 0xe6, 0x7e, 0x17, 0x34, 0x25, 0xeb, 0xf5, 0x11, 0x46, 0x12, 0x42,
  0x12, 0xd7, 0xce, 0x10, 0x2f, 0xdb, 0x20, 0xf1, 0xf5, 0x24, 0xdd, 0x19,
  0xe0, 0x35, 0x38, 0xec, 0x10, 0x29, 0xb4, 0x8a, 0xe7, 0x8a, 0xf2, 0x04,
  0x3d, 0x39, 0x89, 0x46, 0x37, 0xa2, 0xe0, 0x21, 0x20, 0x61, 0xc3, 0xd0,
  0x17, 0x8e, 0xdf, 0x24, 0xf7, 0x45, 0xba, 0x1f, 0xf8, 0xd8, 0xfa, 0xc5,
  0x18, 0x27, 0x22, 0x07, 0x1e, 0xa2, 0xed, 0x14, 0xef, 0x3e, 0x44, 0x4e,
  0x2e, 0xd6, 0xc9, 0xcc, 0xd6, 0xd0, 0x33, 0x3d, 0x1a, 0x2b, 0x22, 0x0c,
  0xd8, 0x2e, 0xef, 0x32, 0xfc, 0xf7, 0x25, 0xf9, 0xe8, 0xe1, 0xbf, 0xa4,
  0xff, 0xe6, 0xc8, 0x8c, 0xe6, 0x09, 0xc8, 0xe6, 0x3f, 0x15, 0x0e, 0x00,
  0xe7, 0x70, 0xf9, 0xa8, 0x35, 0xf2, 0xf6, 0x52, 0x34, 0x47, 0x99, 0xbc,
  0xe5, 0xef, 0xd9, 0xf7, 0x0b, 0x5a, 0x31, 0xd3, 0x43, 0xaf, 0x11, 0x13,
  0xca, 0x44, 0x08, 0x17, 0xec, 0xcf, 0x2d, 0x25, 0xc8, 0x4d, 0x33, 0xd4,
  0xc5, 0xcd, 0xfc, 0x10, 0xfa, 0xfc, 0x08, 0x0a, 0x14, 0x17, 0xea, 0xe1,
  0x02, 0x16, 0x0d, 0x23, 0xc8, 0x35, 0x7f, 0xeb, 0xdf, 0xab, 0x51, 0x15,
  0x1a, 0xdd, 0x27, 0x49, 0x22, 0xcd, 0xbf, 0x1a, 0xfd, 0xbc, 0x8f, 0xdc,
  0xe4, 0x16, 0xaf, 0xc2, 0xf7, 0xc1, 0x31, 0x34, 0xe0, 0x08, 0xcc, 0x05,
  0xf6, 0x9c, 0xc4, 0x2d, 0xd1, 0xea, 0xb2, 0x16, 0x1f, 0x00, 0xe4, 0x33,
  0xd9, 0xe3, 0x0c, 0x16, 0xcc, 0xb3, 0xaf, 0x0e, 0xc5, 0x3e, 0x0a, 0x23,
  0xd0, 0x13, 0x4c, 0x0b, 0xf5, 0xc9, 0xfd, 0xd2, 0xa4, 0xe7, 0xfe, 0xa8,
  0x32, 0x1d, 0x1e, 0x00, 0x1e, 0x10, 0x4a, 0x32, 0xe9, 0xf4, 0xcb, 0xda,
  0x24, 0x48, 0x06, 0x8e, 0x59, 0x2c, 0xf0, 0xb8, 0x22, 0x14, 0x20, 0x48,
  0x29, 0xd0, 0x42, 0x37, 0xfe, 0x2f, 0xc5, 0xfe, 0x00, 0x1e, 0xc8, 0x1c,
  0x2e, 0x1f, 0xd4, 0x38, 0x2e, 0xbd, 0x31, 0xd1, 0x92, 0xfa, 0x9c, 0xfb,
  0x1d, 0xe5, 0xf2, 0xf2, 0xd6, 0x3c, 0xfc, 0xdb, 0x2a, 0xff, 0xfb, 0xd3,
  0x89, 0x04, 0x3a, 0xcb, 0xce, 0xc9, 0x69, 0x12, 0x26, 0xd4, 0x1b, 0xd4,
  0x42, 0xfa, 0x29, 0x19, 0xde, 0x10, 0x27, 0xc9, 0x2b, 0x2d, 0xda, 0xe1,
  0x4c, 0x16, 0x14, 0x29, 0x28, 0x12, 0x0b, 0xd0, 0x13, 0x0c, 0xa6, 0xc9,
  0x3e, 0xfa, 0xa3, 0x32, 0xf1, 0x5e, 0xc6, 0x19, 0xe8, 0xe6, 0xed, 0x29,
  0x25, 0x00, 0xc3, 0xe4, 0x3a, 0x19, 0x54, 0xf7, 0xf9, 0x2e, 0x14, 0xde,
  0xea, 0xfd, 0xf5, 0x04, 0xcd, 0x61, 0x38, 0xf2, 0x25, 0x35, 0x67, 0x04,
  0x10, 0xfb, 0x1a, 0x28, 0x03, 0x35, 0xf5, 0x4a, 0x47, 0x47, 0x6e, 0x33,
  0x19, 0x29, 0x37, 0x34, 0x40, 0xd6, 0x2d, 0xf7, 0x22, 0x0d, 0x0e, 0x13,
  0x30, 0x19, 0xfc, 0x03, 0xac, 0xe5, 0x0e, 0xed, 0x13, 0x06, 0x23, 0x23,
  0x1d, 0xea, 0x27, 0x1a, 0x32, 0xed, 0x07, 0x3e, 0x2e, 0x0f, 0x10, 0xf2,
  0x13, 0xdf, 0x28, 0xf1, 0x2a, 0xdc, 0x3b, 0x3a, 0xfa, 0x26, 0xfe, 0xe4,
  0x01, 0x1c, 0x1c, 0x35, 0x1a, 0x51, 0x29, 0x1b, 0x34, 0x8e, 0x1c, 0x14,
  0x10, 0x39, 0x0d, 0xa3, 0x26, 0x40, 0x16, 0x1d, 0x0d, 0x08, 0x39, 0x1d,
  0xf3, 0xe3, 0x21, 0x06, 0xf4, 0x50, 0x12, 0xfa, 0x17, 0x08, 0x20, 0x07,
  0x02, 0x0f, 0x2a, 0xea, 0x16, 0x1d, 0xfc, 0xdb, 0x13, 0x37, 0x06, 0xee,
  0xdb, 0xd9, 0x29, 0xf3, 0x09, 0xf8, 0x03, 0xf8, 0x08, 0x21, 0xfa, 0x21,
  0xe7, 0x16, 0xe7, 0x17, 0xe1, 0xd6, 0xe5, 0x17, 0x0e, 0x23, 0x0c, 0xe5,
  0xd4, 0xfc, 0x36, 0x1a, 0x2f, 0x09, 0x02, 0x08, 0x00, 0xef, 0x58, 0x51,
  0x08, 0x12, 0x10, 0x01, 0xe2, 0xb5, 0x44, 0x77, 0xe2, 0x56, 0x04, 0xe5,
  0xf8, 0x04, 0x4a, 0x33, 0x43, 0x17, 0x22, 0x0e, 0x11, 0xde, 0x31, 0x38,
  0x0a, 0x4d, 0xd3, 0x2f, 0x26, 0xfd, 0xff, 0xf4, 0x2c, 0xf5, 0xf6, 0xe8,
  0x17, 0xf1, 0xe9, 0x22, 0x1e, 0x36, 0x16, 0x07, 0xec, 0xea, 0xe1, 0x35,
  0x00, 0xfe, 0xe6, 0xfc, 0xc4, 0x0b, 0x12, 0x19, 0x11, 0xdd, 0xac, 0x09,
  0xec, 0x0f, 0xc6, 0x16, 0xc9, 0x02, 0xf4, 0xcc, 0xd7, 0x3d, 0x29, 0x2b,
  0x02, 0x1f, 0x1c, 0x7f, 0xe7, 0xe3, 0x50, 0xfd, 0x05, 0xf2, 0xd0, 0x11,
  0x07, 0xed, 0x15, 0x3a, 0xf9, 0x4b, 0xe1, 0xfd, 0xe4, 0xe2, 0x66, 0xf9,
  0x0d, 0x13, 0xfc, 0x2f, 0x05, 0x29, 0xf0, 0xee, 0xeb, 0x0e, 0xef, 0x08,
  0x43, 0x2d, 0x11, 0xf8, 0x1b, 0xe6, 0xda, 0xfe, 0xf7, 0xfe, 0xdf, 0x1d,
  0x26, 0xf7, 0xc9, 0x17, 0x04, 0xfa, 0xf3, 0x01, 0xef, 0xc4, 0x05, 0xca,
  0xe7, 0x21, 0xff, 0x06, 0xf1, 0x1b, 0x06, 0x13, 0xf1, 0xa6, 0xd0, 0xe6,
  0x04, 0xfe, 0xd0, 0x07, 0xed, 0x39, 0x06, 0xd6, 0xfa, 0xfd, 0x62, 0x29,
  0xdb, 0xce, 0x3f, 0xcb, 0xff, 0x36, 0xed, 0xdb, 0xf3, 0x16, 0x1b, 0x0e,
  0x15, 0xdd, 0x5b, 0x0a, 0xf4, 0xe1, 0x26, 0xcb, 0x04, 0xd1, 0xf2, 0xf2,
  0xed, 0x0a, 0xf4, 0xf9, 0xee, 0x21, 0x09, 0x0e, 0x13, 0x35, 0x00, 0xe2,
  0x1d, 0x08, 0x0e, 0x02, 0xe8, 0x0e, 0xd0, 0x03, 0x08, 0xd9, 0x24, 0xf7,
  0x04, 0xff, 0x15, 0x22, 0xfa, 0x26, 0x22, 0xc7, 0xe9, 0xba, 0xd0, 0xc0,
  0xf2, 0x01, 0x23, 0xc7, 0xef, 0x13, 0x0f, 0x04, 0x39, 0xeb, 0x28, 0x19,
  0x0c, 0xda, 0xee, 0x1a, 0xf0, 0xe5, 0x6f, 0xe7, 0xf5, 0xf8, 0xff, 0x1b,
  0xdf, 0x1c, 0x2b, 0xe7, 0xf6, 0x2b, 0xe7, 0xf0, 0x13, 0xe1, 0x5f, 0x2e,
  0xbe, 0x24, 0xf0, 0x0c, 0xfc, 0xe6, 0x19, 0x15, 0x0f, 0x0e, 0x10, 0x1b,
  0x23, 0xe6, 0x4e, 0xe8, 0x09, 0xdf, 0x05, 0x2c, 0x27, 0xd6, 0xfd, 0x0d,
  0x2a, 0xc2, 0x25, 0xe1, 0x3a, 0x06, 0xf5, 0x02, 0xeb, 0xea, 0x00, 0xff,
  0x1e, 0x0b, 0x43, 0x02, 0x22, 0x27, 0x19, 0x1e, 0x41, 0x24, 0x6b, 0x24,
  0x1e, 0x2d, 0xe7, 0x11, 0x03, 0x13, 0x30, 0x1a, 0x2a, 0x2c, 0xe1, 0xbc,
  0xf1, 0xb0, 0x2d, 0xdc, 0x07, 0x1f, 0x10, 0x13, 0x1d, 0x01, 0x20, 0xfb,
  0x21, 0x10, 0xd0, 0x22, 0x13, 0xa2, 0x2e, 0xe1, 0x1e, 0xe0, 0xb6, 0x26,
  0x25, 0x0d, 0xd6, 0xca, 0x0a, 0x44, 0x03, 0x3a, 0xf1, 0xdf, 0xec, 0x50,
  0xff, 0xe2, 0xe5, 0xf8, 0xe8, 0x00, 0x05, 0xf6, 0x15, 0x0e, 0x16, 0x14,
  0x12, 0xdd, 0x3b, 0x56, 0xd7, 0xca, 0xe2, 0x16, 0x23, 0x55, 0x0b, 0xef,
  0x06, 0xf9, 0x12, 0x14, 0x2f, 0x52, 0x38, 0x18, 0xc6, 0xf8, 0x19, 0x07,
  0x47, 0x1c, 0x0a, 0xf9, 0x02, 0xc2, 0xb6, 0xa9, 0xd1, 0xcf, 0x26, 0xbc,
  0x02, 0x20, 0xd0, 0xf8, 0x2f, 0xe9, 0x0f, 0x0c, 0x07, 0xea, 0x03, 0xf8,
  0xd4, 0xe6, 0xf7, 0xe0, 0x30, 0x11, 0xe6, 0x29, 0x23, 0xfd, 0xfb, 0xf4,
  0x23, 0x1a, 0x36, 0x18, 0x0c, 0x07, 0x1b, 0xea, 0xdf, 0x0e, 0x29, 0xed,
  0x0f, 0x62, 0x26, 0x2e, 0x24, 0xed, 0x47, 0x12, 0xe1, 0x2e, 0x37, 0x0d,
  0xd8, 0xe7, 0x7f, 0xef, 0x0e, 0x56, 0xff, 0x2e, 0x26, 0x03, 0x23, 0x4d,
  0xe0, 0x17, 0x25, 0x1a, 0x0d, 0xf6, 0x18, 0x14, 0x04, 0xec, 0x05, 0x44,
  0x32, 0xd2, 0x21, 0x23, 0x17, 0xe7, 0xb1, 0xf9, 0xf9, 0x4d, 0xf6, 0xfb,
  0x0b, 0x30, 0x0b, 0x0a, 0xfd, 0x0c, 0x0b, 0xdb, 0xf7, 0xd7, 0xf5, 0xd6,
  0x0a, 0x3c, 0xd8, 0x0f, 0x20, 0x39, 0x12, 0xff, 0x1d, 0x11, 0xf0, 0x02,
  0x11, 0xda, 0xf2, 0x04, 0x3f, 0x3e, 0xee, 0x24, 0x01, 0xe5, 0x01, 0xd5,
  0x24, 0xef, 0xde, 0x39, 0xc9, 0xfa, 0xc7, 0xf9, 0x2c, 0xfd, 0x01, 0xe4,
  0xe2, 0x25, 0x0c, 0x02, 0xfe, 0xbd, 0xfe, 0xf0, 0xe0, 0x52, 0xd7, 0x18,
  0x1d, 0x02, 0x1d, 0x23, 0xde, 0xf9, 0xf6, 0x2c, 0xfc, 0x46, 0x0d, 0xe8,
  0x1e, 0xe9, 0xe6, 0x18, 0xf6, 0xfd, 0x24, 0x2f, 0x08, 0x11, 0x23, 0x24,
  0xf0, 0x1d, 0xc1, 0xdb, 0x07, 0x20, 0x19, 0xe3, 0xf5, 0xe6, 0xe2, 0x25,
  0xe4, 0xee, 0x12, 0x1c, 0x24, 0x42, 0xfe, 0xe7, 0xf8, 0xdb, 0xea, 0x03,
  0x08, 0x1b, 0xba, 0xed, 0xe4, 0xf5, 0xdf, 0xda, 0xda, 0xbc, 0x1d, 0xe6,
  0xee, 0xf7, 0x1a, 0x2a, 0x15, 0x38, 0xf9, 0xfc, 0xe5, 0x18, 0x29, 0x24,
  0x0b, 0xf9, 0xf5, 0xf9, 0xf7, 0x12, 0xeb, 0xb5, 0x2d, 0x35, 0x1a, 0x13,
  0xe1, 0x17, 0xe1, 0x12, 0x17, 0xe0, 0x22, 0xcd, 0xe9, 0x19, 0xcc, 0xec,
  0x20, 0x1a, 0xd8, 0xef, 0x2d, 0x16, 0xef, 0x2a, 0x08, 0xf3, 0x2f, 0xf4,
  0x00, 0xfc, 0xdc, 0x02, 0x0d, 0x1d, 0xfe, 0xdc, 0x14, 0xf3, 0xd5, 0xe3,
  0xe1, 0xeb, 0xff, 0xd3, 0x07, 0xf4, 0xee, 0xe0, 0xf8, 0x52, 0xfb, 0xd8,
  0xd2, 0x20, 0xb5, 0xfa, 0x04, 0xea, 0x26, 0xf1, 0x28, 0xfe, 0xf8, 0x02,
  0xdd, 0x02, 0x1a, 0x27, 0x07, 0xe7, 0x08, 0xcb, 0x09, 0x03, 0x0f, 0xc8,
  0x11, 0xfa, 0x82, 0xf2, 0xf8, 0x32, 0xf3, 0x05, 0x21, 0x9e, 0x4f, 0xa9,
  0x45, 0x5b, 0xb5, 0x50, 0x95, 0xe2, 0xf9, 0x97, 0xca, 0x8c, 0x56, 0xc8,
  0x5d, 0xfd, 0xd4, 0x47, 0x5f, 0xd7, 0x4c, 0x5d, 0xdc, 0x21, 0xd3, 0x1a,
  0x5b, 0x62, 0x06, 0x54, 0x2a, 0xda, 0xc5, 0x62, 0x4e, 0x4a, 0x91, 0xc1,
  0xfc, 0xf1, 0x2d, 0xbe, 0x3e, 0xff, 0xd2, 0x10, 0xc6, 0xe4, 0x4c, 0x0f,
  0x3d, 0x63, 0x46, 0xf3, 0x59, 0x4f, 0xfd, 0x1b, 0x62, 0x28, 0xa6, 0xa3,
  0xb6, 0x3a, 0xc9, 0xa3, 0x50, 0x70, 0xab, 0x9d, 0x20, 0x10, 0x9b, 0x04,
  0x3f, 0x67, 0xcf, 0x3d, 0x72, 0x24, 0xf5, 0x31, 0x74, 0x0c, 0xec, 0x1d,
  0xe3, 0xf6, 0xa3, 0x87, 0x31, 0xa6, 0xdb, 0x10, 0x19, 0x3c, 0xd2, 0x13,
  0xe9, 0xe1, 0x5c, 0xaa, 0x21, 0xc7, 0x34, 0xdc, 0x85, 0x49, 0xfe, 0x92,
  0xb3, 0x64, 0x81, 0xa5, 0xf3, 0x86, 0xee, 0x6c, 0x1a, 0xce, 0xa4, 0x90,
  0xd9, 0x17, 0x9f, 0xe1, 0x32, 0xe2, 0xe0, 0xfc, 0xa2, 0xcf, 0xb1, 0xfb,
  0xa1, 0x63, 0x33, 0x39, 0xa2, 0xf1, 0xb3, 0x06, 0x39, 0x8a, 0x0a, 0x4b,
  0xab, 0xb6, 0xdd, 0x20, 0xa5, 0xc8, 0x43, 0xba, 0xf2, 0x3f, 0xec, 0x33,
  0xf1, 0xa8, 0xf1, 0xc0, 0x9a, 0x10, 0x0d, 0x2e, 0xc0, 0x67, 0x2b, 0x2e,
  0x51, 0x9a, 0x68, 0x74, 0xf4, 0xc3, 0xe3, 0x4c, 0xe8, 0x08, 0xd0, 0xf6,
  0x25, 0xfc, 0x4d, 0xe5, 0xc6, 0x8a, 0xbf, 0x3b, 0xf9, 0xcb, 0xd5, 0x59,
  0x4e, 0x09, 0x10, 0xdd, 0x48, 0x25, 0x1d, 0xeb, 0xb8, 0x59, 0xbb, 0xbe,
  0xc0, 0x4a, 0xf5, 0x27, 0x5b, 0xb3, 0xca, 0x1b, 0x9b, 0x2a, 0xf8, 0x55,
  0xf1, 0x31, 0x61, 0x54, 0x25, 0xa6, 0xc1, 0xf1, 0x15, 0x90, 0x1d, 0xd5,
  0x02, 0xd7, 0x53, 0xee, 0xf6, 0x2c, 0x4c, 0x9f, 0x11, 0x53, 0x32, 0xca,
  0x55, 0x42, 0xad, 0x6e, 0x11, 0xa5, 0x56, 0xbd, 0xa7, 0x75, 0x01, 0x00,
  0xa7, 0x28, 0xcd, 0xd9, 0x37, 0xdf, 0xee, 0x49, 0xd9, 0xe4, 0xbc, 0xed,
  0x24, 0xf6, 0xd5, 0xdf, 0x5e, 0x91, 0x0d, 0xf2, 0xd1, 0x2c, 0x67, 0xfe,
  0xb9, 0x03, 0x13, 0xa9, 0x25, 0xb6, 0x3f, 0x9f, 0xdf, 0x38, 0xca, 0x21,
  0xd2, 0x0c, 0x10, 0x3b, 0x28, 0x25, 0xd8, 0x26, 0xc6, 0xd4, 0x86, 0xc0,
  0xee, 0xdd, 0x63, 0x35, 0x5a, 0xb6, 0x57, 0xbb, 0xf2, 0xb3, 0xb0, 0xe2,
  0xe5, 0xaf, 0x13, 0xa7, 0xd5, 0xfa, 0xbb, 0xaa, 0x95, 0xfd, 0xbb, 0xa8,
  0xf8, 0x4b, 0xdd, 0x1c, 0x36, 0x92, 0xd1, 0x1d, 0xe7, 0x2b, 0xa8, 0x64,
  0x94, 0xfd, 0x3e, 0x5b, 0x91, 0x2c, 0x18, 0xfb, 0xde, 0xa5, 0xda, 0x64,
  0xfe, 0xcd, 0xc6, 0xc7, 0xdb, 0xc7, 0xd9, 0xbb, 0x4e, 0xca, 0x4e, 0x38,
  0xcc, 0xa3, 0x5c, 0xd2, 0x08, 0xe5, 0xa1, 0x84, 0xbc, 0x43, 0x8a, 0x40,
  0xde, 0x96, 0x95, 0x4c, 0x26, 0xe9, 0xbb, 0xad, 0x98, 0xec, 0x44, 0x15,
  0x60, 0x2a, 0x99, 0xb8, 0x42, 0x73, 0xcd, 0x05, 0xc7, 0xfa, 0x17, 0x46,
  0x32, 0x49, 0x22, 0xf8, 0xf4, 0xe7, 0x3f, 0x21, 0x26, 0x1a, 0x45, 0x01,
  0x18, 0x2d, 0x1f, 0x68, 0xd1, 0x2e, 0xdb, 0x1f, 0x12, 0x04, 0x0d, 0x4e,
  0xe3, 0xfe, 0xfc, 0xc5, 0xef, 0x14, 0x30, 0xe6, 0x22, 0x11, 0xcf, 0x27,
  0x1c, 0x32, 0xb0, 0xba, 0xea, 0x2d, 0xce, 0xbf, 0x20, 0x3e, 0xf5, 0xc6,
  0x05, 0xf5, 0xf8, 0x1e, 0xf9, 0x4a, 0xb3, 0xcd, 0x22, 0xfc, 0xfb, 0xc1,
  0x5e, 0x39, 0xd5, 0x04, 0xfd, 0xe9, 0x29, 0x2a, 0x23, 0x45, 0xab, 0xb8,
  0x26, 0xa8, 0xf1, 0xe4, 0x71, 0x41, 0xe8, 0x13, 0x26, 0x27, 0x07, 0x2a,
  0x28, 0x0a, 0x6a, 0x1a, 0x06, 0x3d, 0x19, 0x18, 0x01, 0xe4, 0x2c, 0x1a,
  0x2d, 0x3b, 0x23, 0xcf, 0x2c, 0xbd, 0x37, 0x29, 0xec, 0x57, 0x26, 0xe7,
  0x12, 0x13, 0x6d, 0x2a, 0x32, 0xf8, 0xf7, 0xdb, 0x1a, 0x1a, 0xdf, 0xe7,
  0x08, 0x0b, 0xf0, 0xd9, 0x37, 0xf3, 0xd0, 0xcb, 0xf2, 0xa1, 0xfd, 0x27,
  0x21, 0x0c, 0xc6, 0xb3, 0x3f, 0xe7, 0x19, 0xe7, 0x29, 0x42, 0xa6, 0x2b,
  0x0e, 0x87, 0x16, 0x29, 0xd9, 0x0c, 0xdd, 0xcf, 0x2b, 0xab, 0xc8, 0xee,
  0xb0, 0x67, 0xa4, 0xf5, 0x14, 0xdd, 0xe1, 0xee, 0xda, 0x11, 0xd8, 0xe8,
  0x14, 0xf5, 0x02, 0x0a, 0xe7, 0xff, 0x47, 0xf8, 0xfc, 0xc4, 0xec, 0xcc,
  0xe9, 0x67, 0x03, 0x35, 0x48, 0xf7, 0x29, 0x7f, 0x06, 0xf3, 0x14, 0x1a,
  0xf2, 0xf0, 0x21, 0x0e, 0xc5, 0x2f, 0xce, 0xe7, 0x3d, 0x1d, 0x02, 0x33,
  0xf5, 0x17, 0xbf, 0x07, 0x38, 0xaa, 0xfc, 0x06, 0x06, 0x07, 0xe9, 0xe9,
  0x1c, 0xcf, 0xdf, 0x1d, 0xe8, 0x35, 0xcf, 0x2d, 0x1b, 0xd1, 0x18, 0x22,
  0x21, 0x14, 0xfc, 0x1e, 0x18, 0xaf, 0xfd, 0xf0, 0xef, 0x1e, 0xe9, 0x1e,
  0x05, 0xe0, 0xd3, 0xff, 0x2c, 0x32, 0x04, 0xea, 0x17, 0xf7, 0xe8, 0x26,
  0xd5, 0xc6, 0x1e, 0x03, 0xef, 0xf6, 0xe5, 0xdd, 0x07, 0x47, 0xfc, 0x0e,
  0xf6, 0xe1, 0x2a, 0x23, 0xd8, 0x05, 0x2a, 0x10, 0x31, 0x0d, 0xe4, 0x20,
  0x16, 0x1d, 0xd5, 0xf6, 0xd6, 0x15, 0x0a, 0x26, 0xfa, 0x2f, 0x1d, 0x25,
  0x00, 0xde, 0xeb, 0x09, 0xef, 0x53, 0x1d, 0x00, 0x27, 0x0e, 0xd6, 0x14,
  0xed, 0x01, 0xfc, 0x2b, 0x04, 0xf5, 0xfd, 0xf7, 0x0e, 0x32, 0x45, 0x1c,
  0xf7, 0x24, 0x13, 0x13, 0x07, 0xf2, 0x11, 0x36, 0xf4, 0x2a, 0xd5, 0xde,
  0x00, 0x2d, 0xe3, 0xf6, 0xe4, 0xe7, 0x75, 0x47, 0x04, 0x18, 0x1b, 0xe4,
  0xd3, 0xd2, 0xe6, 0xca, 0x08, 0x3a, 0xc5, 0xf4, 0x02, 0x0e, 0x25, 0x01,
  0xef, 0xc6, 0xe1, 0x0f, 0x1b, 0xdd, 0xed, 0xf8, 0xd4, 0x34, 0xb4, 0xcd,
  0x23, 0x11, 0xe0, 0xf6, 0x42, 0x4f, 0x16, 0xfa, 0x19, 0xfd, 0x05, 0xed,
  0x15, 0xf9, 0x00, 0x20, 0x00, 0x27, 0xbc, 0x12, 0x2e, 0x0c, 0x49, 0x1f,
  0xe2, 0x0e, 0xc8, 0x27, 0xe1, 0x34, 0x13, 0xfb, 0xeb, 0x2c, 0xb0, 0x2d,
  0xfa, 0xb6, 0x23, 0x1a, 0xf4, 0x1d, 0x3f, 0xe3, 0xe5, 0x27, 0xf2, 0x27,
  0x0b, 0xfd, 0x29, 0x22, 0x2d, 0x30, 0xeb, 0x35, 0x24, 0x30, 0x1d, 0xf9,
  0xe3, 0xfe, 0x2d, 0x43, 0x27, 0x13, 0xd7, 0xf6, 0x29, 0x0a, 0x21, 0x22,
  0x15, 0x4d, 0x00, 0x28, 0xce, 0x17, 0x30, 0xe3, 0xe8, 0x2a, 0xbf, 0x1c,
  0x28, 0xd7, 0x2d, 0xeb, 0x06, 0xdf, 0xf7, 0x0d, 0xff, 0x0a, 0x16, 0xf0,
  0x1a, 0x07, 0xed, 0x1d, 0xc4, 0x03, 0x15, 0x18, 0x0e, 0xf9, 0xf5, 0xe7,
  0x21, 0x2a, 0x35, 0x41, 0xfa, 0xf6, 0x1a, 0x1f, 0xed, 0xa2, 0xbd, 0x03,
  0x0c, 0x29, 0xbb, 0x30, 0x0c, 0x51, 0x3a, 0x0d, 0x0c, 0x35, 0xec, 0x59,
  0x0f, 0xc8, 0xfe, 0x31, 0x07, 0x13, 0xfa, 0xfd, 0x1c, 0xde, 0x30, 0x13,
  0x03, 0x5b, 0x20, 0x5d, 0xe1, 0xf2, 0x1f, 0x1f, 0xdb, 0xce, 0xfd, 0xec,
  0x00, 0xf5, 0x46, 0x09, 0x08, 0x09, 0xdf, 0x44, 0xf0, 0x28, 0x32, 0x4a,
  0x20, 0xdd, 0xd9, 0x27, 0xfc, 0x1f, 0x05, 0x40, 0x04, 0x3a, 0x21, 0x49,
  0xf7, 0xc9, 0x5e, 0x2f, 0x12, 0x0a, 0xc8, 0xc6, 0xb1, 0x48, 0x3e, 0x14,
  0x31, 0x4b, 0x34, 0x25, 0x99, 0x81, 0x29, 0xfd, 0x1a, 0xfe, 0x09, 0xf1,
  0xd4, 0x53, 0xe8, 0x1e, 0xdc, 0x07, 0x18, 0x5c, 0xea, 0xf8, 0x07, 0x1c,
  0xee, 0xee, 0xd5, 0xc9, 0xb4, 0x0d, 0x4d, 0xfa, 0xf2, 0xf4, 0x2c, 0x4d,
  0x19, 0xf4, 0x22, 0x16, 0xdb, 0xdf, 0xdb, 0x1e, 0xd9, 0x36, 0x52, 0x4c,
  0xf2, 0xe8, 0x63, 0x20, 0xb3, 0xce, 0x04, 0xe4, 0xf9, 0x37, 0x40, 0x22,
  0xe4, 0xc6, 0xfa, 0xe7, 0xf9, 0x03, 0x4f, 0xf1, 0x03, 0xd8, 0x79, 0x18,
  0x07, 0x20, 0xfa, 0xfb, 0x0b, 0xd4, 0xd9, 0xc1, 0xe7, 0x20, 0x4a, 0xeb,
  0x09, 0xd9, 0x36, 0xc7, 0x14, 0x0d, 0x18, 0xc9, 0xe4, 0x38, 0x2f, 0x49,
  0x0d, 0xe3, 0x45, 0x39, 0xdb, 0x15, 0xf0, 0x07, 0xf2, 0x11, 0x09, 0x16,
  0xc9, 0xb9, 0x42, 0x0e, 0xc8, 0xed, 0xf1, 0xe9, 0xe1, 0xfd, 0x4b, 0x0e,
  0x15, 0x03, 0x13, 0x1c, 0xe7, 0xfb, 0x06, 0xf6, 0xc3, 0xd9, 0x2e, 0xe9,
  0xc0, 0xc7, 0x27, 0xd9, 0x05, 0x1c, 0x2f, 0xfe, 0x1c, 0xe6, 0x30, 0x26,
  0x0d, 0xee, 0xf8, 0xd6, 0xf4, 0xf4, 0x16, 0x10, 0x16, 0xc6, 0x21, 0xe7,
  0x3d, 0xf0, 0x01, 0x2f, 0x03, 0xca, 0xf5, 0xfb, 0xcd, 0xc8, 0xe8, 0x27,
  0x1a, 0x32, 0x18, 0xe4, 0x22, 0x3c, 0x11, 0xe5, 0xd0, 0x3f, 0x26, 0x4b,
  0xde, 0xf8, 0x4b, 0x2f, 0x42, 0x29, 0xf2, 0xd7, 0xe9, 0xe2, 0x2f, 0xe5,
  0x39, 0xf7, 0x6f, 0x24, 0x16, 0x29, 0x3b, 0x03, 0xd5, 0x20, 0x3f, 0x13,
  0xf9, 0x30, 0x38, 0x3f, 0x0d, 0xf7, 0x26, 0x42, 0xda, 0x08, 0x33, 0xea,
  0x2e, 0xde, 0x28, 0x23, 0xe5, 0x31, 0x23, 0xfb, 0x33, 0x30, 0x1c, 0x50,
  0x03, 0x22, 0xdb, 0x48, 0xf0, 0xd5, 0x17, 0x15, 0xff, 0xfd, 0xd3, 0xe5,
  0xf1, 0xd2, 0x63, 0xfc, 0x14, 0xdc, 0x1b, 0xf4, 0xec, 0x42, 0x15, 0xdc,
  0x04, 0xf7, 0xaf, 0x12, 0x00, 0xe5, 0xd8, 0xe1, 0xc0, 0xf8, 0x3b, 0xaa,
  0xd9, 0x3a, 0xee, 0x1b, 0xea, 0x20, 0xd4, 0x26, 0xae, 0xe9, 0x10, 0xb4,
  0xc8, 0xae, 0x75, 0xe9, 0xef, 0xfc, 0x97, 0xa5, 0x8e, 0xe2, 0xb8, 0xb2,
  0xc0, 0xb6, 0xbc, 0xd6, 0xed, 0x9d, 0xca, 0xa0, 0x9d, 0x93, 0xc9, 0xd1,
  0x9b, 0x81, 0x17, 0xe4, 0x9d, 0xa6, 0xb4, 0xd0, 0xf9, 0xed, 0xd7, 0xc7,
  0xd6, 0xe1, 0xf6, 0x16, 0x05, 0x06, 0x33, 0x45, 0xd3, 0xae, 0x1b, 0x1c,
  0xf0, 0xfb, 0xcc, 0x00, 0x0a, 0x29, 0xff, 0x39, 0xf8, 0xce, 0x33, 0xc4,
  0x20, 0xf0, 0x6f, 0x03, 0xef, 0x38, 0xd3, 0xe5, 0xe9, 0xf6, 0x0e, 0x02,
  0x30, 0xa6, 0x96, 0xf5, 0xae, 0xc0, 0x31, 0xd3, 0xbd, 0xcf, 0x1a, 0xfd,
  0xd7, 0xf5, 0x12, 0xfd, 0xf4, 0x86, 0x9b, 0xce, 0x01, 0xba, 0x6b, 0xf9,
  0xd8, 0xf4, 0x2c, 0xe1, 0xdb, 0xbf, 0x27, 0xc7, 0x18, 0xe7, 0x0f, 0xfd,
  0x37, 0xf7, 0x4f, 0xbd, 0x90, 0xdd, 0x01, 0xc4, 0x46, 0xfe, 0x1a, 0xdb,
  0x21, 0xe6, 0xee, 0xd8, 0x22, 0xe6, 0x5f, 0xac, 0x0e, 0xed, 0x0c, 0xeb,
  0x31, 0xd5, 0xe3, 0xd5, 0x3f, 0x71, 0xf5, 0x0f, 0xd7, 0xf6, 0x02, 0x45,
  0xf5, 0x41, 0x0f, 0x55, 0xe0, 0xe4, 0xda, 0x3a, 0x29, 0x52, 0x59, 0xe9,
  0xff, 0x0f, 0xfd, 0x1e, 0xec, 0x06, 0xc8, 0xe8, 0x3f, 0x03, 0x33, 0x07,
  0x0e, 0x2a, 0x34, 0x3c, 0x0d, 0x2e, 0x1a, 0x3a, 0x38, 0xeb, 0x24, 0x0b,
  0x15, 0x09, 0xf5, 0x27, 0xed, 0xe3, 0xe0, 0xe8, 0xb8, 0x6b, 0xc7, 0x45,
  0xf1, 0x00, 0x15, 0x3a, 0x34, 0x0f, 0x03, 0x3b, 0x20, 0xfd, 0x1f, 0x5e,
  0xf0, 0x04, 0x08, 0x50, 0x0d, 0x56, 0x51, 0xed, 0x01, 0x1b, 0x0c, 0x1d,
  0xf5, 0x41, 0x29, 0xd1, 0x1c, 0x43, 0xca, 0x70, 0xe8, 0x23, 0x2b, 0xed,
  0x33, 0xbf, 0xed, 0xe7, 0x06, 0x61, 0xfd, 0xed, 0x05, 0x11, 0x05, 0x5c,
  0x12, 0x3b, 0x0d, 0x1f, 0xe4, 0xc8, 0xd2, 0xd9, 0xc0, 0x34, 0xd2, 0xfb,
  0x17, 0x08, 0xef, 0x44, 0xfc, 0xe1, 0x13, 0xe0, 0x12, 0xbf, 0xcf, 0x05,
  0xf1, 0xbd, 0xb7, 0xa2, 0x0d, 0xb1, 0xcf, 0xe7, 0x00, 0x08, 0x21, 0x0c,
  0xe6, 0x06, 0x09, 0xe8, 0x29, 0xd9, 0x00, 0xe9, 0x04, 0xa9, 0x10, 0x32,
  0xf4, 0xff, 0xd5, 0xee, 0xb6, 0x27, 0x21, 0x07, 0xdd, 0x45, 0xa9, 0x0e,
  0xf3, 0x1d, 0x51, 0xe6, 0xd5, 0x2b, 0x0c, 0x24, 0x28, 0xc6, 0xd9, 0xdb,
  0x2c, 0x21, 0x0b, 0xdd, 0x17, 0x21, 0x55, 0xfb, 0x0c, 0x19, 0xe6, 0xc6,
  0xd2, 0xb2, 0xec, 0x15, 0x09, 0xf9, 0xad, 0xb8, 0x12, 0xfb, 0x2a, 0xd1,
  0x12, 0x1a, 0xfb, 0x21, 0x03, 0xde, 0x23, 0x32, 0x25, 0x23, 0xc8, 0xcf,
  0x05, 0xf5, 0x40, 0xda, 0x2f, 0x18, 0xbb, 0xeb, 0x18, 0xac, 0x38, 0xf0,
  0xe6, 0x60, 0xe0, 0x1b, 0x1e, 0xda, 0x50, 0xfa, 0xe9, 0xfe, 0xb5, 0x07,
  0xf1, 0x02, 0xf8, 0xec, 0x16, 0x17, 0x1f, 0xf2, 0xe9, 0xd3, 0x1e, 0x17,
  0x00, 0xdf, 0x33, 0x02, 0xf7, 0x4a, 0x15, 0x27, 0xd3, 0xf9, 0xc8, 0x1b,
  0xb9, 0xcd, 0x11, 0xca, 0xe3, 0xd8, 0xdd, 0xb7, 0x04, 0x10, 0xf0, 0x2d,
  0x02, 0x5a, 0xd4, 0xc1, 0xbd, 0xff, 0x00, 0x27, 0xe9, 0x17, 0x42, 0xe9,
  0x1a, 0x12, 0x16, 0xd8, 0x16, 0x32, 0xfb, 0xd7, 0x22, 0x0c, 0xf5, 0x55,
  0x0e, 0xf7, 0x15, 0x2f, 0x34, 0xda, 0x3e, 0xec, 0x15, 0xee, 0xfa, 0x14,
  0x41, 0xe6, 0xee, 0xf4, 0x00, 0x4b, 0xdf, 0xea, 0x1d, 0xed, 0xe8, 0xea,
  0x19, 0xff, 0xf3, 0xcb, 0xd5, 0xe9, 0xda, 0xb1, 0x33, 0x24, 0xd5, 0x49,
  0x0a, 0x04, 0xe8, 0xee, 0xd4, 0x0b, 0xd5, 0xee, 0xee, 0x05, 0xdb, 0x1c,
  0xbe, 0xf4, 0x0a, 0xf3, 0x0d, 0xd2, 0x14, 0x2a, 0x1b, 0x0e, 0x01, 0x00,
  0x08, 0x31, 0x24, 0xe3, 0xf8, 0xdf, 0xf3, 0xeb, 0xf4, 0xda, 0xff, 0x35,
  0x12, 0x37, 0x2d, 0x10, 0x3c, 0xe1, 0x72, 0x16, 0xc9, 0xe5, 0x44, 0x13,
  0x2b, 0xed, 0x1a, 0x11, 0xff, 0x30, 0x1b, 0x16, 0xdd, 0x08, 0xf6, 0x0c,
  0xc2, 0x01, 0x20, 0xf0, 0x34, 0x1a, 0x15, 0xf7, 0x1b, 0xe1, 0xc4, 0xed,
  0xfd, 0xff, 0xb4, 0xb7, 0x0d, 0x29, 0xcc, 0x05, 0xc2, 0xe1, 0xdb, 0x12,
  0xc7, 0x66, 0xd1, 0xd7, 0x36, 0xba, 0x07, 0x48, 0xd6, 0x02, 0xf6, 0xee,
  0x1c, 0xe4, 0xe2, 0x1f, 0xd7, 0x18, 0xde, 0xf8, 0x10, 0x15, 0xf3, 0x32,
  0x09, 0x0f, 0x03, 0x2f, 0x02, 0xfa, 0xe1, 0x04, 0x11, 0x2d, 0xb7, 0x0e,
  0xf4, 0x11, 0x81, 0xd4, 0xeb, 0x52, 0x30, 0x33, 0x25, 0x24, 0x13, 0x07,
  0x24, 0xea, 0xcf, 0x09, 0xd6, 0x43, 0xcf, 0xd5, 0x29, 0xea, 0x0a, 0xf0,
  0xe3, 0xef, 0xe4, 0xfd, 0x28, 0xec, 0x32, 0x12, 0x24, 0xe7, 0x04, 0xcc,
  0x38, 0x36, 0xce, 0xf8, 0xe4, 0x2e, 0xf1, 0x1b, 0x26, 0x16, 0xfd, 0xe0,
  0xfb, 0xef, 0x02, 0x4b, 0x07, 0xf2, 0x3e, 0x19, 0xce, 0xee, 0x0d, 0xf6,
  0xce, 0x42, 0xb0, 0xd7, 0x1a, 0xa2, 0x27, 0xca, 0x2b, 0x22, 0xfc, 0x02,
  0xe1, 0xd9, 0xf8, 0x14, 0xf6, 0xe5, 0xd7, 0xf3, 0xf0, 0xcc, 0xe3, 0x29,
  0xfd, 0x27, 0xd1, 0xcb, 0xf9, 0x1d, 0x0f, 0xd0, 0xda, 0x0c, 0xfc, 0xf8,
  0xd9, 0xf2, 0x2c, 0xe0, 0x3b, 0x21, 0xf7, 0xdb, 0x2c, 0x39, 0x3c, 0xff,
  0x39, 0x39, 0x12, 0x26, 0x0e, 0x14, 0x1b, 0xf3, 0x03, 0x1e, 0x04, 0xeb,
  0xf2, 0xe5, 0x2a, 0xe2, 0xe6, 0x6e, 0x10, 0x28, 0x22, 0xce, 0x16, 0x50,
  0xf4, 0x02, 0xd2, 0xda, 0xf6, 0xcb, 0x33, 0x1a, 0x0b, 0x2c, 0xfe, 0x12,
  0xfb, 0xdd, 0x1f, 0x33, 0xf2, 0xe4, 0xfc, 0x2b, 0x14, 0x24, 0xdd, 0xd3,
  0xef, 0xff, 0xf9, 0x26, 0xfa, 0xd9, 0x07, 0x1a, 0xaa, 0xd5, 0x00, 0x14,
  0x1a, 0xdd, 0xd1, 0xef, 0xb8, 0x1f, 0xf9, 0xec, 0xe6, 0xfa, 0xd0, 0x18,
  0xd5, 0xbf, 0x00, 0x11, 0xf6, 0x19, 0x29, 0x4d, 0x39, 0x35, 0xd1, 0xd6,
  0xc8, 0xb5, 0x07, 0xcf, 0xee, 0xea, 0x29, 0x14, 0xd9, 0x68, 0x55, 0x20,
  0xff, 0x51, 0xcf, 0x99, 0x2d, 0x81, 0x11, 0xdf, 0x3d, 0x25, 0x36, 0xc0,
  0xdb, 0x4f, 0xbe, 0xe7, 0xc4, 0xf6, 0xd5, 0x97, 0xd5, 0x9e, 0xa5, 0x50,
  0x4b, 0x33, 0x0b, 0xb4, 0x11, 0xd3, 0x0d, 0x0f, 0x20, 0x18, 0xb5, 0xed,
  0xd6, 0xd4, 0xe9, 0x61, 0x53, 0x27, 0xd1, 0x19, 0xd6, 0xf4, 0x0f, 0xd1,
  0xf2, 0xd4, 0xf5, 0x21, 0xe8, 0x54, 0xfc, 0x27, 0x77, 0x5f, 0xf8, 0x42,
  0xe6, 0x19, 0x14, 0xfe, 0xce, 0xa8, 0x10, 0xcf, 0xc6, 0xf6, 0xcc, 0x8a,
  0x33, 0xf6, 0xef, 0x22, 0x3e, 0x59, 0xf0, 0x03, 0x5a, 0xdd, 0x9b, 0x87,
  0xe6, 0xda, 0xf6, 0xc7, 0x72, 0xe4, 0xd2, 0x36, 0xbe, 0xc0, 0xec, 0x21,
  0xfa, 0x44, 0x00, 0xec, 0xce, 0xbd, 0x06, 0x3d, 0xeb, 0x69, 0x16, 0x18,
  0x21, 0x90, 0x0a, 0xf2, 0xee, 0x4b, 0x14, 0xb8, 0xe4, 0xf0, 0x00, 0x3d,
  0xd1, 0x46, 0x4c, 0xc4, 0x05, 0xba, 0xb4, 0xb7, 0x03, 0x4c, 0x2e, 0x34,
  0x2f, 0x13, 0x50, 0x6e, 0xc5, 0x03, 0x46, 0x21, 0xf3, 0x18, 0xea, 0xfd,
  0xd9, 0xc8, 0x48, 0x34, 0xe6, 0x21, 0x44, 0x0e, 0xd4, 0xe4, 0x52, 0x14,
  0xe2, 0x16, 0x28, 0x0d, 0x2c, 0x20, 0x4f, 0x15, 0x2b, 0x09, 0x6f, 0x03,
  0x1b, 0x19, 0x3c, 0x3e, 0x2d, 0xf4, 0x04, 0xc1, 0x26, 0x3b, 0xf0, 0xe9,
  0x0c, 0xe3, 0xe1, 0x0f, 0xaf, 0xd2, 0x2c, 0xec, 0x0d, 0xeb, 0xf6, 0x01,
  0x2c, 0xf1, 0x12, 0x0e, 0xef, 0xc9, 0x21, 0xc7, 0x4c, 0xf5, 0x5f, 0xe7,
  0x02, 0x18, 0xdf, 0x33, 0xd1, 0xe4, 0x36, 0xed, 0xfc, 0x48, 0x66, 0xc9,
  0x03, 0xdc, 0x3e, 0xd2, 0x39, 0xed, 0x04, 0x1b, 0x0f, 0x49, 0xff, 0x47,
  0x03, 0x52, 0x50, 0x74, 0xf0, 0xfa, 0x4a, 0x37, 0xc6, 0x44, 0xc2, 0xd5,
  0x19, 0x25, 0x32, 0x04, 0x16, 0x0e, 0x05, 0x73, 0xff, 0xc8, 0xfb, 0x55,
  0xec, 0x59, 0x21, 0xd8, 0xec, 0x1e, 0xf2, 0x03, 0xf2, 0x0f, 0x1d, 0xe5,
  0x33, 0xef, 0xff, 0xd7, 0x1d, 0xc4, 0x03, 0xf2, 0xe9, 0x3f, 0xf5, 0x31,
  0x0c, 0x33, 0x18, 0xd7, 0x23, 0x20, 0x2c, 0x2f, 0xf1, 0x0a, 0x12, 0x20,
  0x46, 0xd2, 0xf4, 0x2f, 0x04, 0x67, 0xf7, 0x3b, 0xd2, 0x06, 0x45, 0xd5,
  0xf1, 0xe3, 0xf7, 0x1a, 0x0f, 0x60, 0xd3, 0x2d, 0x32, 0xe8, 0xf9, 0x43,
  0xee, 0x12, 0x3d, 0xf3, 0xdc, 0xed, 0xea, 0x26, 0xf5, 0x70, 0xe8, 0xca,
  0xda, 0x0e, 0x14, 0x25, 0xca, 0xd4, 0xbc, 0x1a, 0x01, 0x27, 0x33, 0x03,
  0xcc, 0x09, 0x06, 0xf7, 0xec, 0xbe, 0xe0, 0x03, 0x1a, 0x3b, 0xfd, 0xe1,
  0xf6, 0x0a, 0xef, 0xe3, 0x2b, 0xf2, 0xef, 0xba, 0xc7, 0xe6, 0xcf, 0x38,
  0x5c, 0x41, 0x1f, 0x26, 0xd4, 0x19, 0xea, 0xe9, 0xd6, 0x26, 0xe9, 0x28,
  0xd4, 0x07, 0x57, 0x23, 0x52, 0xe2, 0x11, 0x0e, 0x5a, 0xf3, 0xff, 0xff,
  0x04, 0x00, 0x00, 0x00, 0x80, 0x04, 0x00, 0x00, 0xf4, 0x5d, 0xea, 0x44,
  0x1e, 0xe6, 0xde, 0x20, 0x1c, 0x39, 0xe1, 0xf7, 0x0c, 0xc0, 0x31, 0xdd,
  0x33, 0xce, 0xec, 0xfc, 0xfa, 0x9b, 0x06, 0xff, 0x0d, 0x4f, 0x06, 0xce,
  0x29, 0xde, 0xd1, 0xe8, 0xe1, 0x02, 0x3c, 0x40, 0x46, 0xd8, 0x33, 0xae,
  0x42, 0x45, 0x2a, 0x34, 0xfc, 0xe7, 0x81, 0x1b, 0x06, 0x20, 0x17, 0xef,
  0x21, 0xb8, 0x06, 0x2e, 0x2f, 0x0e, 0xd4, 0x31, 0x2a, 0x08, 0xd9, 0x20,
  0x0a, 0x59, 0xc6, 0xf1, 0x06, 0x3f, 0xce, 0x14, 0xc1, 0x2a, 0x23, 0x38,
  0xd1, 0x42, 0x5f, 0x44, 0xef, 0xe8, 0x0c, 0x49, 0x05, 0x19, 0x7f, 0x44,
  0x48, 0x34, 0x07, 0x34, 0x32, 0x10, 0x21, 0x04, 0x20, 0xf1, 0xea, 0x34,
  0xc2, 0x97, 0x2f, 0xbf, 0xa1, 0xa4, 0xcd, 0x4f, 0xc1, 0xb6, 0x26, 0xb0,
  0x00, 0x24, 0xe0, 0x6c, 0xcc, 0x03, 0x6b, 0xd9, 0x09, 0x1d, 0x3c, 0x31,
  0x1c, 0x39, 0x20, 0x23, 0x05, 0xea, 0x23, 0xdd, 0x04, 0x19, 0xe2, 0x5d,
  0xc6, 0x2b, 0x08, 0xfa, 0xf0, 0xd4, 0xbe, 0x13, 0x0c, 0x00, 0xc9, 0xd6,
  0x42, 0x9c, 0xea, 0xa6, 0xd1, 0xcc, 0x38, 0xfb, 0xb8, 0xab, 0x29, 0x08,
  0xf3, 0xd7, 0xc4, 0x03, 0x9a, 0x87, 0x95, 0x17, 0x10, 0xef, 0x3d, 0x49,
  0xe0, 0x26, 0x21, 0x36, 0x57, 0x2d, 0x15, 0xee, 0x4d, 0xe1, 0x5c, 0xdb,
  0x18, 0x13, 0x36, 0x81, 0xf6, 0xc3, 0xfa, 0xc6, 0x26, 0xf6, 0x28, 0xc9,
  0x10, 0x20, 0x04, 0x41, 0xce, 0xe4, 0xe1, 0x50, 0x3f, 0x3a, 0x06, 0x00,
  0x5f, 0x1a, 0x08, 0xeb, 0x3b, 0x5a, 0x5d, 0x11, 0xb7, 0x08, 0xe5, 0xec,
  0xdb, 0x3f, 0xca, 0x12, 0x4a, 0x12, 0x42, 0xc4, 0x40, 0x28, 0xf6, 0x41,
  0x3d, 0x16, 0xb2, 0x1f, 0x36, 0xa0, 0x02, 0x34, 0xee, 0x19, 0xed, 0x70,
  0x58, 0xf2, 0x46, 0xdc, 0x13, 0xed, 0xee, 0xe4, 0xcc, 0x79, 0xed, 0xb1,
  0xe2, 0x03, 0xd7, 0x43, 0x4b, 0xbe, 0xba, 0xa8, 0x1e, 0xea, 0xf7, 0x1c,
  0x2b, 0x42, 0xe2, 0x81, 0xba, 0x46, 0x27, 0x79, 0x1d, 0x4d, 0x4c, 0xc1,
  0x47, 0x04, 0x4d, 0x75, 0x5b, 0xe4, 0x43, 0xb1, 0x2d, 0x43, 0xfe, 0x56,
  0xfd, 0x2d, 0x64, 0x0c, 0xd1, 0x43, 0x28, 0x11, 0xdf, 0xdc, 0xe5, 0x1e,
  0xc1, 0xf8, 0xf0, 0x59, 0x07, 0xb1, 0xec, 0xdf, 0x12, 0xed, 0xd5, 0x4c,
  0xe1, 0xeb, 0x64, 0xfa, 0xe9, 0xd5, 0x30, 0x7a, 0x45, 0x47, 0x27, 0xcc,
  0xcf, 0x2f, 0x13, 0xea, 0x22, 0x2b, 0xef, 0xe7, 0xbd, 0x2b, 0x34, 0x0f,
  0x1b, 0x30, 0x15, 0x34, 0x25, 0xc9, 0x06, 0x42, 0x08, 0xe6, 0xf0, 0x3f,
  0x0e, 0x45, 0xf7, 0x7f, 0x43, 0xf5, 0x3c, 0x18, 0x1d, 0x33, 0xf9, 0xfc,
  0x22, 0x0b, 0x0b, 0x48, 0x5f, 0x19, 0x31, 0xdb, 0x65, 0x52, 0xf2, 0x50,
  0x3f, 0xdb, 0xe7, 0xc2, 0x07, 0xcf, 0xef, 0xe4, 0x13, 0x20, 0x04, 0x0e,
  0x06, 0x31, 0x2c, 0x25, 0xef, 0xe8, 0x07, 0x81, 0x1b, 0xb0, 0xf5, 0xc1,
  0xc0, 0xd8, 0xcf, 0xb4, 0xf4, 0xb2, 0xbc, 0xb6, 0x4f, 0x40, 0x21, 0x19,
  0xe0, 0xe2, 0xce, 0x33, 0xfc, 0xa6, 0x07, 0xab, 0xc5, 0xd5, 0xe2, 0xd6,
  0xd8, 0xfd, 0xbb, 0x13, 0xc9, 0xf9, 0xf4, 0xa0, 0xe8, 0x0d, 0xd6, 0xfb,
  0x0e, 0xfd, 0x3c, 0x2d, 0xca, 0xdb, 0x0a, 0xf5, 0xd5, 0xf7, 0xf2, 0x0e,
  0x2c, 0x45, 0x07, 0xbf, 0xd6, 0xb6, 0xea, 0xfd, 0x04, 0x1d, 0x2b, 0xe7,
  0xfe, 0xe5, 0xe6, 0x31, 0xff, 0x4c, 0x18, 0xe1, 0x4f, 0x13, 0x23, 0x5d,
  0x55, 0x14, 0x57, 0xda, 0x46, 0x0c, 0x7f, 0x1c, 0x22, 0xbf, 0xcd, 0x07,
  0xf8, 0xc2, 0x7f, 0xc8, 0xca, 0xb8, 0xce, 0xe4, 0x09, 0xa7, 0x50, 0xc0,
  0xc4, 0xe7, 0xaa, 0x19, 0xb8, 0xfb, 0x2d, 0xf0, 0x16, 0x07, 0x11, 0xae,
  0xcb, 0xcc, 0x34, 0xf4, 0x18, 0xf8, 0xee, 0xe4, 0x35, 0xd2, 0xaf, 0xfb,
  0xed, 0x33, 0xe7, 0xd6, 0x1a, 0x2d, 0x04, 0x66, 0x26, 0x4b, 0x11, 0xdc,
  0x15, 0xf1, 0x7f, 0x47, 0x57, 0x32, 0x35, 0x02, 0x28, 0x1f, 0x26, 0x30,
  0x4f, 0x11, 0x31, 0x04, 0xd8, 0xf6, 0x74, 0x18, 0xd3, 0xd7, 0xf7, 0x0b,
  0xc8, 0x04, 0x56, 0x92, 0xc5, 0xb2, 0xa4, 0x09, 0xbf, 0xcc, 0x6a, 0xc5,
  0xa8, 0xe9, 0xb4, 0xdb, 0xe9, 0x03, 0xf6, 0xf4, 0xc2, 0xfd, 0xcb, 0x0a,
  0xdf, 0x04, 0x0e, 0xe3, 0xea, 0xf1, 0xdc, 0x16, 0x36, 0x05, 0xb5, 0xf7,
  0x42, 0x10, 0xeb, 0xc6, 0x39, 0x16, 0xd5, 0x41, 0x3d, 0x1d, 0xfe, 0xd1,
  0x34, 0x23, 0xc5, 0x36, 0x34, 0x2e, 0x15, 0x81, 0x5a, 0x40, 0xd3, 0x06,
  0xe9, 0x0c, 0x53, 0xbf, 0xf4, 0x02, 0x2e, 0x00, 0x44, 0x16, 0x35, 0x99,
  0x27, 0xf7, 0xdd, 0x26, 0xfb, 0x0c, 0x1f, 0x97, 0x16, 0x12, 0xdc, 0xf8,
  0xfe, 0xa0, 0xbd, 0xcd, 0xc0, 0xca, 0x28, 0xb4, 0x1c, 0xe6, 0x21, 0x41,
  0x33, 0x3c, 0x25, 0xf7, 0x4f, 0x1f, 0x46, 0xf6, 0xef, 0x2d, 0x48, 0x54,
  0x3d, 0x47, 0xf6, 0xf1, 0x4f, 0x1b, 0x57, 0x35, 0xc0, 0xda, 0xae, 0x7d,
  0xce, 0xf5, 0x6a, 0xed, 0xf1, 0xd9, 0x10, 0x08, 0xd8, 0xb4, 0x76, 0x24,
  0xe8, 0x10, 0xdc, 0x07, 0xfc, 0xfa, 0x18, 0xcf, 0xdc, 0xba, 0xaf, 0x1a,
  0xd8, 0xd8, 0xad, 0xf7, 0xc7, 0x12, 0xfd, 0xee, 0xe5, 0xc1, 0x81, 0x21,
  0x08, 0xd7, 0x08, 0xd5, 0x0c, 0x10, 0xcd, 0x0c, 0xa7, 0x86, 0xa7, 0x02,
  0x0c, 0xbf, 0x28, 0xa0, 0xa0, 0xda, 0xfd, 0xac, 0xaf, 0xa0, 0xfd, 0xb5,
  0x8b, 0xfa, 0xaf, 0xeb, 0x9c, 0xf5, 0xc2, 0xf5, 0xbe, 0xd2, 0x32, 0xba,
  0xba, 0xb5, 0x86, 0x34, 0xdd, 0xfd, 0xcd, 0xea, 0x14, 0xc6, 0x92, 0xd0,
  0x06, 0x31, 0xda, 0x81, 0xe0, 0xca, 0x8d, 0x25, 0x55, 0x4b, 0x5f, 0x19,
  0x6b, 0x1d, 0x36, 0x4d, 0x55, 0x6c, 0xf9, 0x2d, 0xfe, 0x4c, 0x76, 0x64,
  0x38, 0x3a, 0x52, 0x38, 0x49, 0x79, 0x3e, 0x43, 0x10, 0x54, 0x65, 0xee,
  0x67, 0x60, 0x1b, 0x62, 0xec, 0x6d, 0x5b, 0x3e, 0x69, 0xf3, 0x5a, 0x73,
  0x03, 0x2b, 0x17, 0xf9, 0x0a, 0x0d, 0x26, 0x18, 0xd1, 0x2d, 0xd7, 0x0d,
  0x30, 0xbd, 0xfe, 0x93, 0xd0, 0xf8, 0x47, 0x44, 0x29, 0xaa, 0x60, 0x0e,
  0xa9, 0xc5, 0xf2, 0x9d, 0x01, 0x81, 0xb0, 0x90, 0xbb, 0xa2, 0x0f, 0xee,
  0x1e, 0xec, 0xf0, 0xd5, 0x09, 0xb9, 0xc3, 0xa0, 0x99, 0xc4, 0xa1, 0xb8,
  0xb6, 0xff, 0x08, 0xbd, 0xa1, 0xe7, 0xbd, 0x28, 0x33, 0x23, 0xd6, 0x28,
  0xd9, 0xe6, 0xfe, 0xf8, 0x35, 0x1d, 0x0b, 0x78, 0x3a, 0x15, 0x4f, 0xf7,
  0x10, 0xed, 0x1d, 0x58, 0x17, 0xd0, 0x2a, 0x1a, 0xba, 0xf7, 0xec, 0x17,
  0xad, 0xa4, 0x00, 0x14, 0xd1, 0x23, 0x9d, 0x76, 0xdf, 0x5f, 0x0a, 0xed,
  0x4d, 0x47, 0x2a, 0x68, 0x17, 0x69, 0x30, 0x28, 0xa9, 0x97, 0xa8, 0xe8,
  0xb2, 0x95, 0xbb, 0xae, 0xc5, 0x33, 0xe6, 0x37, 0x10, 0x35, 0x10, 0x1a,
  0x12, 0x54, 0x2d, 0x6d, 0x1d, 0x7f, 0x1e, 0xde, 0x9e, 0xcb, 0xeb, 0x5e,
  0xbb, 0x06, 0xc5, 0xa9, 0x32, 0xfb, 0x01, 0x69, 0x0a, 0x78, 0x18, 0xe2,
  0xf8, 0x44, 0x12, 0xff, 0x0c, 0xcf, 0xcf, 0xf5, 0x87, 0xa5, 0xa2, 0x6b,
  0xe7, 0x4a, 0xf3, 0xe8, 0x2f, 0xec, 0x28, 0x23, 0x46, 0x7f, 0xd0, 0xf5,
  0x3d, 0x02, 0xe7, 0xe1, 0x2c, 0x0b, 0x0b, 0xc2, 0xd8, 0xcd, 0xd4, 0x7e,
  0xaf, 0x03, 0x0c, 0x07, 0x08, 0x2a, 0x1d, 0x30, 0x2a, 0x74, 0xc5, 0x28,
  0x26, 0x2e, 0x22, 0xfd, 0xf1, 0x05, 0xee, 0xed, 0x27, 0xe6, 0xe2, 0x44,
  0x03, 0x2d, 0x3c, 0xed, 0xf0, 0x3b, 0xfe, 0x39, 0x56, 0x3c, 0x68, 0x53,
  0x4d, 0x4b, 0x26, 0xe7, 0x5c, 0x51, 0x56, 0x55, 0xd0, 0x8c, 0xb7, 0xfa,
  0xeb, 0x81, 0xd5, 0xb8, 0xaf, 0x94, 0x8c, 0x2b, 0xa4, 0x11, 0x25, 0x91,
  0xd6, 0x9f, 0xf2, 0xdc, 0xb1, 0xa3, 0x49, 0xe5, 0x3e, 0x47, 0x60, 0x98,
  0xef, 0xe4, 0x92, 0x5e, 0xd7, 0x1d, 0x2e, 0xdb, 0x03, 0xf7, 0xc2, 0x0e,
  0xd8, 0x2c, 0x1b, 0xb5, 0xd3, 0xef, 0xb4, 0xfb, 0x11, 0x3a, 0x43, 0xd3,
  0x36, 0xae, 0xd2, 0xee, 0x46, 0x15, 0x1c, 0x2c, 0x36, 0xcc, 0xcb, 0xcb,
  0x1a, 0x25, 0x35, 0xd2, 0x29, 0xe9, 0x11, 0xda, 0x09, 0x20, 0x2f, 0x8e,
  0x13, 0xf3, 0x9d, 0x2a, 0xfb, 0xf8, 0xf0, 0xc9, 0x41, 0xf0, 0xc3, 0xe6,
  0x01, 0x21, 0xf4, 0xe5, 0x48, 0x20, 0x3f, 0xeb, 0xf9, 0x08, 0xe2, 0x81,
  0x1e, 0xe3, 0xa9, 0xf9, 0xfa, 0x0c, 0x15, 0xd0, 0xd0, 0xe5, 0x47, 0xc0,
  0x16, 0xe4, 0xf4, 0x02, 0xe5, 0xc2, 0x5f, 0x18, 0xe6, 0xf7, 0xff, 0xff,
  0x04, 0x00, 0x00, 0x00, 0x40, 0x00, 0x00, 0x00, 0xf9, 0x61, 0x94, 0xbc,
  0x38, 0x4d, 0x82, 0xbc, 0xba, 0x93, 0xa7, 0xbd, 0x53, 0x22, 0xa8, 0xbd,
  0xc4, 0xe6, 0x8e, 0xbd, 0xb2, 0x60, 0x9d, 0x3c, 0x0c, 0x07, 0x6f, 0xbb,
  0x00, 0x55, 0x41, 0xbb, 0x30, 0xfe, 0x1b, 0xbd, 0x03, 0x44, 0xaf, 0xbb,
  0x24, 0xae, 0xa4, 0x3a, 0x35, 0xe4, 0x24, 0x3b, 0x86, 0x07, 0x27, 0xbd,
  0xc2, 0x24, 0x81, 0xbb, 0x37, 0x97, 0xaf, 0x3d, 0xc4, 0x2a, 0x07, 0x3b,
  0x32, 0xf8, 0xff, 0xff, 0x04, 0x00, 0x00, 0x00, 0x00, 0x05, 0x00, 0x00,
  0x0b, 0x6f, 0xdc, 0xbe, 0xe6, 0x4d, 0xb1, 0xbd, 0x60, 0x15, 0xce, 0x3e,
  0x2e, 0xc1, 0xb9, 0xbe, 0x9c, 0xf1, 0x15, 0x3d, 0xad, 0x4a, 0x94, 0xbe,
  0x9a, 0x30, 0x62, 0xbd, 0xa1, 0x17, 0xe5, 0xbd, 0xcc, 0x1e, 0x90, 0xbe,
  0xe9, 0xfc, 0x29, 0x3e, 0x8f, 0x88, 0xae, 0x3e, 0x50, 0x9b, 0x03, 0xbd,
  0xf4, 0x6a, 0x51, 0x3d, 0x6d, 0x43, 0xdc, 0xbe, 0x12, 0x02, 0x59, 0xbe,
  0x23, 0x7f, 0xab, 0x3d, 0xdf, 0x9f, 0xb5, 0x3c, 0x0c, 0xb7, 0xde, 0x3e,
  0x33, 0x3a, 0x83, 0x3e, 0xa4, 0x8d, 0x29, 0xbe, 0x91, 0xc4, 0x02, 0xbe,
  0xd4, 0x0c, 0x26, 0xbe, 0xe2, 0x8e, 0x54, 0xbe, 0x25, 0x05, 0xd8, 0x3e,
  0x62, 0x04, 0xf8, 0x3d, 0x15, 0x54, 0xbd, 0x3e, 0xcb, 0x85, 0x87, 0x3e,
  0x63, 0x33, 0x8b, 0xbc, 0xc7, 0xcb, 0x8b, 0xbd, 0x00, 0xbd, 0x5f, 0xbe,
  0x3f, 0x23, 0xc6, 0x3e, 0xa2, 0x94, 0x45, 0xbe, 0x70, 0xd2, 0x87, 0xbe,
  0x99, 0x7c, 0x97, 0x3e, 0x20, 0xfe, 0xc0, 0xbe, 0x8b, 0x54, 0x3b, 0xbe,
  0xad, 0xdd, 0xf8, 0xbd, 0x1b, 0x5a, 0x5c, 0x3e, 0x93, 0x9c, 0x75, 0x3e,
  0x40, 0xf7, 0x3b, 0xbd, 0x41, 0x13, 0x45, 0x3e, 0xbd, 0xda, 0x43, 0x3e,
  0x38, 0xcf, 0xf6, 0xbe, 0x1a, 0x6d, 0x81, 0xbe, 0x29, 0x82, 0x6d, 0xbe,
  0x51, 0xd5, 0x30, 0x3d, 0xab, 0x0c, 0xe8, 0xbd, 0xa0, 0x2b, 0xbb, 0x3d,
  0x97, 0xd7, 0xa3, 0xbe, 0x4f, 0x16, 0xff, 0x3b, 0x33, 0x14, 0x8b, 0xbe,
  0xdb, 0xdf, 0xb6, 0x3d, 0xc1, 0x45, 0x8e, 0x3e, 0xde, 0x8f, 0x3d, 0x3e,
  0x36, 0xc7, 0xaa, 0x3d, 0x48, 0xf5, 0x60, 0x3e, 0xf1, 0xc7, 0xeb, 0x3e,
  0x10, 0xfd, 0xe2, 0xbd, 0x9b, 0xec, 0x0b, 0xbe, 0xb0, 0x9c, 0xa9, 0x3e,
  0x8d, 0x98, 0x76, 0xbd, 0x5b, 0xa3, 0xf7, 0x3d, 0x9c, 0x9d, 0xd3, 0x3e,
  0xfb, 0x30, 0x51, 0xbd, 0x95, 0x8a, 0xf9, 0x3d, 0x3b, 0x10, 0xb8, 0x3d,
  0xf7, 0xa6, 0x8d, 0xbe, 0xfc, 0x86, 0x75, 0x3e, 0xca, 0x8e, 0xa1, 0xbc,
  0x45, 0x8d, 0xc4, 0x3e, 0x44, 0x35, 0x9a, 0x3e, 0xb3, 0x31, 0xf3, 0x3d,
  0x5b, 0xaa, 0x36, 0xbc, 0x21, 0x7f, 0x99, 0x3e, 0x5f, 0xb0, 0x0f, 0xbe,
  0x0c, 0xc4, 0x77, 0x3e, 0xa4, 0xd9, 0x96, 0x3d, 0x17, 0xfb, 0x97, 0xbe,
  0x24, 0x2d, 0x46, 0xbe, 0xf1, 0x52, 0xa2, 0xbe, 0x78, 0xec, 0xcf, 0x3d,
  0x9b, 0xf0, 0xc2, 0x3e, 0x8b, 0xdd, 0xa8, 0xbe, 0x8b, 0xf0, 0xd7, 0x3d,
  0x23, 0xa6, 0x7e, 0xbe, 0xa7, 0x65, 0xb4, 0xbd, 0x46, 0x07, 0xbf, 0x3e,
  0xb9, 0x82, 0x25, 0xbe, 0x7f, 0x96, 0x48, 0x3e, 0x9b, 0x62, 0xac, 0xbe,
  0xed, 0x2c, 0x47, 0x3e, 0x55, 0x8b, 0x56, 0xbe, 0xe5, 0xf8, 0x8e, 0x3e,
  0x83, 0x94, 0x34, 0xbe, 0x88, 0xfe, 0xb6, 0xbe, 0x08, 0x01, 0x3d, 0x3e,
  0x05, 0x82, 0x85, 0x3d, 0xcc, 0xaf, 0x56, 0xbe, 0x32, 0x27, 0xaf, 0x3d,
  0x60, 0x90, 0x11, 0xba, 0x68, 0xfc, 0xaf, 0xbe, 0xde, 0xc8, 0x0d, 0xbb,
  0x83, 0xba, 0x1a, 0x3e, 0x25, 0xc4, 0x96, 0xbe, 0x63, 0x3b, 0xf0, 0xbe,
  0x66, 0x35, 0xdb, 0xbe, 0x58, 0x1f, 0x5c, 0x3e, 0xe0, 0xad, 0x76, 0xbd,
  0x91, 0x87, 0x3e, 0x3e, 0x3c, 0x61, 0xd5, 0x3d, 0xfa, 0x6d, 0x92, 0xbe,
  0x28, 0x02, 0x08, 0xbf, 0x17, 0x19, 0x83, 0xbe, 0x4e, 0xcf, 0x41, 0x3d,
  0xbe, 0x1a, 0x6c, 0x3e, 0x27, 0x3d, 0xb1, 0x3e, 0x0d, 0x80, 0xa2, 0xbd,
  0xf1, 0xdc, 0xa6, 0x3e, 0xe2, 0xdd, 0xda, 0x3e, 0x25, 0x7e, 0x56, 0xbd,
  0xd8, 0x6e, 0xa2, 0x3e, 0x7d, 0xa3, 0x94, 0xbe, 0x8e, 0x3e, 0xba, 0xbc,
  0xa4, 0x6d, 0x20, 0xbd, 0x73, 0xec, 0x6b, 0x3e, 0xbb, 0xb8, 0xa5, 0xbe,
  0x73, 0xb9, 0x02, 0xbd, 0xeb, 0x27, 0x97, 0xbe, 0x48, 0x61, 0xcf, 0xbe,
  0xc3, 0x7f, 0x60, 0x3d, 0x20, 0x2a, 0x89, 0xbe, 0x55, 0x39, 0xe8, 0x3d,
  0xa9, 0x2b, 0x14, 0xbe, 0xc3, 0x54, 0x68, 0x3e, 0x5e, 0x24, 0x22, 0xbe,
  0x6f, 0x22, 0x44, 0xbd, 0xdf, 0x62, 0xd7, 0xbc, 0x7c, 0xda, 0x40, 0xbe,
  0x79, 0x75, 0xa2, 0x3e, 0xd2, 0x7d, 0x4a, 0xbe, 0x29, 0xbd, 0x02, 0xbf,
  0x7c, 0x27, 0x6b, 0x3e, 0xae, 0xf2, 0xbd, 0x3e, 0x6b, 0x1c, 0x0d, 0xbd,
  0x04, 0xb2, 0x6a, 0xbd, 0xd3, 0x15, 0xb5, 0xbe, 0x6f, 0x9a, 0xaa, 0x3e,
  0x00, 0x99, 0xd1, 0xbd, 0xea, 0x2d, 0x63, 0xbe, 0x0e, 0x99, 0xb2, 0xbe,
  0x91, 0x66, 0x2e, 0xbe, 0xba, 0xae, 0xac, 0x3e, 0xc5, 0x59, 0x43, 0xbe,
  0xd1, 0x08, 0x16, 0xba, 0x42, 0xde, 0x81, 0x3e, 0x07, 0x95, 0x62, 0x3e,
  0x1b, 0xad, 0x06, 0x3e, 0x4a, 0x7e, 0xb0, 0xbe, 0xbf, 0x37, 0x59, 0xbe,
  0xef, 0xca, 0xf6, 0x3e, 0xf6, 0x74, 0x79, 0xbd, 0x76, 0x29, 0x4f, 0xbe,
  0xe0, 0xbc, 0xd5, 0x3d, 0x94, 0x30, 0xa8, 0x3d, 0x1c, 0x88, 0x85, 0xbb,
  0xdb, 0x1f, 0x3b, 0x3e, 0xb1, 0xbb, 0x10, 0xbf, 0x0a, 0x28, 0x13, 0xbf,
  0x63, 0xf1, 0xf7, 0x3e, 0xd7, 0x9d, 0x97, 0xbe, 0xec, 0xd2, 0x00, 0x3e,
  0x45, 0xfd, 0x25, 0x3e, 0xaf, 0xdb, 0x02, 0xbd, 0xac, 0x39, 0x21, 0x3d,
  0xbe, 0xba, 0x01, 0x3e, 0xab, 0x33, 0x85, 0xbe, 0x12, 0x3e, 0xe0, 0xbd,
  0x6e, 0x6a, 0x9c, 0xbd, 0x41, 0xa7, 0xbe, 0x3d, 0xc2, 0x03, 0x00, 0x3e,
  0xda, 0x6b, 0x61, 0x3e, 0x61, 0x05, 0x0e, 0x3e, 0x64, 0x49, 0x20, 0x3d,
  0x2c, 0xa1, 0xb5, 0x3e, 0x64, 0xe8, 0x88, 0x3e, 0xf6, 0x52, 0xa7, 0x3e,
  0x3f, 0x72, 0x80, 0x3e, 0x1d, 0xa9, 0x0f, 0xbf, 0x9f, 0x2b, 0xc3, 0x3e,
  0x4a, 0xd4, 0xcc, 0x3d, 0x3d, 0xeb, 0x0d, 0x3e, 0xe3, 0xfc, 0x81, 0x3e,
  0x4f, 0x74, 0x22, 0xbe, 0x0f, 0x43, 0x62, 0x3e, 0x4d, 0xb6, 0x82, 0xbe,
  0xeb, 0x47, 0xb2, 0xbe, 0xdc, 0x2c, 0x87, 0x3d, 0xea, 0xe5, 0x29, 0x3e,
  0x45, 0xe3, 0xda, 0xbe, 0xf1, 0xba, 0x4a, 0x3e, 0xdc, 0xb6, 0xd1, 0x3e,
  0x34, 0xd1, 0x2f, 0x3e, 0x7e, 0xf8, 0xae, 0xbe, 0x13, 0xbe, 0xf7, 0x3c,
  0x68, 0x57, 0x46, 0xbe, 0xe3, 0xea, 0x48, 0x3e, 0x3e, 0x5c, 0xbd, 0xbe,
  0x38, 0x26, 0x18, 0x3e, 0xc1, 0x62, 0xea, 0x3d, 0x7b, 0x7b, 0x6e, 0xbd,
  0x18, 0xef, 0x43, 0xbe, 0x15, 0x0f, 0x13, 0xbe, 0xb1, 0xa5, 0x98, 0xbe,
  0x33, 0x74, 0xcf, 0x3e, 0x89, 0x0c, 0xa0, 0x3e, 0x12, 0x01, 0xe5, 0x3e,
  0xea, 0x3c, 0xf2, 0xbe, 0x95, 0xce, 0xf7, 0x3b, 0x78, 0xab, 0x82, 0x3e,
  0x7a, 0xd9, 0x7a, 0xbd, 0x30, 0x88, 0xac, 0x3e, 0xf0, 0xc4, 0xda, 0xbe,
  0x4d, 0xf4, 0xa1, 0x3d, 0x1e, 0x5c, 0x4e, 0x3d, 0x34, 0x8a, 0x9c, 0x3e,
  0x83, 0x75, 0xeb, 0x3d, 0x69, 0x6f, 0xdb, 0xbe, 0x68, 0x7d, 0x98, 0xbd,
  0xbe, 0x84, 0xc2, 0xbc, 0x89, 0xf7, 0xf1, 0x3d, 0xb2, 0x85, 0x97, 0xbe,
  0x7d, 0x06, 0x26, 0xbe, 0x37, 0xae, 0x87, 0x3c, 0x79, 0x9c, 0x38, 0x3e,
  0x33, 0x6b, 0xa9, 0x3e, 0xbc, 0xbb, 0x37, 0xbc, 0x03, 0x7d, 0xd1, 0x3e,
  0xbe, 0x82, 0xa0, 0xbe, 0xdb, 0x64, 0x99, 0xbd, 0xe4, 0x54, 0xf6, 0xbe,
  0x9c, 0x6a, 0x08, 0x3e, 0x0b, 0xce, 0x71, 0xbe, 0xd0, 0x5a, 0xb4, 0x3e,
  0x6d, 0x62, 0x89, 0x3e, 0xd5, 0x55, 0x9c, 0xbe, 0x11, 0xd1, 0x34, 0xbd,
  0x58, 0xc2, 0xe2, 0xbe, 0xb9, 0x3c, 0x65, 0xbe, 0xc7, 0xac, 0x0c, 0x3e,
  0xf8, 0xf2, 0x9f, 0x3e, 0xf5, 0x75, 0xaf, 0x3e, 0xb6, 0x8d, 0x47, 0x3e,
  0x3c, 0x48, 0x14, 0x3e, 0xe6, 0x15, 0xda, 0x3e, 0x3a, 0x2a, 0x4f, 0x3e,
  0x25, 0xfa, 0x1e, 0x3e, 0x37, 0x4e, 0x93, 0x3d, 0x04, 0x21, 0x8f, 0xbd,
  0x7f, 0x18, 0x92, 0x3e, 0x37, 0xea, 0xd9, 0x3e, 0x2d, 0x80, 0x42, 0x3e,
  0x0a, 0xae, 0xa5, 0x3e, 0x5e, 0xc1, 0x5d, 0xbe, 0xc3, 0xed, 0x54, 0x3c,
  0x7e, 0xa6, 0x28, 0xbe, 0x54, 0x9a, 0x53, 0xbd, 0x86, 0x01, 0x8b, 0x3e,
  0x1f, 0xb1, 0x6b, 0x3d, 0xc0, 0x52, 0x25, 0xbe, 0x6e, 0xc2, 0xa7, 0x3e,
  0x9d, 0x82, 0x82, 0xbe, 0x5c, 0xc0, 0x11, 0xbd, 0xa6, 0x58, 0x77, 0x3e,
  0x86, 0xae, 0x37, 0xbe, 0xc3, 0xfc, 0x5c, 0xbe, 0x5e, 0xea, 0x9a, 0x3d,
  0x47, 0x2d, 0x9c, 0xbe, 0xda, 0xab, 0x72, 0x3e, 0xa7, 0x46, 0x19, 0x3d,
  0x0c, 0x72, 0xa8, 0xbe, 0xed, 0xb6, 0x1e, 0x3e, 0x57, 0x46, 0xb0, 0x3e,
  0x27, 0x2a, 0x85, 0x3e, 0x1c, 0xb9, 0xd5, 0xbe, 0x78, 0x60, 0x8a, 0xbe,
  0xc3, 0xb6, 0x80, 0x3d, 0x55, 0xc7, 0x45, 0xbe, 0x88, 0x06, 0x7a, 0xbe,
  0x75, 0x9c, 0x06, 0xbf, 0x9d, 0x0b, 0x62, 0x3e, 0x84, 0xf8, 0x8b, 0xbe,
  0xff, 0xed, 0x71, 0x3e, 0xd3, 0x8f, 0xb1, 0xbe, 0xa1, 0x39, 0x00, 0xbf,
  0xd6, 0x61, 0xb1, 0xbc, 0x12, 0x37, 0xf1, 0xbe, 0x74, 0x99, 0xa6, 0xbe,
  0xdf, 0xdc, 0xd9, 0xbd, 0x7f, 0x06, 0x9d, 0x3e, 0xac, 0x90, 0x43, 0x3e,
  0xf4, 0x37, 0xc4, 0xbe, 0xe3, 0x09, 0x7f, 0xbe, 0x7c, 0x83, 0xce, 0x3e,
  0x38, 0x5e, 0x90, 0xbe, 0xd0, 0xe6, 0x33, 0xbe, 0x5b, 0xa8, 0x46, 0x3e,
  0x4e, 0x20, 0x24, 0x3e, 0x9a, 0x0d, 0xe6, 0x3e, 0xe4, 0xbc, 0x01, 0x3e,
  0x0e, 0x46, 0x40, 0x3e, 0xde, 0x0b, 0x25, 0xbe, 0x69, 0x33, 0x70, 0x3e,
  0x83, 0xea, 0x02, 0x3d, 0xb2, 0x24, 0x02, 0x3e, 0x90, 0xe5, 0x9a, 0x3e,
  0xde, 0xf5, 0x17, 0xbe, 0x7a, 0xcd, 0x5a, 0x3d, 0x9e, 0xe8, 0xfc, 0x3c,
  0x74, 0xbc, 0x42, 0xbe, 0x63, 0x57, 0x9e, 0xbe, 0x3e, 0xfd, 0xff, 0xff,
  0x04, 0x00, 0x00, 0x00, 0x80, 0x00, 0x00, 0x00, 0x0e, 0x4b, 0x34, 0xbc,
  0x94, 0xac, 0x58, 0x3d, 0xed, 0x4f, 0x91, 0x3c, 0x9f, 0xa9, 0xbb, 0xbc,
  0x41, 0x09, 0x2f, 0xbc, 0xce, 0xc2, 0x53, 0x3a, 0x05, 0x9d, 0xd0, 0x3c,
  0xff, 0x8f, 0xe6, 0x3c, 0x1c, 0xce, 0x10, 0x3d, 0x9f, 0x3b, 0xae, 0x3d,
  0x4e, 0x49, 0x9f, 0xbb, 0x76, 0xfe, 0x8d, 0xbc, 0x4d, 0x5f, 0x4d, 0x3b,
  0x75, 0x27, 0x95, 0xbc, 0x75, 0xda, 0xb1, 0x3c, 0xd2, 0x62, 0x54, 0x3d,
  0x4c, 0xa1, 0xbb, 0x3c, 0x60, 0x4d, 0x32, 0x3d, 0x44, 0x44, 0x43, 0xbc,
  0xb3, 0xc7, 0xcc, 0x3b, 0xe0, 0xf5, 0x02, 0x3d, 0x79, 0x03, 0x1f, 0x3b,
  0xb3, 0xaa, 0x1c, 0xbc, 0x39, 0xae, 0xed, 0x3c, 0x9a, 0xf4, 0xd5, 0x3b,
  0x7a, 0xd4, 0xdd, 0x3c, 0xb1, 0x5c, 0x43, 0xbc, 0x7f, 0x8f, 0x38, 0x3d,
  0xcc, 0x1e, 0x99, 0xbb, 0xc9, 0xdb, 0x10, 0x3b, 0x07, 0xfb, 0x1c, 0x3d,
  0xd7, 0x5c, 0x93, 0x3b, 0xca, 0xfd, 0xff, 0xff, 0x04, 0x00, 0x00, 0x00,
  0x28, 0x00, 0x00, 0x00, 0x66, 0x91, 0xfb, 0x3c, 0x8b, 0xe9, 0x47, 0xbb,
  0x8e, 0x20, 0x00, 0xbb, 0xe6, 0xd5, 0x4b, 0xbd, 0x7c, 0x5c, 0x8b, 0xbc,
  0xee, 0x62, 0xe3, 0xbc, 0x7c, 0x30, 0x04, 0x3d, 0xf8, 0x19, 0x84, 0x3a,
  0x78, 0xdd, 0x26, 0xbc, 0x10, 0x72, 0x2d, 0x3d, 0xfe, 0xfd, 0xff, 0xff,
  0x04, 0x00, 0x00, 0x00, 0x08, 0x00, 0x00, 0x00, 0xff, 0xff, 0xff, 0xff,
  0x90, 0x01, 0x00, 0x00, 0x12, 0xfe, 0xff, 0xff, 0x04, 0x00, 0x00, 0x00,
  0x20, 0x01, 0x00, 0x00, 0xd6, 0xf2, 0xbc, 0x3e, 0x14, 0x5c, 0x9a, 0x3d,
  0x41, 0xfb, 0x48, 0x3e, 0x46, 0x5e, 0xd7, 0x3e, 0xa2, 0x75, 0xb1, 0x3e,
  0xb1, 0x48, 0x8d, 0x3e, 0x23, 0xf7, 0x8a, 0x3e, 0xe6, 0x11, 0x85, 0x3e,
  0x5b, 0xfe, 0x83, 0x3e, 0x90, 0x52, 0x0d, 0x3e, 0xa8, 0x2e, 0xd5, 0x3d,
  0x51, 0xd7, 0xfd, 0xbb, 0x66, 0x9a, 0xbb, 0xbd, 0x7c, 0x2c, 0xd8, 0x3e,
  0xc6, 0x35, 0x91, 0x3e, 0x75, 0xf7, 0xb3, 0x3e, 0xa0, 0x45, 0x3b, 0x3e,
  0x06, 0x85, 0x90, 0x3e, 0x6b, 0xa2, 0x87, 0x3e, 0x78, 0x9e, 0x14, 0xbc,
  0x48, 0xf5, 0x54, 0x3e, 0x7d, 0x8e, 0xa5, 0x3e, 0x09, 0x60, 0xe2, 0x3d,
  0x68, 0xb3, 0x1a, 0x3c, 0x6e, 0x80, 0x05, 0x3f, 0x6b, 0xdc, 0xba, 0x3e,
