unsigned char modelo_seno_float32_tflite[] = {
  0x1c, 0x00, 0x00, 0x00, 0x54, 0x46, 0x4c, 0x33, 0x14, 0x00, 0x20, 0x00,
  0x1c, 0x00, 0x18, 0x00, 0x14, 0x00, 0x10, 0x00, 0x0c, 0x00, 0x00, 0x00,
  0x08, 0x00, 0x04, 0x00, 0x14, 0x00, 0x00, 0x00, 0x1c, 0x00, 0x00, 0x00,
  0x8c, 0x00, 0x00, 0x00, 0xe4, 0x00, 0x00, 0x00, 0x48, 0x2c, 0x00, 0x00,
  0x58, 0x2c, 0x00, 0x00, 0x08, 0x32, 0x00, 0x00, 0x03, 0x00, 0x00, 0x00,
  0x01, 0x00, 0x00, 0x00, 0x04, 0x00, 0x00, 0x00, 0xe6, 0xd2, 0xff, 0xff,
  0x0c, 0x00, 0x00, 0x00, 0x1c, 0x00, 0x00, 0x00, 0x3c, 0x00, 0x00, 0x00,
  0x0f, 0x00, 0x00, 0x00, 0x73, 0x65, 0x72, 0x76, 0x69, 0x6e, 0x67, 0x5f,
  0x64, 0x65, 0x66, 0x61, 0x75, 0x6c, 0x74, 0x00, 0x01, 0x00, 0x00, 0x00,
  0x04, 0x00, 0x00, 0x00, 0x90, 0xff, 0xff, 0xff, 0x0b, 0x00, 0x00, 0x00,
  0x04, 0x00, 0x00, 0x00, 0x08, 0x00, 0x00, 0x00, 0x6f, 0x75, 0x74, 0x70,
  0x75, 0x74, 0x5f, 0x30, 0x00, 0x00, 0x00, 0x00, 0x01, 0x00, 0x00, 0x00,
  0x04, 0x00, 0x00, 0x00, 0x02, 0xd5, 0xff, 0xff, 0x04, 0x00, 0x00, 0x00,
  0x0c, 0x00, 0x00, 0x00, 0x6b, 0x65, 0x72, 0x61, 0x73, 0x5f, 0x74, 0x65,
  0x6e, 0x73, 0x6f, 0x72, 0x00, 0x00, 0x00, 0x00, 0x02, 0x00, 0x00, 0x00,
  0x34, 0x00, 0x00, 0x00, 0x04, 0x00, 0x00, 0x00, 0xdc, 0xff, 0xff, 0xff,
  0x0e, 0x00, 0x00, 0x00, 0x04, 0x00, 0x00, 0x00, 0x13, 0x00, 0x00, 0x00,
  0x43, 0x4f, 0x4e, 0x56, 0x45, 0x52, 0x53, 0x49, 0x4f, 0x4e, 0x5f, 0x4d,
  0x45, 0x54, 0x41, 0x44, 0x41, 0x54, 0x41, 0x00, 0x08, 0x00, 0x0c, 0x00,
  0x08, 0x00, 0x04, 0x00, 0x08, 0x00, 0x00, 0x00, 0x0d, 0x00, 0x00, 0x00,
  0x04, 0x00, 0x00, 0x00, 0x13, 0x00, 0x00, 0x00, 0x6d, 0x69, 0x6e, 0x5f,
  0x72, 0x75, 0x6e, 0x74, 0x69, 0x6d, 0x65, 0x5f, 0x76, 0x65, 0x72, 0x73,
  0x69, 0x6f, 0x6e, 0x00, 0x0f, 0x00, 0x00, 0x00, 0x60, 0x2b, 0x00, 0x00,
  0x58, 0x2b, 0x00, 0x00, 0x80, 0x2a, 0x00, 0x00, 0x58, 0x03, 0x00, 0x00,
  0x44, 0x03, 0x00, 0x00, 0x6c, 0x02, 0x00, 0x00, 0x94, 0x01, 0x00, 0x00,
  0xbc, 0x00, 0x00, 0x00, 0xb4, 0x00, 0x00, 0x00, 0xac, 0x00, 0x00, 0x00,
  0xa4, 0x00, 0x00, 0x00, 0x9c, 0x00, 0x00, 0x00, 0x94, 0x00, 0x00, 0x00,
  0x74, 0x00, 0x00, 0x00, 0x04, 0x00, 0x00, 0x00, 0xba, 0xd5, 0xff, 0xff,
  0x04, 0x00, 0x00, 0x00, 0x60, 0x00, 0x00, 0x00, 0x10, 0x00, 0x00, 0x00,
  0x00, 0x00, 0x00, 0x00, 0x08, 0x00, 0x0e, 0x00, 0x08, 0x00, 0x04, 0x00,
  0x08, 0x00, 0x00, 0x00, 0x10, 0x00, 0x00, 0x00, 0x24, 0x00, 0x00, 0x00,
  0x00, 0x00, 0x06, 0x00, 0x08, 0x00, 0x04, 0x00, 0x06, 0x00, 0x00, 0x00,
  0x04, 0x00, 0x00, 0x00, 0x00, 0x00, 0x00, 0x00, 0x0c, 0x00, 0x18, 0x00,
  0x14, 0x00, 0x10, 0x00, 0x0c, 0x00, 0x04, 0x00, 0x0c, 0x00, 0x00, 0x00,
  0x4e, 0x58, 0xc8, 0xed, 0x2f, 0x8f, 0xaa, 0x03, 0x02, 0x00, 0x00, 0x00,
  0x02, 0x00, 0x00, 0x00, 0x04, 0x00, 0x00, 0x00, 0x06, 0x00, 0x00, 0x00,
  0x32, 0x2e, 0x31, 0x38, 0x2e, 0x30, 0x00, 0x00, 0x26, 0xd6, 0xff, 0xff,
  0x04, 0x00, 0x00, 0x00, 0x10, 0x00, 0x00, 0x00, 0x31, 0x2e, 0x31, 0x34,
  0x2e, 0x30, 0x00, 0x00, 0x00, 0x00, 0x00, 0x00, 0x00, 0x00, 0x00, 0x00,
  0xd0, 0xcf, 0xff, 0xff, 0xd4, 0xcf, 0xff, 0xff, 0xd8, 0xcf, 0xff, 0xff,
  0xdc, 0xcf, 0xff, 0xff, 0xe0, 0xcf, 0xff, 0xff, 0x56, 0xd6, 0xff, 0xff,
  0x04, 0x00, 0x00, 0x00, 0xc8, 0x00, 0x00, 0x00, 0xb4, 0x99, 0xff, 0xbd,
  0xd9, 0xab, 0xb3, 0xbd, 0xaf, 0x24, 0x1c, 0x3f, 0xc4, 0x4e, 0xfc, 0xbd,
  0xdb, 0xf6, 0xf6, 0xbd, 0x77, 0xbd, 0x07, 0xbe, 0xfe, 0xae, 0x0e, 0xbf,
  0xe7, 0x0c, 0xf9, 0x3d, 0x1b, 0xd3, 0x7b, 0x39, 0x61, 0xd4, 0xfa, 0xbd,
  0x22, 0x7e, 0xae, 0xbd, 0xd1, 0x7d, 0xd2, 0x3d, 0x88, 0xf1, 0xdd, 0xbd,
  0x6c, 0xec, 0xc8, 0x3d, 0x3d, 0x8a, 0xee, 0x3d, 0x27, 0x45, 0xaf, 0x3b,
  0x04, 0xd9, 0xd3, 0xbd, 0x4c, 0x5b, 0x7a, 0x3d, 0xa7, 0x88, 0xdc, 0xba,
  0x0a, 0x1d, 0xf6, 0xbd, 0xc4, 0x35, 0x40, 0x3d, 0x90, 0xbd, 0xc1, 0xbc,
  0xca, 0xad, 0x4a, 0xbe, 0x9d, 0xf4, 0xb6, 0x3d, 0xfe, 0xe4, 0x02, 0xbe,
  0x37, 0x86, 0xc5, 0x3d, 0x4d, 0x85, 0x03, 0xbe, 0x5b, 0x70, 0xb2, 0x3c,
  0x34, 0x61, 0xe6, 0xbd, 0x00, 0x09, 0x8a, 0x3e, 0xf9, 0x84, 0x00, 0xbd,
  0x8d, 0xbb, 0x01, 0x3e, 0x44, 0xe3, 0x03, 0xbe, 0x5b, 0x9c, 0xfb, 0xbd,
  0x2b, 0xde, 0x14, 0xbc, 0xb5, 0x04, 0xf8, 0x3d, 0x4f, 0x5f, 0xec, 0xbd,
  0xe5, 0xc9, 0xe9, 0x3d, 0x70, 0x03, 0x02, 0xbf, 0x7f, 0x22, 0x89, 0x3d,
  0x82, 0x10, 0xa3, 0xbd, 0xaf, 0x58, 0x0f, 0x3e, 0xfc, 0x5a, 0x0a, 0x3e,
  0x13, 0x53, 0x04, 0xbe, 0x82, 0x84, 0x05, 0xbe, 0xeb, 0xd0, 0x0d, 0x3f,
  0x87, 0x9c, 0xeb, 0x3d, 0x29, 0x69, 0x23, 0xbf, 0xe7, 0x3f, 0xc7, 0xbd,
  0x86, 0x9b, 0x03, 0x3e, 0x2a, 0xd7, 0xff, 0xff, 0x04, 0x00, 0x00, 0x00,
  0xc8, 0x00, 0x00, 0x00, 0xc1, 0x7a, 0x83, 0x3d, 0x83, 0xea, 0x8d, 0xbb,
  0x2b, 0x61, 0x3b, 0x3e, 0x64, 0x02, 0xa4, 0x3d, 0xf6, 0x79, 0xd4, 0x3c,
  0xa9, 0x64, 0x96, 0xbc, 0x35, 0x86, 0x1f, 0xbe, 0x22, 0x09, 0x97, 0x3b,
  0x4c, 0x07, 0x30, 0x3b, 0xe3, 0x83, 0x11, 0x3d, 0xba, 0x9e, 0xb0, 0xbc,
  0xc3, 0xde, 0x4c, 0xbc, 0x7d, 0x93, 0x03, 0xbc, 0x8c, 0x1f, 0xac, 0xbc,
  0x33, 0xcc, 0xd8, 0xbc, 0xed, 0x41, 0x27, 0xbc, 0xbf, 0x7a, 0xe1, 0x3d,
  0xc6, 0x65, 0xb9, 0xbb, 0xbd, 0xd8, 0x3f, 0x3c, 0xe6, 0xbe, 0x03, 0x3c,
  0xf1, 0x1c, 0x17, 0xbd, 0x5d, 0x0e, 0x20, 0x3d, 0x00, 0x47, 0x3c, 0x3d,
  0x01, 0x2f, 0x4e, 0xbd, 0xae, 0x10, 0xfd, 0xbc, 0x04, 0x8a, 0x2b, 0xbd,
  0x84, 0x23, 0x5e, 0x3d, 0x6c, 0x10, 0x33, 0xbc, 0xf1, 0x52, 0x78, 0x3c,
  0xc8, 0x71, 0x8f, 0xbd, 0x57, 0xfd, 0x97, 0x3c, 0x60, 0x6f, 0x80, 0xbd,
  0x67, 0xb9, 0xaa, 0x3b, 0xc9, 0x2d, 0x2b, 0xbc, 0xcd, 0x5a, 0x8c, 0x3c,
  0x14, 0xda, 0x12, 0x3d, 0x5f, 0x8e, 0x22, 0xbc, 0x73, 0x35, 0xf8, 0xbc,
  0x6e, 0xa0, 0x24, 0x3e, 0xf4, 0x29, 0x83, 0x3b, 0xff, 0x22, 0xc6, 0xbc,
  0xf6, 0x49, 0x61, 0xbc, 0x84, 0x37, 0xf1, 0xbc, 0x85, 0x4b, 0xb0, 0x3c,
  0xa6, 0xa7, 0x28, 0xbd, 0x2a, 0xae, 0xaf, 0x3d, 0x4e, 0x16, 0x50, 0x3c,
  0x31, 0xa2, 0x0e, 0xbe, 0x63, 0xef, 0x24, 0x3d, 0x9f, 0xbc, 0x47, 0x3d,
  0xfe, 0xd7, 0xff, 0xff, 0x04, 0x00, 0x00, 0x00, 0xc8, 0x00, 0x00, 0x00,
  0x2a, 0x5b, 0xa8, 0x3c, 0x19, 0xf8, 0x91, 0x3c, 0xa4, 0x3e, 0x2f, 0x3c,
  0xe5, 0xa4, 0x35, 0xbe, 0x0c, 0xcb, 0xb1, 0xbc, 0xee, 0x10, 0xd5, 0x3c,
  0xf4, 0x17, 0x21, 0x3d, 0xff, 0x3c, 0xb5, 0x3c, 0xe9, 0x67, 0xbc, 0xbc,
  0x66, 0x54, 0x05, 0x3d, 0x2f, 0x61, 0x59, 0x3d, 0x77, 0xf4, 0xd8, 0xbc,
  0xdd, 0x8d, 0x9b, 0xbc, 0xc6, 0xe3, 0x04, 0xbd, 0xf2, 0xf1, 0xc6, 0xbc,
  0xba, 0x2d, 0xdc, 0xbc, 0x84, 0x15, 0x65, 0x3c, 0x52, 0xea, 0x08, 0xbc,
  0x4b, 0x5d, 0x75, 0x3b, 0xae, 0xe7, 0x34, 0xbd, 0x5f, 0xcc, 0x37, 0xbd,
  0x50, 0x7e, 0x1d, 0x3c, 0x09, 0x01, 0xd2, 0xbc, 0x69, 0xfc, 0x7f, 0xbc,
  0xb8, 0x7b, 0x5d, 0xba, 0x6c, 0xab, 0xaa, 0x3b, 0xf6, 0x95, 0x7b, 0xbc,
  0x18, 0x18, 0x05, 0x3c, 0x24, 0x69, 0xdc, 0x3c, 0xcd, 0x82, 0x5b, 0xbc,
  0x1d, 0x42, 0xbd, 0xbc, 0x61, 0x9a, 0xc8, 0x3c, 0xaa, 0x41, 0x58, 0xbc,
  0xe1, 0x5d, 0x3c, 0xbb, 0x94, 0x4e, 0x10, 0x3c, 0x2b, 0xb9, 0x74, 0x3c,
  0x55, 0x34, 0xf8, 0xbc, 0x75, 0x05, 0x8a, 0xbc, 0x42, 0x38, 0x4d, 0x3c,
  0xa3, 0x63, 0xb5, 0xbc, 0xb9, 0xbd, 0x03, 0x3d, 0x09, 0x11, 0x82, 0x3b,
  0x39, 0xc4, 0x27, 0xbb, 0xe9, 0x52, 0x13, 0xbc, 0xc7, 0x3e, 0xa6, 0x3c,
  0xda, 0xa5, 0x7d, 0xbc, 0xd2, 0x7b, 0xcf, 0xbc, 0x79, 0x75, 0x24, 0x3c,
  0x29, 0x17, 0xf2, 0x3a, 0x2c, 0xd5, 0x32, 0x3d, 0xd2, 0xd8, 0xff, 0xff,
  0x04, 0x00, 0x00, 0x00, 0x04, 0x00, 0x00, 0x00, 0x88, 0x3f, 0x53, 0xbc,
  0xe2, 0xd8, 0xff, 0xff, 0x04, 0x00, 0x00, 0x00, 0x10, 0x27, 0x00, 0x00,
  0x8f, 0x47, 0x68, 0xbe, 0x98, 0xf6, 0x81, 0xbe, 0x7c, 0xd8, 0xb5, 0xbe,
  0x7d, 0xf2, 0x50, 0xbd, 0x04, 0xb6, 0x71, 0xbe, 0x24, 0x6a, 0xde, 0x3c,
  0x4c, 0xd6, 0x41, 0x3e, 0xe9, 0x99, 0x27, 0x3e, 0x3f, 0x37, 0x08, 0xbe,
  0x8e, 0x52, 0x8e, 0xbe, 0x7c, 0x2e, 0x83, 0xbe, 0xa1, 0x9b, 0x3f, 0x3e,
  0x0b, 0xca, 0xf1, 0xbd, 0xe8, 0xf1, 0xac, 0x3e, 0x4a, 0x88, 0x88, 0xbd,
  0x51, 0x5c, 0x63, 0x3e, 0xd6, 0x5a, 0x49, 0xbe, 0xa3, 0x2b, 0x29, 0xbd,
  0x46, 0xe9, 0x09, 0x3e, 0xcd, 0xc7, 0x7a, 0xbe, 0xa9, 0xba, 0x82, 0x3d,
  0x61, 0xad, 0xce, 0x3d, 0x61, 0x85, 0x45, 0xbe, 0x92, 0x81, 0xcc, 0xbd,
  0x3a, 0xef, 0x9e, 0xbe, 0x3e, 0xfb, 0xb1, 0x3b, 0x30, 0x66, 0x71, 0xbd,
  0xdb, 0x81, 0x62, 0xbd, 0xe7, 0x33, 0x6c, 0xbd, 0x3a, 0xf2, 0x61, 0xbd,
  0xe6, 0xbd, 0x98, 0xbd, 0xe6, 0x87, 0x24, 0xbd, 0x30, 0xd5, 0x70, 0x3d,
  0x90, 0x33, 0x0f, 0x3c, 0x7e, 0xf3, 0x00, 0x3d, 0x8f, 0xe4, 0x4d, 0x3d,
  0x73, 0xee, 0x9d, 0xbd, 0x6c, 0x2f, 0xc9, 0xbd, 0xa5, 0x12, 0x50, 0x3e,
  0x37, 0x6b, 0x33, 0x3e, 0x5c, 0xef, 0x04, 0x3e, 0xe4, 0x9d, 0xcf, 0x3d,
  0x7f, 0xe3, 0x6e, 0x3e, 0xc5, 0x89, 0xfe, 0xbd, 0x85, 0xa7, 0x87, 0xbe,
  0x97, 0x14, 0xae, 0xbe, 0x15, 0xd3, 0x36, 0x3e, 0x2f, 0x96, 0xc8, 0x3d,
  0xab, 0x83, 0x11, 0xbe, 0x8f, 0x06, 0x65, 0x3e, 0xfc, 0x49, 0x60, 0xbd,
  0xdf, 0xaa, 0x0d, 0x3d, 0xdd, 0xc0, 0x7c, 0x3d, 0x4f, 0x08, 0x02, 0xbe,
  0xc1, 0x54, 0x54, 0x3e, 0x28, 0xc2, 0x0b, 0x3e, 0x20, 0xba, 0x3c, 0x3e,
  0x77, 0xf4, 0x15, 0x3e, 0x51, 0x73, 0x42, 0xbc, 0x44, 0xae, 0x48, 0xbe,
  0xa7, 0x1e, 0x1f, 0xbe, 0x5f, 0x86, 0x1f, 0x3e, 0x2d, 0x1f, 0xce, 0xbd,
  0x25, 0x40, 0xff, 0x3d, 0x45, 0x08, 0x0b, 0x3e, 0x22, 0x50, 0x4c, 0xbd,
  0x15, 0x20, 0x65, 0xbe, 0x37, 0x72, 0x5e, 0xbe, 0xbc, 0xc9, 0x02, 0x3e,
  0x54, 0x64, 0x1f, 0x3c, 0xc3, 0xc3, 0x34, 0xbe, 0x92, 0x33, 0xf6, 0x3d,
  0xc6, 0x9b, 0x5a, 0xbd, 0x70, 0x88, 0x95, 0x3d, 0x86, 0xe1, 0x87, 0xbe,
  0x22, 0xb7, 0x28, 0x3d, 0xf5, 0x5f, 0xd2, 0x3c, 0x0d, 0xd7, 0x69, 0x3d,
  0x14, 0xed, 0xac, 0x3b, 0x22, 0xf7, 0xbe, 0x3c, 0x14, 0xf3, 0x04, 0x3e,
  0x63, 0x2c, 0x0b, 0xbc, 0x9e, 0xc7, 0xa5, 0xbd, 0x59, 0xf6, 0x14, 0xbe,
  0xc9, 0xbf, 0x22, 0xbe, 0x2c, 0xed, 0x69, 0xbc, 0xc3, 0x89, 0x9a, 0xbb,
  0xb9, 0x38, 0x75, 0x3b, 0xe9, 0xc0, 0x0c, 0x3e, 0xa0, 0xe3, 0x0e, 0x3e,
  0x79, 0x8d, 0x67, 0xbd, 0x0d, 0xb2, 0x8b, 0xbd, 0xc6, 0x12, 0x07, 0x3d,
  0x20, 0xdf, 0x6c, 0xbe, 0xfd, 0x04, 0xca, 0xbd, 0xbc, 0x61, 0xcb, 0xbd,
  0x8b, 0xb1, 0x0c, 0xbc, 0xdc, 0x75, 0x1b, 0x3e, 0x33, 0x3f, 0xbe, 0x3d,
  0xf8, 0xf8, 0x59, 0x3e, 0x98, 0x74, 0xf6, 0x3b, 0x35, 0xe9, 0xe5, 0xbb,
  0x44, 0xe3, 0x19, 0x3d, 0xeb, 0xf1, 0x5c, 0x3d, 0xc6, 0xd9, 0x05, 0xbe,
  0xbb, 0x9f, 0x73, 0xbe, 0xa5, 0x1c, 0x49, 0x3e, 0xb9, 0xb1, 0x99, 0x3d,
  0xf7, 0xde, 0x31, 0x3e, 0xdb, 0x09, 0x00, 0xbe, 0x78, 0x07, 0x8a, 0x3b,
  0x75, 0xdf, 0x15, 0xbe, 0xca, 0x9f, 0x0e, 0x3e, 0x89, 0xf8, 0x6c, 0x3e,
  0xa4, 0x3c, 0x51, 0x3d, 0xc6, 0xc4, 0x4d, 0xbd, 0x44, 0x2b, 0x23, 0x3c,
  0xbe, 0x3e, 0xb1, 0x3d, 0x14, 0x4f, 0xf8, 0xbd, 0x6f, 0x4d, 0x2b, 0x3d,
  0x3a, 0xb0, 0x0b, 0xbe, 0xb6, 0x75, 0xce, 0x3d, 0x37, 0x27, 0xb4, 0xbc,
  0x0b, 0xd0, 0x1d, 0x3e, 0xec, 0x6f, 0x81, 0xbe, 0xbd, 0x38, 0x3a, 0xbe,
  0x00, 0x32, 0x41, 0xbe, 0xc7, 0x66, 0xd4, 0x3d, 0xb9, 0xb9, 0x9d, 0x3d,
  0x24, 0x7b, 0x53, 0x3c, 0xdd, 0xf0, 0xcc, 0x3c, 0x45, 0x92, 0x40, 0xbd,
  0x55, 0x57, 0x36, 0xbe, 0x89, 0x80, 0x64, 0xbe, 0x83, 0xc5, 0xbf, 0x3d,
  0xdb, 0x43, 0x96, 0x3e, 0x76, 0xda, 0x59, 0xbe, 0xa0, 0xe5, 0x2b, 0xbc,
  0xb8, 0x10, 0x70, 0xbe, 0x13, 0xc7, 0xc9, 0x3d, 0x8e, 0xfe, 0x73, 0x3e,
  0x3f, 0x21, 0x55, 0x3e, 0x68, 0xd6, 0x58, 0xbe, 0x3b, 0x05, 0x4d, 0x3e,
  0x90, 0x1f, 0xb4, 0x3d, 0x10, 0x5d, 0x3c, 0x3e, 0xf1, 0x78, 0x29, 0xbe,
  0xe6, 0xca, 0xf9, 0xbd, 0x95, 0x71, 0xbb, 0x3d, 0x72, 0x05, 0xb0, 0x3c,
  0xcf, 0x98, 0x9c, 0xbe, 0x7e, 0x6b, 0x23, 0xbe, 0x81, 0x4b, 0xb1, 0xbe,
  0xfb, 0x18, 0xdf, 0xbe, 0x70, 0xdc, 0xb2, 0xbe, 0xb7, 0x62, 0x02, 0xbd,
  0xb8, 0x83, 0xa9, 0x3e, 0x50, 0x27, 0xb1, 0x3d, 0x9e, 0xef, 0x68, 0xbd,
  0x5c, 0x11, 0xb3, 0xbe, 0x1c, 0xb6, 0x24, 0xbc, 0xb6, 0x48, 0x16, 0x3e,
  0xde, 0xff, 0x01, 0xbe, 0x64, 0xfb, 0x0e, 0x3f, 0x08, 0x01, 0x2d, 0x3e,
  0xeb, 0x72, 0x52, 0x3e, 0xde, 0x60, 0x91, 0xbe, 0xa8, 0x55, 0x08, 0x3e,
  0x76, 0x8f, 0x12, 0xbe, 0x8b, 0x73, 0x87, 0xbe, 0x0b, 0x23, 0x99, 0x3e,
  0x08, 0xcb, 0x3f, 0xbe, 0x19, 0xe0, 0xda, 0xbd, 0xb9, 0xfd, 0xb9, 0x3e,
  0x36, 0xef, 0x2a, 0xbe, 0x16, 0x03, 0xb8, 0x3e, 0x16, 0x72, 0xcd, 0xbe,
  0xb5, 0xfc, 0x87, 0x3e, 0xd8, 0x33, 0x96, 0xbe, 0x60, 0x57, 0x91, 0x3e,
  0xba, 0xaa, 0xf1, 0xbd, 0xae, 0x2f, 0xb4, 0x3e, 0xa5, 0xb1, 0x64, 0xbe,
  0xe4, 0x74, 0xc2, 0xbe, 0x78, 0x45, 0x53, 0xbe, 0x57, 0xa2, 0xf1, 0x3d,
  0xf9, 0x45, 0x02, 0xbe, 0x46, 0xe9, 0xb7, 0x3e, 0xe6, 0x31, 0x55, 0xbe,
  0xed, 0x5f, 0x94, 0x3d, 0xdb, 0xd6, 0x53, 0x3d, 0x64, 0x00, 0x96, 0x3e,
  0xd2, 0x18, 0x96, 0x3e, 0xd0, 0x5f, 0x83, 0xbe, 0xac, 0x79, 0x46, 0x3d,
  0xe6, 0x6b, 0x88, 0xbd, 0x03, 0x24, 0x24, 0x3e, 0x91, 0xa7, 0x7d, 0x3e,
  0x54, 0x0f, 0xba, 0xbe, 0x60, 0x09, 0xdb, 0x3b, 0xc5, 0x73, 0x11, 0xbe,
  0x1d, 0xa0, 0xde, 0xbc, 0x87, 0xe2, 0x2e, 0xbb, 0x96, 0xaf, 0x15, 0x3e,
  0xd6, 0x46, 0x10, 0x3e, 0x59, 0xd7, 0x1c, 0x3d, 0x77, 0x85, 0x7d, 0xbe,
  0x95, 0xd3, 0x25, 0x3e, 0x77, 0x31, 0xa8, 0x3c, 0xf9, 0xa9, 0x06, 0x3e,
  0x41, 0xe7, 0x5d, 0xbe, 0xe0, 0x9b, 0x4c, 0x3e, 0x83, 0x91, 0x38, 0x3e,
  0x99, 0x8e, 0x91, 0xbe, 0xf3, 0x0e, 0x81, 0xbe, 0xf7, 0x04, 0x85, 0xbe,
  0x5f, 0xf5, 0xd3, 0xbd, 0xd4, 0xaf, 0x91, 0xbc, 0xea, 0x2f, 0x5f, 0xbe,
  0x99, 0x4e, 0x8e, 0x3e, 0x51, 0x88, 0x80, 0xbe, 0x4b, 0xba, 0x9f, 0x3d,
  0x89, 0xb8, 0xe7, 0x3b, 0x5b, 0xc1, 0xc2, 0x3d, 0x95, 0x2b, 0x95, 0x3d,
  0x70, 0x6e, 0x31, 0x3e, 0xe9, 0x5d, 0x90, 0x3e, 0x51, 0xb9, 0xb8, 0xbd,
  0x51, 0x94, 0x56, 0xbd, 0x8e, 0x96, 0x70, 0xbe, 0x37, 0x5f, 0x63, 0x3d,
  0xec, 0xbc, 0x8b, 0xbe, 0x61, 0xf1, 0xd9, 0xbb, 0xb6, 0x36, 0x84, 0x3d,
  0x8c, 0xb6, 0x80, 0x3e, 0x61, 0x0a, 0x9a, 0xbe, 0x82, 0x82, 0x66, 0x3e,
  0xf5, 0xc1, 0xc7, 0xbd, 0xf1, 0xa8, 0x2a, 0xbe, 0x7d, 0xdf, 0x2d, 0xbe,
  0xaf, 0x43, 0x05, 0xbe, 0x79, 0x1e, 0x7c, 0xbe, 0x8f, 0x14, 0xbe, 0x3d,
  0x50, 0x9f, 0xdb, 0x3c, 0xcf, 0xa1, 0xab, 0x3d, 0x33, 0xdf, 0x20, 0xbc,
  0x1d, 0xc0, 0x85, 0xbe, 0x95, 0x00, 0xa4, 0xbe, 0xf9, 0xb6, 0x2c, 0x3d,
  0x2e, 0xb1, 0x05, 0x3e, 0x1d, 0x6b, 0x0f, 0x3e, 0x2c, 0x38, 0x0f, 0x3e,
  0x30, 0x4d, 0xc2, 0x3d, 0x2c, 0x49, 0x7a, 0x3d, 0xf7, 0x3b, 0xe5, 0xbd,
  0x25, 0x9b, 0x6d, 0xbe, 0xce, 0xbf, 0x62, 0x3e, 0x24, 0xac, 0x7b, 0x3e,
  0xdc, 0xfe, 0x16, 0x3e, 0x14, 0xa5, 0x85, 0xbe, 0x8f, 0x2c, 0x1f, 0x3c,
  0x1a, 0x05, 0x8a, 0xbd, 0xb2, 0x88, 0x11, 0xbd, 0xc9, 0xd5, 0x5a, 0x3e,
  0x02, 0x8c, 0x5f, 0x3e, 0x1e, 0x51, 0x30, 0x3d, 0xae, 0x1d, 0x07, 0xbd,
  0x87, 0xab, 0x4f, 0xbe, 0x5b, 0x74, 0x9d, 0x3d, 0xcc, 0xc8, 0x20, 0xbe,
  0x55, 0x0f, 0x1f, 0xbe, 0x63, 0x5d, 0x44, 0x3e, 0x11, 0xb7, 0x33, 0xbe,
  0x41, 0x99, 0x4e, 0x3d, 0x48, 0x13, 0x78, 0xbd, 0xea, 0x90, 0x87, 0xbd,
  0xba, 0xd8, 0x09, 0xbe, 0xc8, 0x3c, 0x5b, 0x3e, 0xf0, 0xc4, 0x1a, 0xbb,
  0x1b, 0x29, 0x5c, 0xbe, 0x1f, 0x44, 0x6a, 0xbb, 0x7a, 0x4e, 0xe4, 0xbc,
  0x67, 0x9c, 0x0c, 0xbe, 0xbe, 0x41, 0xac, 0x3d, 0xe0, 0xad, 0x2a, 0x3d,
  0x7c, 0x1e, 0x3b, 0x3e, 0xe9, 0x9d, 0x83, 0xbe, 0x91, 0xda, 0x83, 0x3e,
  0xcf, 0x6d, 0x4e, 0x3d, 0x0c, 0xec, 0x92, 0x3d, 0xc4, 0x92, 0xb4, 0x3b,
  0xbb, 0x74, 0x69, 0x3e, 0x16, 0xff, 0x8e, 0xbd, 0xe5, 0xf9, 0x7f, 0xbd,
  0xba, 0xc0, 0x48, 0xbe, 0x70, 0x63, 0x3b, 0xbc, 0x89, 0x58, 0x84, 0xbb,
  0x0d, 0x70, 0xa8, 0x3e, 0x4c, 0x66, 0x04, 0x3d, 0x17, 0x7d, 0x9b, 0x3e,
  0x95, 0xba, 0x5e, 0xbe, 0xa8, 0x80, 0x34, 0x3e, 0x11, 0x49, 0xbd, 0xbd,
  0x85, 0xe6, 0x50, 0x3d, 0x00, 0x2b, 0x17, 0xbe, 0xfa, 0x8b, 0x01, 0x3d,
  0xc6, 0x4f, 0x75, 0x3d, 0x6f, 0x85, 0x36, 0xbe, 0xa9, 0xba, 0x9c, 0x3b,
  0xf4, 0xce, 0xc4, 0xbd, 0x74, 0x20, 0x32, 0xbc, 0x9f, 0x4f, 0x3c, 0x3e,
  0xfc, 0x32, 0x3e, 0x3e, 0x43, 0xba, 0xfc, 0x3d, 0x6c, 0x65, 0x09, 0x3e,
  0xde, 0x6e, 0x19, 0xbe, 0xf7, 0x40, 0x6a, 0xbe, 0x0f, 0xe5, 0x2d, 0x3e,
  0x14, 0x65, 0x4e, 0xbd, 0xfe, 0x29, 0x8f, 0x3d, 0x90, 0xe9, 0xec, 0x3d,
  0x65, 0x5e, 0x69, 0xbe, 0xe7, 0xa4, 0x02, 0x3d, 0x1b, 0xf6, 0x22, 0xbe,
  0x6f, 0x65, 0x49, 0x3e, 0x70, 0x1b, 0xe9, 0x3d, 0x98, 0xa7, 0x2a, 0x3e,
  0x1d, 0x6b, 0xcb, 0x3d, 0x09, 0x06, 0x05, 0xbe, 0xae, 0x3c, 0x70, 0xbe,
  0x5b, 0x1b, 0x5c, 0xbe, 0xfe, 0xb1, 0x0a, 0x3e, 0xad, 0x66, 0x67, 0x3e,
  0xb9, 0x04, 0x8a, 0x3d, 0x56, 0x40, 0xb0, 0x3d, 0x3a, 0x27, 0x0a, 0xbe,
  0xae, 0x69, 0x1d, 0x3e, 0xe3, 0x00, 0x8f, 0x3d, 0xb2, 0x6f, 0x78, 0xbd,
  0x2b, 0x9d, 0x02, 0x3e, 0xfd, 0xb2, 0x18, 0x3e, 0xf4, 0x6e, 0xa0, 0x3d,
  0x31, 0x24, 0xc0, 0xbd, 0x67, 0xff, 0x03, 0x3d, 0xab, 0x71, 0xdc, 0xbc,
  0x89, 0xb8, 0x1b, 0x3e, 0xa6, 0xc3, 0x06, 0x3e, 0x5b, 0xca, 0x0e, 0xbe,
  0x20, 0x20, 0x56, 0x3e, 0x34, 0xc1, 0x03, 0xbe, 0x86, 0x22, 0x3b, 0xbd,
  0x87, 0x06, 0xfa, 0xbc, 0xf4, 0xc3, 0xad, 0xbe, 0xa0, 0x46, 0xd9, 0xbd,
  0x74, 0x78, 0x66, 0xbb, 0xa8, 0xf4, 0x4f, 0xbd, 0xd6, 0x24, 0xc4, 0x3c,
  0x28, 0x79, 0x93, 0x3e, 0x86, 0xd4, 0x28, 0x3e, 0xda, 0xe9, 0xdb, 0x3d,
  0x7e, 0xbb, 0x89, 0xbe, 0x3b, 0xe9, 0x51, 0xbe, 0xd2, 0xf6, 0x94, 0xbe,
  0x84, 0x10, 0x42, 0xbc, 0xf1, 0x7e, 0x46, 0xbe, 0x7a, 0x30, 0x30, 0xbc,
  0x09, 0xf4, 0xe0, 0x3d, 0x9a, 0x24, 0xd5, 0x3b, 0xe0, 0x2f, 0x70, 0x3e,
  0x78, 0xc1, 0xe1, 0xbc, 0x34, 0x5e, 0x36, 0xbe, 0xde, 0x23, 0x3d, 0x3e,
  0x8c, 0x9b, 0x3d, 0xbe, 0x12, 0x58, 0x6e, 0x3e, 0x98, 0xed, 0x83, 0x3d,
  0x82, 0xbc, 0x05, 0xbe, 0x03, 0xa6, 0x90, 0xbc, 0xc7, 0x84, 0x11, 0xbe,
  0xcd, 0x3d, 0x6e, 0xbe, 0x72, 0x83, 0xcc, 0x3d, 0xd3, 0xba, 0x82, 0x3b,
  0xa0, 0xf3, 0x49, 0x3d, 0x23, 0x36, 0xe5, 0xba, 0x3e, 0x80, 0x1b, 0xbe,
  0xa9, 0xee, 0x55, 0x3c, 0x48, 0x5b, 0x8d, 0xbd, 0xb5, 0x68, 0x54, 0xbd,
  0x72, 0x57, 0x55, 0xbd, 0x2b, 0x52, 0xe6, 0x3d, 0x2e, 0xf6, 0x10, 0x3e,
  0x9a, 0x90, 0x6b, 0xbe, 0x51, 0x49, 0x89, 0x3e, 0x2c, 0x6b, 0xf5, 0xbc,
  0x14, 0x77, 0x7e, 0xbe, 0x3d, 0x02, 0x48, 0xbe, 0x52, 0x8f, 0xc6, 0xbd,
  0x48, 0xeb, 0x23, 0x3e, 0xb5, 0x2f, 0xc6, 0x3d, 0xfb, 0x41, 0x6f, 0xbe,
  0xa9, 0xfd, 0xa0, 0x3e, 0xed, 0xa8, 0x22, 0x3e, 0xac, 0xc0, 0xb7, 0xbc,
  0xb4, 0xe8, 0x91, 0xbd, 0x31, 0x53, 0xb7, 0x3d, 0x78, 0x47, 0xd0, 0x3d,
  0x0d, 0x3b, 0x7c, 0x3e, 0x26, 0x90, 0x55, 0xbe, 0x91, 0xf7, 0x1e, 0xbe,
  0x1c, 0x22, 0x0b, 0xbe, 0x0a, 0xe2, 0x91, 0x3e, 0x99, 0x5e, 0xd3, 0xbd,
  0x43, 0xfd, 0xad, 0xbd, 0x3a, 0x2c, 0x75, 0x3e, 0x39, 0x36, 0x36, 0x3d,
  0x97, 0xce, 0x19, 0x3e, 0xc7, 0x83, 0x04, 0x3e, 0x95, 0xd8, 0x4a, 0xbe,
  0x6e, 0x1b, 0x95, 0xbc, 0x1f, 0x44, 0x50, 0x3e, 0x98, 0x6d, 0x76, 0x3e,
  0xd8, 0xc1, 0x83, 0xbd, 0x78, 0x75, 0x1a, 0xbe, 0x78, 0xc9, 0x64, 0xbe,
  0xaf, 0xe0, 0xe8, 0xbd, 0x06, 0x1c, 0xeb, 0x3d, 0x12, 0x0b, 0x04, 0xbe,
  0xf1, 0x00, 0xf8, 0x3d, 0xaf, 0xda, 0xf9, 0x3d, 0x5a, 0xf4, 0x1c, 0xbd,
  0xa3, 0x78, 0x3f, 0xbe, 0x3c, 0x84, 0x31, 0xbe, 0x5c, 0xcd, 0xf0, 0xbd,
  0xd0, 0xe8, 0xc9, 0xbd, 0x4d, 0xf3, 0xa7, 0x3e, 0x82, 0xda, 0x68, 0xbe,
  0xe8, 0x49, 0x98, 0xbe, 0xbe, 0xb0, 0x28, 0x3e, 0x16, 0xfe, 0x99, 0xbd,
  0x45, 0xc9, 0x84, 0xbb, 0x0b, 0x4e, 0x12, 0x3c, 0xfb, 0x85, 0xe2, 0xbd,
  0xdc, 0x00, 0x9a, 0x3d, 0x21, 0xa7, 0x58, 0xbe, 0x30, 0x06, 0xd3, 0x3c,
  0x52, 0x77, 0xa9, 0xbd, 0xb6, 0x1e, 0x55, 0x3e, 0xe5, 0x2c, 0x44, 0xbe,
  0xef, 0x5c, 0x80, 0xbe, 0xdb, 0x55, 0x08, 0xbc, 0xd9, 0x0e, 0x26, 0xbd,
  0x2b, 0x41, 0x86, 0xbe, 0xe2, 0x5f, 0x34, 0xbe, 0xb8, 0x80, 0xff, 0xbe,
  0x47, 0x1e, 0x48, 0x3d, 0x0f, 0xdf, 0x3a, 0x3d, 0xa3, 0x5b, 0xba, 0xbd,
  0x7f, 0x8c, 0x9c, 0x3e, 0x37, 0x88, 0x0d, 0x3e, 0xde, 0x6f, 0x83, 0xbd,
  0xba, 0xdf, 0xaf, 0xbe, 0x00, 0x2b, 0x13, 0xbe, 0x64, 0x61, 0x5d, 0x3d,
  0x57, 0x4a, 0x35, 0xbe, 0x5c, 0xd6, 0xdb, 0x3d, 0x67, 0xbb, 0x99, 0x3e,
  0x51, 0x62, 0x3f, 0xbe, 0xa7, 0xd6, 0xa5, 0xbd, 0x2e, 0x1e, 0x52, 0x3e,
  0x8f, 0xdc, 0xbd, 0xbc, 0x94, 0xa6, 0x26, 0xbc, 0xba, 0x65, 0xd5, 0x3d,
  0xb2, 0xa4, 0x9f, 0x3d, 0xb5, 0xcf, 0x52, 0xbe, 0x44, 0xd2, 0x06, 0x3b,
  0xce, 0xc7, 0x0c, 0xbe, 0x83, 0x0e, 0xb3, 0x3e, 0x47, 0x21, 0x6e, 0xbd,
  0x75, 0xa2, 0xc5, 0x3d, 0x8d, 0x79, 0x9d, 0xbe, 0xab, 0x5f, 0x54, 0xbe,
  0x33, 0xac, 0x28, 0x3e, 0xa4, 0xc3, 0x97, 0x3e, 0x81, 0x34, 0x97, 0xbe,
  0x0a, 0x76, 0x03, 0xbe, 0xf3, 0x26, 0xb2, 0xbd, 0x16, 0x17, 0xe3, 0x3c,
  0xc7, 0x42, 0x47, 0xbe, 0x15, 0x93, 0x87, 0x3e, 0x55, 0x07, 0x05, 0x3b,
  0x97, 0xbd, 0x03, 0x3e, 0xce, 0xb9, 0x0f, 0x3e, 0xde, 0x49, 0x44, 0xbd,
  0xe0, 0xed, 0x9c, 0x3e, 0x42, 0x95, 0x8a, 0x3c, 0x40, 0x2f, 0x89, 0x3d,
  0x9f, 0xae, 0x9a, 0xbe, 0xd3, 0x14, 0xc3, 0x3e, 0x83, 0x83, 0xb1, 0x3e,
  0x54, 0x7e, 0xc8, 0xbd, 0x92, 0xfd, 0xaa, 0x3e, 0x81, 0x47, 0x28, 0xbd,
  0x36, 0xcf, 0x1c, 0xbe, 0x63, 0x25, 0xce, 0xbe, 0x6c, 0x1c, 0xaf, 0xbe,
  0x93, 0x2b, 0x7c, 0xbe, 0x17, 0x29, 0x1f, 0xbd, 0xb1, 0x69, 0xba, 0x3e,
  0xa3, 0x8e, 0x3f, 0x3e, 0x36, 0xce, 0x3a, 0x3e, 0xb6, 0x34, 0x89, 0x3b,
  0x72, 0xcf, 0x2e, 0xbe, 0xca, 0x7d, 0x4e, 0x3e, 0xfd, 0x45, 0x92, 0xbe,
  0xe0, 0x8b, 0x91, 0x3e, 0xe1, 0xb8, 0x5e, 0x3e, 0x2b, 0x96, 0x18, 0x3c,
  0x0c, 0xf7, 0x8d, 0xbe, 0x4c, 0x5e, 0x8f, 0x3e, 0xeb, 0xc4, 0x2d, 0xbe,
  0x19, 0x6d, 0x19, 0xbe, 0x1b, 0x51, 0xb1, 0x3e, 0xcd, 0xf3, 0x9d, 0xbd,
  0x9f, 0x36, 0x1a, 0xbe, 0xe5, 0x4f, 0x9d, 0xbd, 0x4a, 0x91, 0x8f, 0xbd,
  0x28, 0xc3, 0xf6, 0x3c, 0xc6, 0x91, 0x45, 0xbe, 0x79, 0xf3, 0x69, 0x3d,
  0xef, 0xc8, 0xd5, 0x3c, 0x4b, 0xbd, 0x85, 0xbd, 0x8c, 0xdc, 0x12, 0xbe,
  0xd3, 0x78, 0x07, 0xbe, 0xf2, 0x94, 0x84, 0xbe, 0xf7, 0x8d, 0xc8, 0xbd,
  0x13, 0x58, 0x91, 0x3d, 0xe4, 0x21, 0x88, 0xbd, 0xa9, 0x1b, 0xd9, 0xbd,
  0x01, 0xdd, 0x80, 0xbc, 0x8a, 0xf9, 0xd5, 0x3d, 0xab, 0x23, 0x03, 0x3e,
  0xa9, 0xc9, 0x10, 0xbe, 0x35, 0xc6, 0x0d, 0xbd, 0x13, 0xa7, 0xb5, 0x3e,
  0x39, 0xab, 0x85, 0xbe, 0x5f, 0x15, 0xc0, 0xbe, 0x3f, 0x93, 0xce, 0xbe,
  0xde, 0x4f, 0x46, 0x3e, 0xde, 0xe6, 0xca, 0x3e, 0xa4, 0x78, 0xa1, 0xbe,
  0x4f, 0xae, 0x78, 0x3e, 0x52, 0x78, 0x2d, 0x3e, 0x7b, 0xe3, 0x3a, 0xbe,
  0xa2, 0xff, 0x01, 0x3e, 0xbe, 0xb2, 0x6c, 0x3d, 0x6e, 0xba, 0x54, 0x3e,
  0xc5, 0xf2, 0x5a, 0xbc, 0x84, 0x8d, 0x7f, 0x3d, 0x6b, 0x17, 0xea, 0x3d,
  0x10, 0x3d, 0x14, 0xbd, 0x80, 0xfa, 0xda, 0x3d, 0x77, 0xb3, 0xc2, 0xbd,
  0xa5, 0x9c, 0x34, 0x3d, 0x72, 0xc0, 0x4e, 0x3e, 0x4b, 0x57, 0x47, 0xbd,
  0x0a, 0x2d, 0x35, 0x3e, 0x41, 0x47, 0x60, 0x3e, 0x4a, 0x0e, 0x1e, 0x3e,
  0x2b, 0x5a, 0x30, 0xbe, 0xac, 0x8a, 0xc8, 0xbd, 0xf1, 0xf1, 0xc5, 0x3d,
  0x4e, 0xfe, 0xaf, 0x3d, 0xaf, 0x11, 0x0c, 0xbe, 0x95, 0x23, 0x3f, 0x3d,
  0x64, 0x31, 0x4b, 0xbe, 0xc3, 0xee, 0x19, 0x3e, 0xc6, 0xb6, 0xd3, 0xbd,
  0xba, 0xa0, 0x3b, 0x3e, 0x09, 0x15, 0x59, 0xbe, 0x13, 0xe0, 0x73, 0x3d,
  0x87, 0x8d, 0x73, 0x3e, 0x0c, 0x29, 0x6c, 0x3c, 0x01, 0xbc, 0x82, 0x3d,
  0x76, 0x19, 0x0b, 0xbe, 0xa0, 0xbf, 0xa4, 0x3e, 0x6a, 0x95, 0x9b, 0xbc,
  0x48, 0xfb, 0xab, 0xbe, 0x3f, 0xf2, 0x57, 0x3e, 0x0e, 0xb2, 0x07, 0x3e,
  0xb9, 0x12, 0x18, 0x3c, 0xfe, 0x2a, 0x73, 0x3e, 0x48, 0x0c, 0x85, 0x3e,
  0x48, 0x0d, 0x33, 0xbe, 0x2e, 0x99, 0x8b, 0xbe, 0xb6, 0x80, 0xcc, 0x3d,
  0x6f, 0x78, 0x1f, 0x3e, 0x83, 0x46, 0x2a, 0x3e, 0xd2, 0x10, 0x18, 0x3d,
  0x57, 0x52, 0xd0, 0xbd, 0xd4, 0x20, 0x78, 0x3d, 0x99, 0xe2, 0xf4, 0xbd,
  0x65, 0x6e, 0xd9, 0xbd, 0x0a, 0x74, 0x83, 0x3e, 0x14, 0x88, 0xa0, 0xbc,
  0x74, 0xa4, 0x2e, 0x3e, 0xa5, 0x9d, 0x87, 0x3e, 0x40, 0xf4, 0xd6, 0x3d,
  0x54, 0xc8, 0x89, 0x3b, 0xea, 0xe2, 0x29, 0x3d, 0x99, 0xa4, 0x0f, 0x3e,
  0x4a, 0x11, 0xda, 0x3d, 0x38, 0x5d, 0xb9, 0x3e, 0x9c, 0xa5, 0x5a, 0xbe,
  0x55, 0xb3, 0x55, 0x3e, 0x02, 0x89, 0x31, 0xbd, 0x03, 0xbf, 0x97, 0xbe,
  0x46, 0xb2, 0x5e, 0xbe, 0x6c, 0x4c, 0x04, 0xbe, 0x95, 0x44, 0x86, 0xbe,
  0x11, 0x21, 0x20, 0xbe, 0xac, 0xaf, 0x85, 0x3e, 0x5e, 0xf8, 0xee, 0x3b,
  0xa8, 0x94, 0x7f, 0xbc, 0xe1, 0x8d, 0xa2, 0x3d, 0x53, 0xc3, 0xee, 0x3c,
  0x04, 0x0a, 0xaf, 0x3e, 0xf4, 0x1d, 0x9c, 0x3d, 0xfe, 0x8f, 0x8a, 0x3e,
  0x9c, 0xa0, 0x23, 0xbe, 0xfe, 0x84, 0xb7, 0xbd, 0x7c, 0x3f, 0x3a, 0xbe,
  0x49, 0x95, 0x2d, 0xbd, 0x93, 0x30, 0x91, 0x3c, 0x67, 0xeb, 0xf5, 0x3d,
  0x88, 0x1e, 0x3d, 0x3e, 0x26, 0xfa, 0x1a, 0xbe, 0x28, 0x86, 0xde, 0xbe,
  0x17, 0xdc, 0xfe, 0x3d, 0xae, 0xd8, 0x25, 0xbe, 0xd3, 0xe7, 0x58, 0xbe,
  0x71, 0x47, 0x6a, 0xbe, 0xde, 0x71, 0x6c, 0x3d, 0xb3, 0x1d, 0x4d, 0xbe,
  0x91, 0xaf, 0x59, 0xbd, 0x67, 0xc2, 0x49, 0x3e, 0x4c, 0x9b, 0x87, 0x3e,
  0x49, 0xd8, 0x0c, 0xbe, 0x03, 0x17, 0xa1, 0xbd, 0xee, 0x54, 0xad, 0xbe,
  0xec, 0x4d, 0x78, 0x3e, 0x86, 0xf9, 0x5e, 0xbe, 0x81, 0xeb, 0x76, 0xbe,
  0xc7, 0x9d, 0x4b, 0x3e, 0xfa, 0x77, 0x56, 0x3e, 0x66, 0x6d, 0x03, 0x3b,
  0x50, 0x4c, 0x48, 0xbc, 0x4e, 0x9e, 0x3b, 0xbe, 0x4f, 0x9b, 0xad, 0x3d,
  0x09, 0xe5, 0x84, 0xbe, 0xc4, 0xbf, 0xc7, 0x3c, 0xab, 0x40, 0x5e, 0x3e,
  0xb6, 0x8a, 0x4c, 0x3e, 0x66, 0xcc, 0xac, 0xbd, 0x82, 0xbe, 0x87, 0x3e,
  0x1b, 0x11, 0x77, 0xbe, 0xdf, 0x61, 0x7d, 0x3d, 0x21, 0x88, 0x76, 0x3d,
  0x71, 0xaa, 0x3c, 0xbe, 0x03, 0xd2, 0xf3, 0xbd, 0x95, 0xdd, 0x6c, 0xbd,
  0x86, 0x92, 0x11, 0x3d, 0x77, 0xc9, 0x07, 0xbe, 0x91, 0x48, 0x3c, 0xbd,
  0x34, 0x4a, 0x04, 0xbe, 0x85, 0xfe, 0xda, 0xbd, 0x02, 0xff, 0x93, 0x3e,
  0x8f, 0xd2, 0xdd, 0x3d, 0x83, 0x6c, 0xd9, 0xbd, 0x99, 0x2d, 0xf2, 0xbd,
  0x06, 0x3d, 0x9d, 0x3e, 0x60, 0x1f, 0x5c, 0xbe, 0x7f, 0x6d, 0x06, 0xbe,
  0x80, 0x65, 0x2b, 0x3e, 0x93, 0x0d, 0x8d, 0x3d, 0x30, 0x47, 0x95, 0x3d,
  0x8f, 0x98, 0xe6, 0x3d, 0x33, 0x84, 0xc6, 0xbe, 0x35, 0xa5, 0x28, 0x3e,
  0xd2, 0xba, 0x8f, 0xbe, 0xab, 0xec, 0x8d, 0xbe, 0x7b, 0x39, 0xce, 0x3c,
  0x67, 0xee, 0x65, 0xbd, 0x93, 0x79, 0x43, 0xbe, 0x91, 0xdd, 0xd7, 0x3d,
  0xc3, 0x41, 0x60, 0x3e, 0x02, 0x87, 0x8a, 0x3e, 0x6d, 0x1b, 0x45, 0x3e,
  0x46, 0x61, 0x66, 0xbe, 0x18, 0x5b, 0x45, 0xbe, 0x82, 0xba, 0xb0, 0xbc,
  0x68, 0xb1, 0x6c, 0xbe, 0x04, 0xea, 0x73, 0x3e, 0xaa, 0x73, 0x38, 0x3e,
  0xd2, 0xb6, 0xab, 0x3d, 0xff, 0x48, 0x1e, 0xbe, 0xc8, 0xf0, 0x0c, 0x3e,
  0x54, 0x34, 0x55, 0x3e, 0x71, 0x14, 0x13, 0x3e, 0xe3, 0x60, 0xe1, 0x3d,
  0x68, 0x71, 0x1d, 0x3c, 0x7b, 0xd8, 0x12, 0xbe, 0xab, 0x27, 0x4e, 0x3d,
  0xa9, 0x0d, 0x76, 0xbe, 0x92, 0x41, 0x5a, 0x3d, 0x94, 0xb8, 0xb0, 0x3d,
  0x1c, 0x15, 0xac, 0xbd, 0x96, 0x96, 0x29, 0x3a, 0x16, 0x5d, 0x52, 0x3e,
  0xe7, 0x13, 0x69, 0x3c, 0xe8, 0x92, 0xc1, 0x3d, 0x59, 0x9d, 0x07, 0x3e,
  0xab, 0x88, 0x79, 0xbd, 0x82, 0x3c, 0x96, 0x3d, 0x80, 0xdb, 0x4d, 0xbe,
  0xc1, 0x66, 0x34, 0x3e, 0xb1, 0x90, 0x08, 0xbd, 0x5d, 0x8b, 0x89, 0xbe,
  0x82, 0x71, 0x34, 0xbe, 0x77, 0x7f, 0xd1, 0x3d, 0x1b, 0x73, 0x84, 0x3e,
  0x8f, 0x79, 0x96, 0xbd, 0xeb, 0x0f, 0x58, 0xbe, 0x08, 0xdb, 0x14, 0xbd,
  0x46, 0x1b, 0x1e, 0x3e, 0xe0, 0x22, 0xb7, 0xbd, 0x80, 0x72, 0x66, 0xbe,
  0x5c, 0xaf, 0xa5, 0xbe, 0x76, 0x2a, 0x44, 0x3e, 0x2c, 0xd6, 0xa7, 0xbd,
  0x3a, 0x01, 0x9c, 0xbd, 0xc2, 0xf4, 0x41, 0x3d, 0x36, 0x0c, 0x93, 0x3d,
  0x4d, 0x82, 0x05, 0xbc, 0x35, 0x79, 0x8a, 0xbe, 0x9a, 0x41, 0xab, 0x3c,
  0x5c, 0xcc, 0x81, 0x3d, 0x4c, 0x0e, 0xce, 0xbd, 0xb2, 0x66, 0x90, 0x3b,
  0x9b, 0xe7, 0x99, 0xbe, 0x4a, 0x34, 0x34, 0x3c, 0x47, 0xa5, 0x97, 0xbd,
  0x87, 0xd8, 0xe0, 0x3d, 0xae, 0x4f, 0x68, 0x3e, 0xcc, 0x9c, 0x45, 0x3e,
  0x16, 0x6d, 0x76, 0x3e, 0x03, 0x88, 0x81, 0x3e, 0xc5, 0x08, 0x26, 0x3e,
  0xbb, 0xf1, 0x3d, 0xbe, 0x0a, 0x04, 0x38, 0x3e, 0x4d, 0xae, 0x84, 0x3e,
  0x0f, 0x0d, 0x01, 0xbe, 0xcf, 0x18, 0xc7, 0xbd, 0x01, 0x40, 0x89, 0xbe,
  0xf6, 0x4a, 0x6e, 0xbd, 0x72, 0x9e, 0xd7, 0x3d, 0x73, 0xc3, 0xd4, 0xbd,
  0x81, 0xf6, 0x1b, 0xbe, 0xab, 0xce, 0x17, 0x3e, 0x55, 0x1e, 0x80, 0x3d,
  0xaa, 0xd1, 0x1f, 0x3c, 0x35, 0x56, 0x56, 0x3e, 0xcb, 0x36, 0x1d, 0x3e,
  0x53, 0x17, 0x0a, 0xbd, 0xfd, 0x3b, 0x8e, 0xbd, 0xf2, 0x28, 0x1d, 0xbe,
  0xa4, 0xf2, 0x66, 0x3e, 0x1c, 0x48, 0xae, 0x3d, 0x19, 0x7f, 0x88, 0x3e,
  0x79, 0x3c, 0x7e, 0x3c, 0x5e, 0x70, 0x1a, 0x3e, 0x65, 0xdf, 0x4a, 0xbd,
  0x31, 0x6f, 0xfb, 0x3d, 0x52, 0xb3, 0x2e, 0xbe, 0x64, 0xef, 0x26, 0x3e,
  0xf8, 0xb5, 0x83, 0x3d, 0x49, 0x9a, 0x4a, 0xbd, 0x0c, 0xce, 0x9c, 0xbe,
  0x72, 0x83, 0x21, 0x3d, 0x27, 0x9f, 0x43, 0xbe, 0x57, 0x36, 0x88, 0xbe,
  0x43, 0xdd, 0x68, 0xbe, 0x44, 0xc3, 0x14, 0x3e, 0x0e, 0x5c, 0xc2, 0xbd,
  0xa0, 0xbb, 0xc7, 0xbb, 0xae, 0xca, 0x3c, 0x3d, 0xba, 0xb9, 0xd8, 0xbd,
  0x27, 0x7b, 0x8c, 0x3e, 0xad, 0x2f, 0x26, 0xbe, 0x5e, 0x4a, 0x44, 0xbd,
  0x02, 0x8a, 0xdd, 0x3d, 0x6f, 0xc8, 0x9d, 0xbe, 0x9f, 0x41, 0x28, 0x3e,
  0x0d, 0x48, 0x05, 0xbe, 0x39, 0xf0, 0xbb, 0xbd, 0x0f, 0x06, 0x0d, 0xbe,
  0x73, 0x28, 0x2e, 0x3e, 0xa8, 0x9a, 0xdc, 0xbd, 0x91, 0xbd, 0x2f, 0xbe,
  0x97, 0xe6, 0x8d, 0x3d, 0x03, 0xb9, 0x27, 0x3e, 0x9a, 0x89, 0x6c, 0x3e,
  0x07, 0x91, 0x50, 0x3d, 0x56, 0x3a, 0x28, 0x3d, 0xd3, 0xe5, 0x26, 0xbd,
  0x86, 0x77, 0x24, 0xbe, 0xc4, 0x96, 0x6e, 0x3d, 0xa6, 0xb9, 0x99, 0x3b,
  0x91, 0xad, 0x38, 0xbe, 0xf1, 0x38, 0x4e, 0x3e, 0x54, 0xdb, 0x72, 0xbe,
  0x87, 0xd0, 0x62, 0x3d, 0x37, 0x88, 0xca, 0x3d, 0x42, 0xe3, 0x83, 0x3b,
  0x8c, 0x34, 0x1b, 0xbe, 0xb2, 0xcd, 0xd8, 0x3c, 0xcb, 0x27, 0xb0, 0xbd,
  0x9e, 0x53, 0xca, 0xbd, 0x75, 0xfd, 0xc9, 0x3d, 0x5b, 0xe6, 0x58, 0xbd,
  0x27, 0xb0, 0x80, 0xbd, 0x3f, 0x3d, 0x10, 0x3e, 0xf3, 0x1f, 0x24, 0xbd,
  0x23, 0x1a, 0x1e, 0x3d, 0xab, 0x8f, 0x10, 0x3e, 0x0c, 0xf2, 0xbf, 0x3d,
  0x4e, 0x73, 0x82, 0x3d, 0x9e, 0x8f, 0x38, 0x3e, 0x44, 0x3e, 0xc5, 0x3d,
  0x15, 0xa7, 0x5f, 0x3e, 0x68, 0x4d, 0x39, 0xbe, 0x7e, 0x8a, 0x60, 0x3d,
  0x73, 0x01, 0x32, 0xbd, 0x2f, 0xd0, 0xb6, 0x3d, 0x6f, 0x61, 0x09, 0x3e,
  0x63, 0x29, 0x51, 0x3e, 0x40, 0x65, 0x1c, 0x3e, 0x93, 0x27, 0x82, 0x3c,
  0x1c, 0x89, 0x3d, 0xbe, 0x48, 0x3f, 0xac, 0x3e, 0xce, 0x90, 0x9b, 0xbd,
  0x5c, 0xdc, 0x49, 0x3d, 0x68, 0xe5, 0x8c, 0x3d, 0x26, 0x04, 0x4d, 0x3e,
  0xe2, 0x5f, 0x90, 0x3e, 0xda, 0x95, 0x6d, 0xbe, 0x90, 0x5a, 0xb8, 0xbb,
  0xc6, 0x44, 0x6d, 0x3e, 0x1f, 0x04, 0x13, 0xbe, 0xb1, 0x20, 0xea, 0xbd,
  0xc2, 0xc9, 0xbe, 0x3d, 0xde, 0xf8, 0x18, 0xbe, 0x42, 0x35, 0xfa, 0xbd,
  0xbb, 0xc4, 0x1f, 0xbe, 0x35, 0xae, 0x01, 0xbe, 0x9a, 0xf7, 0x91, 0xbe,
  0xe1, 0xbd, 0x9e, 0xbd, 0xaf, 0x36, 0x00, 0xbc, 0xe7, 0x42, 0xf0, 0x3d,
  0x36, 0x4e, 0x45, 0x3e, 0x83, 0xcf, 0x9f, 0x3d, 0x58, 0xf0, 0x72, 0x3e,
  0xd9, 0x68, 0x9c, 0x3d, 0x2d, 0x25, 0x5f, 0xbe, 0x6e, 0x41, 0x70, 0x3d,
  0xbd, 0xd9, 0x7c, 0xbe, 0xbe, 0xdc, 0x9f, 0x3e, 0x68, 0xd2, 0x91, 0x3d,
  0x85, 0xaa, 0x70, 0x3d, 0x3c, 0x8f, 0x71, 0x3d, 0x8a, 0x23, 0xa6, 0xbd,
  0x07, 0x0f, 0x6d, 0x3e, 0xf2, 0x43, 0xf2, 0x3c, 0x9b, 0x58, 0x96, 0x3d,
  0x07, 0x76, 0x82, 0x3e, 0xcc, 0x51, 0x52, 0x3d, 0x06, 0x95, 0x1a, 0x3e,
  0x75, 0x50, 0x8f, 0x3d, 0xba, 0x4f, 0x89, 0x3e, 0x52, 0x56, 0x8e, 0xbe,
  0xce, 0x63, 0x8f, 0x3c, 0x76, 0xe9, 0x8d, 0xbd, 0x34, 0xf5, 0xb0, 0x3c,
  0x6c, 0x73, 0xca, 0x3d, 0xea, 0xbf, 0x37, 0xbe, 0xc7, 0x2d, 0x83, 0xbd,
  0x69, 0x09, 0xfd, 0x3c, 0xb7, 0x99, 0x90, 0x3d, 0x8c, 0x5d, 0xc1, 0x3c,
  0x82, 0x27, 0xeb, 0x3c, 0x2e, 0xe8, 0x07, 0xbe, 0x78, 0x8b, 0xaa, 0xbe,
  0xc2, 0x7b, 0x9b, 0xbd, 0x2f, 0xf0, 0x16, 0x3e, 0xf9, 0x66, 0x62, 0x3d,
  0x33, 0x5d, 0x0e, 0x3e, 0xc8, 0xa4, 0x2a, 0x3e, 0x34, 0x1d, 0x5f, 0xbe,
  0xe6, 0x24, 0x9b, 0xbc, 0x4d, 0x4c, 0x58, 0xbe, 0xb4, 0xcd, 0xaf, 0xbd,
  0xde, 0x2c, 0x31, 0x3e, 0x15, 0xc1, 0x0a, 0xbe, 0x02, 0xe8, 0xe2, 0xbd,
  0x5e, 0x6f, 0xb7, 0x3d, 0x93, 0xd8, 0x42, 0xbe, 0x34, 0x65, 0x1d, 0x3e,
  0x5b, 0xbf, 0x55, 0xbe, 0xae, 0xc7, 0x64, 0xbe, 0x5f, 0xb9, 0xb2, 0xbc,
  0x4c, 0xff, 0x2f, 0xbe, 0x6a, 0x26, 0x4e, 0xbe, 0xa9, 0xd5, 0xea, 0xbd,
  0xb1, 0x15, 0x98, 0x3c, 0xda, 0x8e, 0xe4, 0xbd, 0x5b, 0x1c, 0xc6, 0x3b,
  0xf6, 0xe0, 0x40, 0xbe, 0x55, 0xf4, 0x07, 0x3e, 0x28, 0x5e, 0x18, 0xbe,
  0xde, 0xf1, 0xb8, 0xbc, 0x5e, 0x28, 0x3b, 0xbe, 0x5f, 0x8b, 0x2b, 0x3e,
  0x2c, 0xaf, 0x4a, 0x3e, 0xda, 0xe5, 0xa8, 0xbd, 0xe4, 0xc4, 0x53, 0x3d,
  0x84, 0x1e, 0x6b, 0xbd, 0x1e, 0x55, 0x50, 0x3e, 0x6b, 0x9f, 0x76, 0x3e,
  0xee, 0xd1, 0xfe, 0x3d, 0x38, 0xf3, 0xc2, 0x3d, 0x35, 0x6b, 0xdd, 0xbd,
  0x39, 0x18, 0x0e, 0x3e, 0xb8, 0x1c, 0x1f, 0x3e, 0xa3, 0xb5, 0xe0, 0xbd,
  0x79, 0xd5, 0x70, 0xbd, 0xa6, 0xca, 0x3d, 0xbb, 0x1c, 0xe7, 0xc8, 0x3d,
  0x80, 0xf6, 0x52, 0x3e, 0x2c, 0x93, 0x8d, 0x3c, 0xb8, 0x3b, 0x0d, 0x3d,
  0xce, 0x13, 0xe9, 0xbd, 0xec, 0x37, 0xa5, 0xbd, 0x17, 0xe3, 0x58, 0x3e,
  0xdc, 0xad, 0xde, 0x3d, 0x91, 0x42, 0x41, 0x3e, 0x39, 0xc1, 0x20, 0x3e,
  0xca, 0x5c, 0xab, 0x3e, 0x36, 0x91, 0x81, 0xbb, 0xb3, 0xb3, 0x89, 0x3c,
  0x4e, 0xd5, 0x76, 0xbe, 0x85, 0xa5, 0x4c, 0xbe, 0x3f, 0x79, 0xfb, 0x3d,
  0x38, 0x51, 0x83, 0x3e, 0x26, 0x0e, 0xa7, 0xbe, 0x15, 0x36, 0x69, 0x3d,
  0x0e, 0x16, 0xf0, 0xbe, 0x91, 0x62, 0x94, 0xbe, 0x1d, 0xb6, 0x8f, 0x3b,
  0xe8, 0xf2, 0xcb, 0x3d, 0xe3, 0x72, 0x64, 0xbe, 0xc6, 0x16, 0x03, 0x3d,
  0x3e, 0x0b, 0x3c, 0xbd, 0x81, 0x29, 0x3c, 0xbe, 0x5b, 0x43, 0x38, 0x3e,
  0x38, 0x1f, 0x35, 0xbd, 0xbd, 0x06, 0x6b, 0xbe, 0x16, 0x5a, 0x36, 0x3e,
  0xa2, 0x28, 0xa6, 0xbe, 0xa4, 0xbc, 0x20, 0xbd, 0xfa, 0x5c, 0x89, 0x3d,
  0x93, 0x97, 0x17, 0x3e, 0x9b, 0xfb, 0x06, 0xbe, 0xfb, 0x43, 0x9e, 0x3e,
  0x70, 0xbc, 0xa4, 0x3c, 0x59, 0xb1, 0xb7, 0x3e, 0xd2, 0x1d, 0xcf, 0x3e,
  0xd1, 0x58, 0x05, 0xbd, 0x9e, 0x21, 0x93, 0xbe, 0xbf, 0x9b, 0x2a, 0x3e,
  0x97, 0x23, 0xa7, 0xbd, 0x26, 0x36, 0xb0, 0xbe, 0x1b, 0xe9, 0x66, 0x3d,
  0x33, 0x00, 0xa2, 0x3e, 0x2a, 0xfa, 0x90, 0xbe, 0x1b, 0x90, 0x46, 0xbe,
  0xf8, 0xfb, 0xd8, 0x3d, 0xd0, 0x6d, 0x91, 0x3e, 0x5d, 0x18, 0x41, 0x3d,
  0x73, 0x6d, 0x52, 0xbe, 0xa4, 0x9b, 0x8a, 0xbe, 0xad, 0x8d, 0x77, 0x3e,
  0xd1, 0xae, 0xb7, 0xbe, 0x1d, 0xae, 0x68, 0x3e, 0xfd, 0xe8, 0x8b, 0x3e,
  0x94, 0x2f, 0x91, 0x3e, 0xa4, 0x1d, 0xcb, 0x3d, 0x16, 0x33, 0xa8, 0xbd,
  0xda, 0x55, 0x38, 0x3e, 0xa6, 0x67, 0x3b, 0xbe, 0x9d, 0x17, 0x1e, 0x3e,
  0xbd, 0x68, 0x48, 0xbc, 0xee, 0x71, 0x0b, 0x3e, 0x35, 0x65, 0x6e, 0x3d,
  0x57, 0xd7, 0x6d, 0xbd, 0xe3, 0x42, 0x9a, 0xbd, 0xcf, 0x10, 0x21, 0xbe,
  0xc6, 0x2f, 0x7c, 0xbe, 0xb3, 0x9d, 0xa3, 0x3e, 0xf1, 0xe8, 0x76, 0x3e,
  0x16, 0x6a, 0xcc, 0xbb, 0x9c, 0x22, 0xdc, 0xbc, 0x34, 0xf9, 0x8d, 0x3d,
  0x42, 0xa1, 0x32, 0x3e, 0x9c, 0xe4, 0x11, 0x3e, 0x7b, 0xdd, 0x31, 0xbe,
  0x95, 0x06, 0xe3, 0xbd, 0x8f, 0x8a, 0xbc, 0x3e, 0x82, 0xf4, 0x82, 0x3c,
  0xe9, 0x25, 0xce, 0x3d, 0xb3, 0x29, 0x8f, 0x3d, 0x1b, 0x07, 0x65, 0x3e,
  0x20, 0xc9, 0x3b, 0xbd, 0x60, 0xa2, 0x5c, 0x3e, 0x64, 0x21, 0xde, 0xbc,
  0x0b, 0x8a, 0x87, 0xbd, 0x37, 0x81, 0xe2, 0x3e, 0x87, 0xb2, 0xb0, 0x3c,
  0x7f, 0xe6, 0x0b, 0x3e, 0xeb, 0x9f, 0x0b, 0x3e, 0xce, 0xcc, 0x1f, 0xbe,
  0x02, 0x66, 0x61, 0xbd, 0x6f, 0xa7, 0x11, 0xbe, 0xaa, 0x9f, 0x54, 0xbd,
  0xf8, 0xfe, 0x58, 0xbe, 0xdc, 0x8e, 0xb6, 0x3d, 0x3a, 0xe5, 0x80, 0x3e,
  0x24, 0x9f, 0x57, 0xbb, 0xb9, 0xd2, 0xb2, 0x3e, 0x25, 0x8a, 0x4c, 0xbd,
  0x1e, 0x62, 0x11, 0xbe, 0x49, 0x70, 0xd0, 0x3d, 0xb4, 0x5b, 0xaa, 0xbe,
  0x82, 0xa4, 0x39, 0xbe, 0xe2, 0x14, 0x9d, 0xbc, 0x6b, 0x10, 0xa4, 0xbe,
  0xa9, 0xcd, 0xfc, 0xbd, 0x27, 0x22, 0x35, 0xbe, 0x29, 0x76, 0x7c, 0xbe,
  0x10, 0xd5, 0x21, 0x3a, 0x58, 0x7f, 0xf5, 0xbd, 0x5c, 0x17, 0x43, 0x3e,
  0xc3, 0x7f, 0x9f, 0xbd, 0x77, 0x61, 0x4b, 0xbe, 0x6e, 0x4d, 0x3c, 0x3e,
  0x4c, 0x6b, 0xf7, 0x3c, 0x19, 0x97, 0xd2, 0x3d, 0xd9, 0x93, 0xc9, 0x3c,
  0x35, 0x16, 0xfb, 0xbd, 0x26, 0x7d, 0xcd, 0xbd, 0xbd, 0xf4, 0x39, 0x3e,
  0xbd, 0xd4, 0x34, 0xbe, 0x15, 0x8a, 0x68, 0xbe, 0xed, 0x78, 0xcf, 0x3d,
  0x67, 0x2f, 0x6c, 0xbe, 0xd1, 0xd4, 0xff, 0x3c, 0xdc, 0xfc, 0x77, 0x3e,
  0x2a, 0xa5, 0x3d, 0xbe, 0x34, 0x20, 0x81, 0x3e, 0x40, 0xc5, 0xc8, 0x3c,
  0x0c, 0x2e, 0xda, 0xbd, 0x92, 0xb4, 0x98, 0xbd, 0x92, 0x02, 0x7b, 0x3d,
  0x66, 0xcc, 0xfb, 0x3c, 0x34, 0x61, 0xac, 0x3d, 0x52, 0x42, 0xb1, 0x3d,
  0xfc, 0x4d, 0x62, 0xbe, 0x7d, 0xa3, 0x37, 0x3d, 0x00, 0x12, 0x3b, 0x3e,
  0x48, 0xe3, 0x07, 0x3d, 0xbf, 0x98, 0x5d, 0x3e, 0x4f, 0xb0, 0x2a, 0xbe,
  0x94, 0x53, 0xef, 0xbd, 0xcf, 0x75, 0x39, 0x3e, 0x34, 0xa1, 0x06, 0x3c,
  0xa7, 0x29, 0xde, 0x39, 0x25, 0xf6, 0x12, 0x3e, 0x45, 0xe6, 0xdc, 0xbd,
  0x06, 0xc8, 0xa2, 0xbe, 0xb3, 0x74, 0xed, 0xbd, 0x8a, 0x5a, 0xaf, 0x3d,
  0xf6, 0x54, 0x66, 0xbe, 0xa3, 0x0a, 0x6d, 0xbd, 0x56, 0x24, 0x02, 0x3e,
  0x9f, 0xca, 0xaf, 0xbd, 0x2b, 0x7d, 0xbe, 0x3e, 0x50, 0x5d, 0x4e, 0x3e,
  0xa8, 0x31, 0x1d, 0xbe, 0x84, 0xef, 0x00, 0xbc, 0x1e, 0x76, 0xff, 0xbc,
  0x49, 0x8d, 0x0e, 0xbe, 0x9b, 0xd9, 0x07, 0xbe, 0x86, 0x26, 0x97, 0xbd,
  0x7f, 0xc0, 0x83, 0x3e, 0x00, 0x02, 0x68, 0xbe, 0xe5, 0xbb, 0x9b, 0x3d,
  0x08, 0xe2, 0x54, 0xbe, 0x78, 0xe2, 0x7d, 0xbe, 0xcc, 0xa8, 0x85, 0xbd,
  0x24, 0x2a, 0x3e, 0xbc, 0x80, 0x15, 0xb3, 0x3d, 0xaa, 0xa4, 0x05, 0xbe,
  0x63, 0x3c, 0xa7, 0xbc, 0x88, 0x40, 0xa2, 0x3c, 0xec, 0x62, 0x84, 0x3e,
  0xea, 0x0c, 0x51, 0x3d, 0x6d, 0xee, 0x56, 0xbd, 0x5d, 0xc7, 0xfd, 0x3d,
  0x58, 0x08, 0xea, 0xbd, 0xe9, 0x7a, 0xb6, 0xbd, 0xe7, 0x05, 0x4c, 0x3e,
  0xbc, 0x97, 0x9c, 0x3e, 0xec, 0xde, 0xf4, 0xbd, 0x8d, 0xde, 0x01, 0x3e,
  0x9e, 0x59, 0x14, 0xbe, 0x9b, 0x0d, 0x43, 0x3e, 0x72, 0x3e, 0xc7, 0x3e,
  0x92, 0xce, 0x62, 0x3e, 0xca, 0x8d, 0x81, 0x3d, 0xb9, 0xb1, 0xe4, 0xbd,
  0x49, 0x17, 0xa4, 0xbe, 0xb5, 0x26, 0x35, 0x3c, 0xb2, 0xc2, 0x62, 0x3e,
  0x3e, 0xaf, 0x14, 0xbe, 0xd7, 0x53, 0x18, 0x3e, 0x72, 0xad, 0xe9, 0xbc,
  0xdb, 0x92, 0x88, 0x3e, 0x4b, 0x6d, 0x2e, 0x3e, 0xfd, 0x88, 0x29, 0x3e,
  0x0e, 0x8b, 0xbd, 0xbc, 0x62, 0xf8, 0x24, 0xbe, 0x62, 0x1a, 0xaf, 0xbd,
  0x8d, 0xb3, 0xba, 0xbd, 0xd5, 0xae, 0x20, 0x3e, 0xd6, 0xb9, 0x22, 0xbd,
  0x84, 0x25, 0xcf, 0x3e, 0x86, 0xbe, 0x1c, 0x3e, 0x08, 0xf5, 0x80, 0x3e,
  0xc1, 0x2c, 0xa2, 0x3e, 0x8f, 0xa6, 0x04, 0xbe, 0xd6, 0xaf, 0x1f, 0xbd,
  0x7b, 0xfe, 0x92, 0x3e, 0x6e, 0xa5, 0x8f, 0x3c, 0x1b, 0x05, 0x31, 0x3e,
  0xb9, 0x11, 0x51, 0x3d, 0xf9, 0x74, 0x4d, 0x3e, 0xd3, 0x92, 0x99, 0xbc,
  0x4d, 0x76, 0x5a, 0xbe, 0x0a, 0x46, 0xa8, 0xbd, 0x24, 0x78, 0x28, 0x3e,
  0x5b, 0xca, 0x83, 0xbe, 0x53, 0x93, 0x13, 0xbd, 0x5b, 0x81, 0xa9, 0x3d,
  0x44, 0xfb, 0xde, 0xbd, 0x34, 0x95, 0x32, 0x3e, 0x22, 0x68, 0xf3, 0xbc,
  0x53, 0x2f, 0x00, 0x3e, 0x45, 0x15, 0xa8, 0x3e, 0x64, 0x1c, 0xea, 0x3c,
  0xac, 0xf2, 0x9d, 0x3d, 0x2a, 0x82, 0x4a, 0xbe, 0xde, 0xf2, 0xa1, 0x3e,
  0x5d, 0x72, 0x1f, 0xbd, 0x7c, 0x2d, 0x89, 0x3e, 0x92, 0x45, 0x8f, 0xbe,
  0xd9, 0x37, 0xa4, 0x3e, 0x88, 0x15, 0xcf, 0x3e, 0xf2, 0x18, 0x15, 0xbd,
  0x0f, 0x00, 0x39, 0xbe, 0x5f, 0x5d, 0xad, 0x3c, 0x8f, 0x17, 0x94, 0x3d,
  0x46, 0x3a, 0x6b, 0xbe, 0x4a, 0x5c, 0xe3, 0xbd, 0x00, 0x93, 0xa7, 0x3d,
  0xdb, 0x81, 0x84, 0xbe, 0x2e, 0x09, 0x8f, 0xbe, 0x8a, 0xe1, 0xd1, 0x39,
  0xc7, 0xcb, 0x83, 0xbd, 0x1a, 0x77, 0x9b, 0x3e, 0x89, 0x56, 0x0b, 0xbd,
  0x68, 0x31, 0xbe, 0xbe, 0x89, 0xb2, 0xe2, 0x3d, 0x0b, 0x24, 0x56, 0xbd,
  0x85, 0xf2, 0xb5, 0x3d, 0x83, 0x02, 0x83, 0x3e, 0x00, 0x68, 0x05, 0x3e,
  0x82, 0xde, 0x40, 0xbe, 0x29, 0x3b, 0x7e, 0x3e, 0x07, 0x9f, 0x87, 0x3c,
  0x24, 0x5e, 0x23, 0xbd, 0x0f, 0xae, 0x33, 0x3d, 0x1b, 0x2e, 0xc7, 0x3d,
  0xd3, 0x79, 0xae, 0xbd, 0x46, 0x55, 0xf7, 0xbd, 0x95, 0xf5, 0x40, 0x3e,
  0x96, 0x10, 0x87, 0x3e, 0xaf, 0x3b, 0xe0, 0xbd, 0x6a, 0x94, 0xd7, 0xbc,
  0xde, 0x3f, 0x35, 0xbe, 0x1b, 0xb5, 0xbc, 0xbd, 0xd1, 0x4f, 0x7f, 0x3e,
  0x91, 0xc1, 0x35, 0x3e, 0xaf, 0x89, 0x2f, 0x3e, 0xc5, 0xc2, 0x69, 0xbc,
  0x3d, 0xfd, 0x30, 0x3e, 0x69, 0x91, 0x71, 0xbe, 0xf1, 0x80, 0x43, 0x3d,
  0x67, 0xd4, 0xa1, 0xbd, 0xdb, 0xbe, 0xf5, 0x3d, 0x44, 0x27, 0xbd, 0x3d,
  0x8c, 0x99, 0x05, 0xbe, 0x67, 0x41, 0x4c, 0xbe, 0xdb, 0x50, 0x2c, 0xbe,
  0x34, 0xa8, 0x73, 0x3e, 0x6f, 0x15, 0x5b, 0x3d, 0x7b, 0xa4, 0xfc, 0x3d,
  0x2d, 0x27, 0x31, 0x3e, 0x3b, 0x39, 0x82, 0x3e, 0x56, 0x1e, 0xe4, 0xbd,
  0x97, 0xec, 0x1e, 0xbc, 0x30, 0x77, 0x6c, 0xbc, 0xcc, 0xd6, 0x49, 0xbd,
  0x8c, 0x2f, 0xe9, 0x3d, 0x1a, 0x5b, 0x91, 0x3d, 0x38, 0x0a, 0x54, 0xbe,
  0x1d, 0x27, 0x54, 0xbe, 0xf8, 0x3f, 0x3e, 0x3d, 0x67, 0xf8, 0xc0, 0x3d,
  0xf6, 0xe0, 0x1e, 0xbe, 0x89, 0x7e, 0x2c, 0x3d, 0x73, 0x6f, 0x45, 0xbe,
  0x41, 0x11, 0x00, 0xbe, 0x66, 0x11, 0x84, 0xbd, 0xc8, 0x5b, 0x5b, 0xbe,
  0xcb, 0xf3, 0xa9, 0x3d, 0x66, 0x0e, 0x06, 0xbe, 0x9d, 0xc4, 0x52, 0xbe,
  0x7f, 0xd5, 0xa2, 0xbd, 0x11, 0x74, 0x34, 0x3e, 0x70, 0xe1, 0x46, 0x3e,
  0x7b, 0xdf, 0x0e, 0x3e, 0x2e, 0xd6, 0xa7, 0x3c, 0xe9, 0x61, 0xfb, 0xbd,
  0xb4, 0x27, 0x33, 0x3e, 0x25, 0x5b, 0x05, 0xbe, 0x96, 0x11, 0x87, 0xbd,
  0xf9, 0xce, 0xc2, 0x3b, 0x87, 0x26, 0x89, 0x3d, 0x22, 0x5b, 0x3d, 0x3e,
  0xaa, 0xe0, 0x86, 0xbd, 0x70, 0x54, 0xcc, 0x3d, 0x9b, 0x43, 0xd9, 0xbd,
  0x20, 0xd8, 0x24, 0x3e, 0x36, 0x76, 0x1d, 0xbe, 0xf2, 0xe5, 0x80, 0x3e,
  0x61, 0x45, 0xc5, 0x3d, 0x71, 0x97, 0xaf, 0x3d, 0x63, 0x91, 0x88, 0xbd,
  0xba, 0x29, 0x2d, 0x3d, 0x9d, 0xb1, 0xd4, 0xb9, 0x4a, 0xd0, 0x70, 0x3e,
  0x74, 0xd9, 0x4f, 0xbe, 0x24, 0xa2, 0xfc, 0xbd, 0x76, 0xff, 0x12, 0x3e,
  0xd5, 0x7b, 0x0b, 0x3d, 0xd1, 0x1c, 0xa4, 0x3d, 0xc1, 0x2b, 0x89, 0x3e,
  0x8c, 0x6f, 0x60, 0xbd, 0xed, 0x22, 0xb7, 0x3d, 0xb7, 0xd0, 0x03, 0xbe,
  0x4e, 0x83, 0x33, 0x3e, 0x6c, 0x89, 0x20, 0xbe, 0x60, 0x10, 0x45, 0x3e,
  0x8e, 0xc9, 0x56, 0x3c, 0xe6, 0x8c, 0x58, 0xbe, 0xce, 0xa3, 0x12, 0x3e,
  0xd9, 0xcd, 0x0b, 0xbd, 0xcd, 0xb0, 0x28, 0x3e, 0xaa, 0x05, 0x30, 0x3e,
  0x3f, 0x8c, 0x6c, 0xbe, 0x60, 0x52, 0x4c, 0x3d, 0xc6, 0x91, 0x33, 0x3e,
  0x80, 0xd7, 0x16, 0xbe, 0xcd, 0xc2, 0x0f, 0xbe, 0xd6, 0xa6, 0xbe, 0x3d,
  0xb4, 0x3a, 0x4a, 0x3e, 0x05, 0x51, 0x12, 0xbe, 0x40, 0xb4, 0xbb, 0xbc,
  0x6c, 0x8c, 0x13, 0x3e, 0x49, 0x70, 0x94, 0x3d, 0x13, 0x6f, 0x8c, 0xbe,
  0x9d, 0x46, 0x56, 0xbe, 0x06, 0x2c, 0x3e, 0x3e, 0x5e, 0x61, 0xac, 0x3e,
  0xfa, 0xb1, 0x1b, 0x3e, 0x84, 0x56, 0x68, 0x3e, 0x0d, 0xed, 0x0f, 0xbe,
  0xc0, 0x5a, 0xc7, 0x3c, 0xd1, 0x68, 0x2c, 0x3e, 0x07, 0x5e, 0xa0, 0x3d,
  0x83, 0xcc, 0x4e, 0xbe, 0x6a, 0xaf, 0x1b, 0x3e, 0xf4, 0xc9, 0x9a, 0x3d,
  0x5f, 0x94, 0x25, 0x3d, 0xfb, 0x7c, 0x7e, 0xbc, 0xbc, 0xb2, 0xf5, 0x3d,
  0x05, 0x72, 0x1b, 0xbe, 0x6e, 0x03, 0xb4, 0x3e, 0x82, 0x8f, 0xb0, 0x3a,
  0x69, 0x88, 0x77, 0x3e, 0x5a, 0x21, 0x95, 0xbe, 0x11, 0x14, 0x9b, 0x3e,
  0xe7, 0xa6, 0x2a, 0xbe, 0x02, 0x9b, 0xd4, 0x3d, 0x6e, 0xea, 0x84, 0xbe,
  0x22, 0x33, 0x0c, 0xbe, 0xbd, 0x75, 0x36, 0x3e, 0xda, 0x7a, 0x72, 0xbe,
  0xe0, 0x65, 0xcb, 0xbe, 0xb6, 0xa3, 0xa1, 0x3e, 0x2c, 0x59, 0x10, 0xbd,
  0xcb, 0x25, 0x2e, 0xbe, 0xe1, 0xa5, 0x0f, 0xbe, 0xdf, 0xb2, 0xf5, 0xbd,
  0x48, 0xf9, 0x9c, 0xbe, 0x67, 0x83, 0x8f, 0xbe, 0x24, 0xc2, 0xbb, 0x3d,
  0xdf, 0x3b, 0x26, 0xbc, 0xf8, 0x91, 0x11, 0xbd, 0x65, 0xfc, 0x6a, 0xbd,
  0x87, 0xfc, 0x81, 0x3c, 0x5f, 0x32, 0x07, 0xbe, 0xfa, 0xfe, 0xd3, 0xbe,
  0x9c, 0x10, 0x4a, 0xbe, 0x73, 0x17, 0x3b, 0x3e, 0x8a, 0x83, 0xbb, 0x3d,
  0x42, 0xa8, 0x0f, 0x3e, 0x47, 0x4f, 0x2d, 0x3d, 0x35, 0xa1, 0x00, 0xbe,
  0xff, 0x21, 0x35, 0xbe, 0x19, 0xfb, 0x93, 0x3c, 0x8a, 0x1a, 0x20, 0xbe,
  0xb6, 0x14, 0x38, 0x3e, 0xa8, 0xb8, 0x2a, 0xbe, 0xea, 0x6c, 0x31, 0xbe,
  0x29, 0x54, 0x11, 0xbd, 0xab, 0x4d, 0xfe, 0xbd, 0x8f, 0x0c, 0xbf, 0xba,
  0x81, 0x66, 0x15, 0xbe, 0x1d, 0x38, 0x23, 0xbd, 0x39, 0xdc, 0x42, 0xbe,
  0x86, 0x52, 0x2d, 0x3b, 0x61, 0xfc, 0x8f, 0xbe, 0x0e, 0xce, 0x59, 0xbe,
  0xbc, 0xb6, 0xd6, 0x3d, 0x2c, 0x89, 0x2d, 0x3e, 0xb2, 0xaa, 0xb6, 0x3d,
  0x02, 0xda, 0xcb, 0xbc, 0x9c, 0x2c, 0x47, 0xbd, 0xb4, 0xdf, 0x42, 0xbe,
  0xb5, 0x50, 0x4b, 0x3e, 0x82, 0xa4, 0x13, 0x3e, 0xd2, 0x5b, 0x2f, 0x3e,
  0x61, 0xe0, 0x70, 0x3e, 0x72, 0x64, 0xc3, 0xbb, 0x0c, 0xdb, 0x33, 0xbe,
  0x18, 0x12, 0xb4, 0xbc, 0xc1, 0x1b, 0x52, 0x3e, 0x71, 0x18, 0x9c, 0x3e,
  0xb7, 0x2f, 0xcd, 0x3d, 0xb7, 0x1d, 0x44, 0xbe, 0x3c, 0x9f, 0x3b, 0x3d,
  0x87, 0xb7, 0x0e, 0x3e, 0xe7, 0x20, 0xcc, 0xbd, 0x43, 0x70, 0x99, 0xbd,
  0x04, 0x88, 0x79, 0x3d, 0x3f, 0xd3, 0xb4, 0xbd, 0xec, 0x59, 0xb4, 0xbd,
  0xbc, 0x9d, 0xf9, 0x3d, 0x52, 0xe8, 0xab, 0x3d, 0x47, 0x24, 0x2e, 0x3e,
  0xde, 0x2e, 0x76, 0xbe, 0x6e, 0xdf, 0x3b, 0x3b, 0x03, 0x86, 0xab, 0xbc,
  0xf5, 0xac, 0x80, 0x3d, 0xb0, 0xee, 0x51, 0xbe, 0x67, 0x5a, 0x9f, 0xbd,
  0x1a, 0x54, 0xdf, 0x3d, 0x34, 0xbf, 0x3d, 0xbe, 0xe6, 0x40, 0x46, 0x3e,
  0x79, 0xd6, 0x61, 0x3e, 0xa5, 0x59, 0x7c, 0x3d, 0xfe, 0xda, 0x94, 0xbe,
  0x0e, 0x68, 0x81, 0x3d, 0x62, 0x09, 0x0b, 0xbd, 0x5f, 0xea, 0x18, 0xbe,
  0x2b, 0xef, 0x9c, 0xbd, 0xf8, 0x5f, 0x3a, 0xbe, 0xba, 0xa1, 0x21, 0xbd,
  0x84, 0xa2, 0x87, 0xbd, 0xc6, 0x1d, 0x66, 0xbe, 0xfd, 0x4c, 0x70, 0x3e,
  0x45, 0xd7, 0xda, 0xbd, 0xf7, 0xc4, 0xdf, 0x3b, 0x39, 0x20, 0x87, 0xbe,
  0x2c, 0xa6, 0x06, 0xbe, 0x60, 0x2e, 0xea, 0x3c, 0xca, 0xba, 0x74, 0xbe,
  0x4d, 0x02, 0x69, 0x3e, 0xc1, 0xaa, 0xa5, 0x3d, 0xcc, 0x1c, 0x35, 0xbd,
  0xd6, 0x95, 0x89, 0xbe, 0x84, 0x1c, 0x07, 0xbe, 0x3a, 0x0a, 0xb5, 0x3d,
  0x13, 0x4c, 0x2e, 0x3e, 0x9c, 0xdf, 0x8c, 0xbe, 0x17, 0x75, 0xa6, 0xbe,
  0x63, 0xe6, 0x61, 0x3e, 0xb9, 0xae, 0x82, 0x3e, 0x2b, 0x5c, 0x3f, 0xbe,
  0x20, 0xa6, 0x0c, 0x3c, 0x60, 0x91, 0x01, 0x3e, 0x83, 0x94, 0x17, 0x3d,
  0x20, 0x1a, 0xe4, 0xbd, 0xab, 0x60, 0x24, 0x3e, 0x47, 0xcb, 0x93, 0xbc,
  0xdc, 0x5a, 0x5d, 0xbd, 0x42, 0x95, 0x84, 0xbe, 0x98, 0x8b, 0x14, 0xbe,
  0x6b, 0xd1, 0x1f, 0x3e, 0xfd, 0x33, 0x99, 0x3e, 0xb5, 0x9b, 0x3f, 0x3d,
  0xc4, 0xc8, 0xb7, 0x3e, 0x46, 0x70, 0x35, 0x3e, 0x1a, 0x57, 0x22, 0x3e,
  0xb1, 0xdb, 0x90, 0x3e, 0x90, 0x2f, 0x67, 0x3e, 0xb3, 0x91, 0x48, 0xbe,
  0x28, 0x1e, 0x65, 0x3e, 0x07, 0xb4, 0x5b, 0xbe, 0x73, 0x19, 0xd8, 0x3d,
  0x91, 0xed, 0x28, 0x3d, 0xc3, 0xe3, 0x5b, 0xbe, 0xae, 0x57, 0xe2, 0x3d,
  0x3f, 0xdc, 0x9d, 0xbd, 0x2c, 0xad, 0x97, 0x3d, 0xb1, 0xd1, 0x92, 0xbe,
  0xd4, 0xd9, 0x7b, 0xbe, 0x8d, 0xc0, 0xbd, 0xbc, 0x5b, 0x2a, 0xb2, 0xbd,
  0x0b, 0x8c, 0x25, 0xbd, 0x54, 0xb7, 0x4e, 0x3d, 0x07, 0xbc, 0x0b, 0x3e,
  0x4b, 0x0b, 0x2b, 0x3e, 0x3b, 0x59, 0x44, 0xbe, 0x76, 0x3f, 0x41, 0xbe,
  0x41, 0x2a, 0x9e, 0x3d, 0x7e, 0x29, 0x90, 0x3e, 0x9e, 0xd1, 0x5b, 0xbe,
  0xb3, 0x8b, 0x5c, 0x3e, 0xdf, 0x52, 0xd9, 0xbd, 0x30, 0x1b, 0x45, 0xbd,
  0x9e, 0x67, 0x4c, 0xbe, 0x61, 0x51, 0x33, 0xbd, 0x1e, 0x75, 0xbf, 0xbd,
  0xdf, 0x14, 0x1b, 0x3e, 0xf8, 0x3a, 0x13, 0x3e, 0x02, 0xa0, 0xf2, 0xbd,
  0xc4, 0x62, 0x8a, 0xbe, 0xd7, 0xa0, 0x07, 0xbe, 0x69, 0xb1, 0x9c, 0xbd,
  0xe3, 0xc8, 0x2e, 0x3d, 0xc4, 0xb6, 0x77, 0xbe, 0xd4, 0xff, 0x4f, 0xbe,
  0x91, 0xb4, 0x14, 0x3e, 0xb5, 0x66, 0x55, 0x3e, 0xd6, 0xca, 0x3e, 0x3e,
  0x29, 0x05, 0x6d, 0x3e, 0x7d, 0x84, 0x2a, 0x3e, 0x46, 0x04, 0x3c, 0x3e,
  0x0a, 0xa1, 0xa5, 0xbc, 0xf4, 0xbe, 0x76, 0xbc, 0xdd, 0x18, 0x1c, 0xbe,
  0x95, 0xac, 0xdc, 0x3d, 0x4a, 0x49, 0xe0, 0x3d, 0x92, 0x1b, 0x03, 0x3e,
  0xa9, 0xba, 0x9f, 0xbd, 0x26, 0xf8, 0x7d, 0x3e, 0x53, 0x87, 0x0c, 0xbd,
  0xda, 0x47, 0x04, 0xbb, 0xe0, 0x04, 0x47, 0x3e, 0xed, 0xdd, 0x0e, 0xbd,
  0xb0, 0xfc, 0xe4, 0x3d, 0xe6, 0xe1, 0x71, 0x3e, 0x33, 0xd9, 0xfc, 0x3d,
  0x90, 0xef, 0xb3, 0x3d, 0x62, 0x31, 0x74, 0xbd, 0x34, 0x29, 0x24, 0xbe,
  0xe9, 0xa7, 0x3d, 0x3e, 0xf9, 0x7e, 0x23, 0xbe, 0xcd, 0x9f, 0x08, 0x3e,
  0x2b, 0x22, 0x69, 0xbe, 0x2f, 0x1c, 0x2a, 0x3e, 0x93, 0x1b, 0x47, 0xbd,
  0xc3, 0x3e, 0x2f, 0x3e, 0xda, 0x6e, 0x12, 0xbe, 0xd8, 0xff, 0xca, 0x3d,
  0x65, 0xae, 0xca, 0xbc, 0x09, 0x19, 0x76, 0xbe, 0xf1, 0x99, 0x81, 0x3e,
  0x67, 0x0f, 0x03, 0x3e, 0x1d, 0x6e, 0x2c, 0xbc, 0xea, 0xff, 0x25, 0xbe,
  0xff, 0xff, 0x9a, 0xbd, 0xcd, 0xc2, 0xb2, 0xbd, 0x10, 0x6d, 0x72, 0x3e,
  0x88, 0xec, 0xa4, 0xbd, 0xe6, 0x88, 0x97, 0x3c, 0x14, 0xdf, 0x96, 0xbe,
  0x1b, 0xd1, 0xd3, 0x3b, 0xaf, 0x1e, 0x5c, 0x3e, 0x98, 0x57, 0x1f, 0x3d,
  0x62, 0xa5, 0x93, 0x3c, 0x9e, 0xb4, 0x3c, 0xbe, 0xde, 0x30, 0x6d, 0xb9,
  0x46, 0x89, 0x6b, 0xbe, 0x91, 0xde, 0x2c, 0x3d, 0xfd, 0x74, 0x8b, 0xbd,
  0x2d, 0x5e, 0x75, 0xbc, 0x77, 0x37, 0x4d, 0x3e, 0x4c, 0xc1, 0x51, 0xbe,
  0xf3, 0xa1, 0x5a, 0xbe, 0x24, 0xac, 0x6c, 0x3b, 0xf0, 0xd8, 0x5a, 0xbe,
  0x0e, 0x7e, 0x2a, 0x3c, 0x02, 0xf0, 0x2e, 0x3d, 0x97, 0xfa, 0xaa, 0xbc,
  0x03, 0xf3, 0x6f, 0xbe, 0x68, 0xca, 0xa0, 0xbd, 0x2c, 0xc5, 0x52, 0x3c,
  0x47, 0xb6, 0xbc, 0xbd, 0xdc, 0x1f, 0x15, 0xbd, 0x24, 0x29, 0x83, 0xbe,
  0x30, 0x3f, 0x0d, 0xbe, 0x7e, 0xf4, 0x2c, 0xbe, 0x26, 0x47, 0x83, 0xbd,
  0xe6, 0x00, 0x12, 0x3e, 0x96, 0xc2, 0xae, 0x3d, 0x72, 0xb5, 0x2e, 0xbe,
  0x76, 0x28, 0x10, 0x3e, 0xdd, 0x25, 0x36, 0x3e, 0xf5, 0x27, 0x8e, 0xbd,
  0x84, 0x17, 0x3c, 0xbe, 0xb2, 0x4c, 0x1e, 0x3e, 0x02, 0x33, 0x85, 0xbe,
  0x41, 0xa0, 0x3c, 0x3e, 0x36, 0x59, 0x91, 0xbd, 0x60, 0x96, 0x14, 0x3d,
  0x7d, 0xbb, 0x55, 0x3e, 0x17, 0xa1, 0x83, 0xbe, 0x63, 0x68, 0x37, 0x3e,
  0x11, 0xc2, 0xd2, 0x3c, 0x36, 0xd6, 0x81, 0x3d, 0xd2, 0xef, 0x2d, 0xbe,
  0x4b, 0x54, 0xf4, 0xbd, 0x79, 0xf4, 0x0f, 0xbe, 0x65, 0x03, 0x5a, 0xbb,
  0x49, 0xf8, 0x02, 0x3d, 0x91, 0x38, 0x87, 0x3e, 0x10, 0x7c, 0x33, 0x3e,
  0x69, 0xad, 0x21, 0x3e, 0xb3, 0x93, 0x51, 0x3e, 0xfe, 0x40, 0x66, 0xbe,
  0x66, 0x46, 0x71, 0xbe, 0xd8, 0xc3, 0x5b, 0xbd, 0x46, 0xe9, 0x15, 0x3e,
  0x47, 0xa1, 0x62, 0x3d, 0xbe, 0xf7, 0x30, 0xbe, 0xb4, 0x81, 0xcf, 0xbd,
  0xb8, 0x69, 0x1a, 0x3e, 0x35, 0x8f, 0x96, 0x3e, 0xc4, 0xa2, 0x70, 0xbd,
  0x70, 0x02, 0x30, 0x3e, 0x1c, 0xaa, 0x55, 0x3e, 0x2d, 0xcd, 0xb4, 0x3d,
  0x17, 0xe9, 0xe4, 0xbc, 0xfc, 0x8e, 0xc5, 0x3d, 0x7b, 0x21, 0xa9, 0xbd,
  0x1e, 0x1f, 0xd1, 0x3d, 0x53, 0xda, 0x15, 0x3d, 0xe0, 0x2e, 0x45, 0x3e,
  0xc5, 0x3f, 0xa8, 0xbd, 0xd6, 0xe0, 0x9e, 0xbc, 0x50, 0xf3, 0xfe, 0xbd,
  0x7a, 0xb2, 0x8f, 0xbd, 0x4e, 0x31, 0x06, 0x3b, 0x53, 0x16, 0x2f, 0xbd,
  0xc3, 0x38, 0x89, 0xbe, 0x6a, 0xeb, 0x38, 0xbe, 0x72, 0x92, 0x35, 0xbe,
  0x7b, 0xa3, 0x44, 0xbe, 0xc4, 0xe9, 0x31, 0x3e, 0x7c, 0xa7, 0x05, 0x3e,
  0xa6, 0x1c, 0xec, 0x3d, 0x08, 0xc0, 0x5b, 0x3d, 0x27, 0xd3, 0x07, 0xbe,
  0x28, 0x50, 0xdf, 0xbd, 0x85, 0xf2, 0xcb, 0x3d, 0xe0, 0x62, 0xf2, 0xbd,
  0xf7, 0x98, 0x7d, 0x3e, 0x71, 0x0a, 0x0b, 0xbe, 0xbe, 0x68, 0x6c, 0x3e,
  0x18, 0x2c, 0x15, 0x3e, 0x5f, 0xb5, 0x4c, 0xbe, 0xa8, 0xb0, 0x2e, 0xbe,
  0xbf, 0x81, 0x71, 0x3d, 0xff, 0xee, 0xe9, 0xbd, 0x91, 0x21, 0xd5, 0x3d,
  0x2f, 0x29, 0xa2, 0xbd, 0xe0, 0xfd, 0xbd, 0xbc, 0xce, 0x82, 0x3a, 0x3d,
  0x69, 0xb1, 0x28, 0x3e, 0x07, 0x8b, 0x75, 0x3e, 0x80, 0xa6, 0x2a, 0xbe,
  0x81, 0x38, 0x01, 0xbe, 0xa5, 0x8a, 0xaf, 0x3d, 0xe9, 0x27, 0x0d, 0x3d,
  0x9f, 0x74, 0x0e, 0xbe, 0xb2, 0x4f, 0xd6, 0xbd, 0x36, 0x30, 0xa8, 0xbd,
  0x6a, 0xe4, 0x7d, 0xbd, 0x03, 0xd3, 0x35, 0x3d, 0xcd, 0xb7, 0xa1, 0xbe,
  0x2e, 0xe9, 0x96, 0xbe, 0xaf, 0x8a, 0x8d, 0xbe, 0x97, 0x97, 0xb1, 0xbe,
  0x51, 0x5a, 0xa7, 0xbd, 0x41, 0x28, 0x06, 0xbd, 0x0b, 0xeb, 0x62, 0xbe,
  0xe8, 0xa7, 0x99, 0x3e, 0xf2, 0x0d, 0x0e, 0xbd, 0xa6, 0x0a, 0xc9, 0x3d,
  0x2b, 0x28, 0x3a, 0xbe, 0xce, 0x06, 0x0b, 0xbf, 0x83, 0xd3, 0x80, 0x3e,
  0xe7, 0x13, 0xf6, 0xbe, 0x59, 0xe3, 0xd1, 0x3e, 0xfd, 0xbb, 0x26, 0x3d,
  0x3b, 0x6f, 0x89, 0xbd, 0x39, 0x2d, 0x86, 0xbe, 0xd0, 0x4a, 0x90, 0x3e,
  0xf4, 0xb6, 0xb3, 0x3d, 0xdd, 0x0c, 0xc5, 0xbe, 0x36, 0x97, 0xa6, 0x3d,
  0x85, 0xa3, 0xc4, 0x3d, 0x3a, 0x35, 0x39, 0xbe, 0xb6, 0x90, 0x48, 0x39,
  0x46, 0xc5, 0xa6, 0xbe, 0xc2, 0x42, 0x83, 0x3e, 0x9f, 0x29, 0xb0, 0xbe,
  0x09, 0x6d, 0x9d, 0x3e, 0x7a, 0x12, 0xa1, 0xbe, 0xf1, 0xe4, 0x47, 0x3e,
  0x86, 0xec, 0x87, 0xbe, 0x24, 0x69, 0x58, 0x3d, 0xd4, 0x66, 0xb1, 0xbe,
  0xac, 0x45, 0x0a, 0xbf, 0x3d, 0x03, 0x3a, 0xbd, 0x04, 0x97, 0xbd, 0x3e,
  0xe1, 0xf5, 0xc6, 0xbd, 0x9e, 0xea, 0xdb, 0x3e, 0x17, 0x79, 0xf4, 0x3c,
  0x28, 0xae, 0x18, 0x3d, 0xb9, 0xcb, 0x5b, 0xbe, 0x9b, 0x5d, 0x79, 0x3e,
  0xa2, 0x7b, 0xb1, 0x3e, 0x93, 0x38, 0x45, 0xbe, 0x37, 0xcc, 0x67, 0x3d,
  0xad, 0xd6, 0xb0, 0xbe, 0x78, 0x98, 0x03, 0x3e, 0x26, 0xff, 0xd4, 0x3e,
  0x76, 0xd8, 0xae, 0xbe, 0xb3, 0xe0, 0x19, 0x3f, 0xd7, 0x68, 0xf2, 0xbc,
  0x81, 0x65, 0x6f, 0x3d, 0xeb, 0xbc, 0x1b, 0x3d, 0xf9, 0x26, 0x2e, 0xbd,
  0x4b, 0xbc, 0x6d, 0xbe, 0xff, 0xfe, 0x39, 0x3e, 0xb6, 0x80, 0x60, 0x3e,
  0xb0, 0xe1, 0xc0, 0xbd, 0xf1, 0x83, 0xf8, 0x3d, 0x1c, 0x1b, 0xea, 0xbb,
  0xf1, 0xfc, 0x40, 0xbd, 0x27, 0x35, 0x11, 0x3e, 0x8b, 0xa2, 0x1c, 0x3e,
  0x34, 0xe7, 0x35, 0x3e, 0xf8, 0x78, 0x67, 0x3b, 0x58, 0x2b, 0x73, 0x3e,
  0x35, 0x18, 0x34, 0x3c, 0x21, 0x6b, 0x0e, 0xbe, 0xb3, 0x3c, 0x71, 0xbc,
  0x6d, 0xdd, 0x34, 0x3e, 0x4d, 0xf4, 0x22, 0x3e, 0xdc, 0xa0, 0xab, 0xbd,
  0x7e, 0xe9, 0x21, 0x3b, 0x6f, 0x2e, 0x9d, 0x3d, 0x2c, 0x03, 0x0c, 0xbd,
  0xe5, 0xc2, 0x3a, 0x3d, 0x6d, 0x63, 0x30, 0x3e, 0x05, 0x92, 0x87, 0xbe,
  0x74, 0xd8, 0xd0, 0xbd, 0x2f, 0xc4, 0x3a, 0xbe, 0x50, 0x9c, 0x26, 0xbd,
  0x27, 0x09, 0x90, 0xbd, 0x42, 0xe2, 0x84, 0xbe, 0x41, 0xa5, 0x63, 0xbe,
  0x1e, 0x73, 0x2a, 0x3d, 0x8e, 0x2c, 0x53, 0x3d, 0x7a, 0xbd, 0x27, 0x3d,
  0x24, 0x11, 0x1a, 0x3e, 0x1a, 0x93, 0x27, 0x3d, 0xeb, 0xc3, 0x6d, 0xbd,
  0x11, 0x78, 0x60, 0x3d, 0xa3, 0x52, 0x05, 0x3e, 0x50, 0x44, 0x40, 0x3e,
  0x91, 0x63, 0x87, 0x3d, 0xc5, 0xc7, 0x51, 0xbe, 0xc1, 0xe6, 0xd7, 0x3d,
  0xc7, 0xf7, 0xc6, 0x3d, 0x45, 0x38, 0x5c, 0x3d, 0x97, 0x29, 0x38, 0xbe,
  0xee, 0x74, 0x84, 0x3d, 0x09, 0x5c, 0x8a, 0x3e, 0x71, 0x9f, 0x0b, 0x3e,
  0xb7, 0xf2, 0x4f, 0x3e, 0xa5, 0xda, 0x1f, 0x3e, 0x21, 0x38, 0x02, 0x3e,
  0x53, 0x00, 0xeb, 0x3c, 0xb1, 0x11, 0x53, 0x3d, 0xdd, 0x8a, 0x5e, 0x3d,
  0xd1, 0x2e, 0x0e, 0x3e, 0x21, 0x0e, 0x6d, 0x3e, 0xd5, 0x60, 0x05, 0x3e,
  0x79, 0x00, 0x1b, 0xbe, 0xc6, 0x5d, 0x4d, 0x3e, 0x27, 0xe2, 0x16, 0xbe,
  0xa7, 0xf7, 0xf2, 0xbd, 0x67, 0x3d, 0xa1, 0x3d, 0xf6, 0xa9, 0x10, 0x3e,
  0x3d, 0x88, 0x5c, 0x3d, 0xb4, 0x65, 0xbe, 0x3d, 0x8c, 0xe7, 0x9a, 0x3e,
  0x56, 0xdf, 0x6c, 0xbe, 0x16, 0x57, 0x0a, 0x3d, 0x00, 0xef, 0x4a, 0x3e,
  0x0e, 0x13, 0x54, 0xbe, 0x38, 0x71, 0xa0, 0x3d, 0x94, 0x4d, 0x90, 0xbe,
  0x8f, 0x2e, 0x27, 0x3e, 0xfa, 0xd5, 0x1a, 0x3e, 0x1b, 0xc7, 0xf3, 0x3d,
  0xbc, 0x8a, 0xa5, 0xbc, 0x31, 0x77, 0x4f, 0xbd, 0x1a, 0x92, 0xd8, 0xbd,
  0xfa, 0x40, 0x93, 0x3d, 0x9e, 0x22, 0x14, 0xbd, 0x3e, 0x2e, 0x7d, 0xbe,
  0x20, 0xd5, 0xeb, 0xbe, 0xdd, 0x90, 0xb4, 0x3d, 0x85, 0x25, 0x61, 0xbe,
  0xa4, 0x43, 0xda, 0x3d, 0x33, 0xda, 0x3f, 0x3d, 0xe3, 0x0a, 0x04, 0xbe,
  0xa2, 0x47, 0xf8, 0x3d, 0x4b, 0x97, 0x3a, 0xbe, 0x17, 0x75, 0x8a, 0x3e,
  0x70, 0x9d, 0xca, 0x3b, 0x8a, 0x07, 0x88, 0xbc, 0x27, 0xd6, 0xb8, 0xbd,
  0x19, 0x4b, 0x43, 0xbe, 0xf8, 0x59, 0x1f, 0xbd, 0x4b, 0xfe, 0xc3, 0xbe,
  0x06, 0x13, 0xf7, 0x3d, 0xad, 0x23, 0x41, 0x3e, 0x2c, 0x55, 0x1d, 0x3e,
  0x3c, 0xba, 0x7d, 0x3e, 0x5c, 0x0a, 0xb2, 0x3d, 0x43, 0xc1, 0xb6, 0x3d,
  0x65, 0xed, 0x41, 0xbc, 0xe3, 0xb1, 0x4b, 0x3d, 0x9c, 0xbd, 0x09, 0xbd,
  0x4b, 0x9b, 0x37, 0x3e, 0xf7, 0xa8, 0x8f, 0x3e, 0xd4, 0x22, 0x7d, 0xbe,
  0x53, 0x42, 0xd8, 0xbc, 0x4e, 0x5a, 0x2d, 0x3b, 0x68, 0x20, 0x93, 0x3d,
  0xec, 0x01, 0x4e, 0xbe, 0xa8, 0xe0, 0xe8, 0x3a, 0x7a, 0x1a, 0xbd, 0xbd,
  0x83, 0x9a, 0xb9, 0xbd, 0x80, 0x77, 0xda, 0xbd, 0x75, 0x80, 0x49, 0xbe,
  0x72, 0x69, 0xc1, 0x3d, 0x89, 0x42, 0x39, 0xbe, 0xd9, 0x7d, 0x37, 0x3e,
  0x0b, 0xc9, 0x5c, 0xbd, 0xb4, 0x37, 0xd8, 0xbd, 0x8b, 0x1a, 0x29, 0x3d,
  0x79, 0x23, 0x08, 0x3e, 0xc4, 0xee, 0x3b, 0xbe, 0xf0, 0xef, 0xdf, 0xbd,
  0x8c, 0xc7, 0x55, 0xbe, 0xa7, 0xe7, 0x98, 0xbd, 0xe6, 0x7a, 0xe4, 0x3d,
  0xcd, 0x31, 0xa0, 0x3d, 0xfe, 0x79, 0x8d, 0xbd, 0xfe, 0x74, 0x77, 0x3d,
  0xb6, 0xc2, 0xb3, 0xbd, 0xad, 0x7d, 0x8d, 0xbe, 0xb5, 0x43, 0x12, 0x3e,
  0x99, 0x1a, 0x63, 0x3e, 0x5b, 0xcf, 0xdf, 0x3d, 0xe8, 0xa9, 0x43, 0x3e,
  0xf2, 0xc0, 0x58, 0xbd, 0x30, 0x84, 0x2b, 0x3e, 0xf1, 0x0c, 0x85, 0x3e,
  0x5e, 0x1f, 0x9c, 0x3e, 0x75, 0x0a, 0x76, 0xbc, 0x20, 0x3b, 0xe5, 0xbc,
  0x7a, 0x1b, 0x1d, 0x3e, 0x43, 0x27, 0xcb, 0x3d, 0x4e, 0xf4, 0x39, 0xbe,
  0x3d, 0xe6, 0x83, 0x3d, 0xa4, 0x00, 0x7a, 0x3e, 0xe8, 0xb7, 0xd5, 0xbc,
  0xd9, 0x12, 0x02, 0xbe, 0x3e, 0x6d, 0x16, 0x3e, 0x9b, 0x9c, 0x9e, 0xbe,
  0x90, 0x76, 0x8b, 0xbd, 0x3e, 0xa8, 0x34, 0xbe, 0x62, 0xef, 0x18, 0x3d,
  0x78, 0xee, 0x12, 0x3d, 0xdb, 0x18, 0x14, 0x3d, 0xf8, 0xef, 0xa7, 0x3e,
  0x8e, 0xa1, 0x72, 0xbe, 0xc7, 0x5f, 0x4c, 0xbe, 0x8f, 0xd8, 0x92, 0x3d,
  0x7c, 0x60, 0x49, 0xbe, 0xa2, 0x94, 0x33, 0xbe, 0x66, 0x58, 0x71, 0x3e,
  0xbe, 0xa0, 0xc7, 0x3c, 0x8e, 0xdb, 0x37, 0xbe, 0x80, 0x48, 0x86, 0x3d,
  0x9e, 0x7b, 0x1c, 0x3e, 0x3b, 0xfb, 0xba, 0xbc, 0x2a, 0x0b, 0xac, 0x3d,
  0xbe, 0xb2, 0x89, 0xbe, 0x89, 0xe6, 0x62, 0x3e, 0xe3, 0x0a, 0x65, 0xbd,
  0xbb, 0xac, 0x84, 0xbd, 0x46, 0x6d, 0x6c, 0x3e, 0x48, 0x71, 0xdc, 0x3c,
  0x0d, 0x42, 0x86, 0xbe, 0x3a, 0xba, 0x31, 0xbb, 0x69, 0x4a, 0x41, 0x3d,
  0x7c, 0xdc, 0x2f, 0x3e, 0xf0, 0xe2, 0xd0, 0xbb, 0xae, 0x57, 0x41, 0x3e,
  0xf0, 0x40, 0x91, 0xbe, 0x18, 0xa9, 0xc1, 0x3c, 0x73, 0x45, 0x39, 0xbe,
  0xb5, 0x92, 0x77, 0x3e, 0x4f, 0xb9, 0x87, 0xbe, 0xb8, 0xde, 0x55, 0xbe,
  0x09, 0x15, 0x67, 0x3e, 0xe6, 0x3a, 0x95, 0x3e, 0x5c, 0xc2, 0x99, 0x3e,
  0x4b, 0x06, 0x70, 0xbe, 0xa0, 0x8f, 0x0e, 0xbe, 0xf0, 0x55, 0x06, 0x3c,
  0x3a, 0xb7, 0x29, 0xbe, 0x7e, 0x24, 0x56, 0xbd, 0x71, 0xf6, 0x61, 0x3e,
  0x92, 0x39, 0x93, 0x3e, 0x7c, 0x82, 0x30, 0xbe, 0xa1, 0xc8, 0x8e, 0xbc,
  0x08, 0x4f, 0x68, 0x3e, 0x65, 0x9d, 0x80, 0x3d, 0xde, 0x63, 0x37, 0xbe,
  0xa1, 0x70, 0x26, 0x3e, 0x3b, 0x69, 0x8b, 0x3e, 0x54, 0x9a, 0x36, 0x3e,
  0x80, 0x30, 0x74, 0xbe, 0xdc, 0x63, 0x4d, 0xbd, 0xdb, 0xad, 0x5b, 0xbe,
  0x60, 0xe7, 0x93, 0x3d, 0xd7, 0xb0, 0x86, 0x3d, 0x95, 0xfc, 0xdc, 0x3d,
  0xbe, 0xe0, 0xe1, 0xbd, 0xd6, 0xe3, 0x5a, 0xbe, 0x1b, 0x6c, 0x36, 0x3e,
  0x62, 0xa5, 0x7b, 0xbe, 0x9a, 0x19, 0x35, 0xbe, 0xc2, 0x3b, 0x35, 0xbe,
  0x4b, 0xd7, 0xf3, 0xbd, 0x80, 0x01, 0x97, 0x3d, 0xc5, 0x73, 0x4f, 0x3c,
  0x62, 0xfd, 0x5d, 0x3e, 0x6c, 0x75, 0x67, 0xbe, 0x53, 0x44, 0x50, 0x3e,
  0x41, 0x7f, 0x7f, 0x3e, 0x05, 0x12, 0xcf, 0x3d, 0x75, 0x84, 0x66, 0xbd,
  0xc6, 0x9e, 0x9a, 0x3e, 0x1a, 0x27, 0x79, 0x3e, 0xbf, 0x34, 0xc5, 0x3c,
  0x50, 0xe6, 0x7c, 0xbe, 0xe1, 0x36, 0x19, 0xbe, 0xc8, 0x5d, 0x29, 0x3d,
  0xe4, 0xc0, 0xa3, 0xbd, 0x8a, 0xa4, 0x16, 0x3e, 0x3d, 0x4c, 0xba, 0xbd,
  0x15, 0x99, 0x16, 0x3e, 0x0b, 0x5c, 0x94, 0xbe, 0x1d, 0x4d, 0x18, 0x3e,
  0x30, 0x35, 0xc6, 0x3d, 0x3c, 0xce, 0xfd, 0x3d, 0xdc, 0x27, 0x46, 0xbe,
  0xd1, 0x8a, 0xbc, 0xbe, 0xa4, 0xfa, 0xd7, 0xbc, 0x08, 0xa9, 0xad, 0xbe,
  0x1e, 0x35, 0x9d, 0xbc, 0xd5, 0x9c, 0x02, 0x3e, 0xb1, 0xcd, 0x7d, 0x3e,
  0xe9, 0xf6, 0x42, 0xbd, 0x85, 0xcb, 0xc5, 0x3c, 0x32, 0x02, 0x33, 0xbe,
  0xe7, 0xec, 0x78, 0xbd, 0x7a, 0x13, 0xbf, 0x3d, 0x1e, 0x1e, 0x3c, 0x3e,
  0xed, 0xf9, 0x95, 0xbd, 0x1e, 0x0a, 0x5c, 0xbd, 0x47, 0x7b, 0x5a, 0xbe,
  0xe1, 0x54, 0x3f, 0x3d, 0x0d, 0x4d, 0x3d, 0x3d, 0xaa, 0x78, 0x72, 0xbe,
  0x6a, 0x42, 0x1c, 0xbc, 0xcc, 0x68, 0x85, 0x3e, 0x65, 0x82, 0x49, 0xbe,
  0xb2, 0x3f, 0x0e, 0x3b, 0xc2, 0x01, 0x45, 0x3e, 0xd0, 0x2d, 0xdd, 0xbd,
  0xfc, 0xc5, 0x09, 0x3d, 0x66, 0x85, 0x53, 0xbd, 0xc6, 0xf2, 0x3f, 0xbe,
  0x6a, 0x9a, 0xd7, 0x3d, 0x0f, 0xbd, 0xa3, 0x3d, 0x5e, 0x94, 0x60, 0x3d,
  0x73, 0x41, 0xe7, 0xbd, 0x00, 0x20, 0x81, 0x3e, 0x11, 0x1d, 0x5c, 0xbe,
  0xd3, 0xef, 0x16, 0xbc, 0x96, 0x84, 0x08, 0x3e, 0xf2, 0x1d, 0x0a, 0x3e,
  0x3b, 0xeb, 0x99, 0x3e, 0xaa, 0x11, 0x06, 0x3e, 0xca, 0xe8, 0xf6, 0xbd,
  0xf2, 0xb8, 0xe9, 0x3d, 0xeb, 0x9c, 0x8d, 0xbd, 0x1f, 0xf0, 0x6c, 0xbe,
  0xe5, 0xad, 0x2b, 0xbe, 0xf9, 0x9c, 0xe4, 0x3d, 0x47, 0xb9, 0x05, 0xbd,
  0xf8, 0xbe, 0x8d, 0xbb, 0xa0, 0xec, 0x4a, 0xbd, 0xa2, 0x35, 0x4c, 0x3e,
  0xa2, 0x60, 0xe4, 0x3c, 0x98, 0x37, 0x34, 0xbe, 0xce, 0x04, 0x58, 0xbe,
  0xeb, 0xe3, 0x38, 0xbe, 0x19, 0x29, 0x56, 0xbe, 0x36, 0xb1, 0x33, 0xbe,
  0x8a, 0xe0, 0x61, 0xbe, 0x95, 0x45, 0x59, 0xbe, 0xaa, 0x54, 0x1d, 0x3e,
  0xdd, 0x39, 0x48, 0xbe, 0xfb, 0xe6, 0xc6, 0xbd, 0x64, 0x63, 0xcc, 0x3c,
  0x7f, 0x07, 0x2d, 0x3d, 0xd0, 0x0a, 0x2f, 0x3e, 0x90, 0x47, 0xde, 0xbd,
  0xad, 0xb3, 0x31, 0xbe, 0x11, 0x4d, 0x46, 0xbe, 0xa1, 0x77, 0x5c, 0x3e,
  0xf2, 0x66, 0xba, 0x3d, 0xc7, 0x45, 0xf0, 0x3d, 0xf8, 0x8b, 0x8f, 0x3d,
  0x9a, 0xfe, 0xb3, 0xbd, 0x24, 0x15, 0x69, 0x3d, 0xec, 0xc0, 0x36, 0xbd,
  0x61, 0x0f, 0x05, 0x3e, 0x3f, 0x7b, 0x94, 0xbd, 0xe7, 0x3d, 0x3f, 0x3e,
  0xfa, 0xb5, 0x04, 0x3e, 0xf0, 0x73, 0x67, 0xbe, 0x26, 0x4a, 0x8a, 0xbe,
  0xc2, 0x98, 0xfb, 0x3c, 0xed, 0x53, 0x14, 0x3e, 0x63, 0x95, 0x84, 0x3e,
  0x27, 0x29, 0x70, 0x3e, 0xeb, 0x95, 0xdd, 0xbd, 0x46, 0xaa, 0x10, 0xbd,
  0x8a, 0x8c, 0xec, 0x3d, 0x2f, 0xfe, 0x02, 0x3e, 0x03, 0xa5, 0xeb, 0x3d,
  0xa0, 0x60, 0x10, 0xbe, 0x9b, 0xfc, 0x8d, 0x3c, 0xcb, 0xa4, 0x92, 0xbd,
  0x60, 0x13, 0x77, 0x3e, 0x4d, 0xd8, 0x2b, 0xbe, 0x22, 0xba, 0x55, 0x3d,
  0xc3, 0xb3, 0x2e, 0x3e, 0x46, 0xfa, 0x2b, 0x3d, 0x8e, 0xa6, 0x3f, 0x3e,
  0x7b, 0xbb, 0x41, 0xbd, 0xd1, 0x0c, 0x6f, 0x3e, 0xf5, 0x1f, 0x4a, 0x3d,
  0x89, 0x88, 0x3b, 0xbe, 0xe4, 0x23, 0x3f, 0x3d, 0x46, 0xf0, 0x73, 0xbe,
  0x1f, 0xea, 0x56, 0x3e, 0x65, 0xc6, 0x09, 0xbe, 0x48, 0x79, 0x4f, 0x3e,
  0xae, 0x96, 0xc2, 0x3c, 0x2d, 0x15, 0xb0, 0xbb, 0xbc, 0x9e, 0x11, 0xbe,
  0x86, 0xb0, 0x62, 0x3e, 0x13, 0x78, 0x01, 0x3e, 0x8a, 0xa4, 0x92, 0x3d,
  0x28, 0xfe, 0x80, 0x3e, 0x7b, 0x35, 0x27, 0xbe, 0x41, 0xef, 0xdc, 0x3d,
  0x52, 0xf1, 0x72, 0x3c, 0x64, 0x2c, 0xa7, 0xbd, 0x06, 0xf3, 0x23, 0x3c,
  0x1e, 0x35, 0xc7, 0x3b, 0xf5, 0xc0, 0x41, 0xbd, 0xbd, 0xeb, 0x43, 0x3e,
  0xd0, 0xa7, 0xe2, 0x3d, 0xb8, 0xb5, 0xc2, 0xbd, 0x49, 0x8b, 0xec, 0x3d,
  0x94, 0x5b, 0x86, 0xbd, 0xf3, 0xb9, 0x50, 0xbe, 0x91, 0xc3, 0xf5, 0xbd,
  0x01, 0xc5, 0x1f, 0xbd, 0xb3, 0x4d, 0x32, 0x3d, 0x25, 0x87, 0x14, 0xbe,
  0x89, 0x83, 0x35, 0x3d, 0x9a, 0x39, 0x11, 0x3e, 0x43, 0x7b, 0x49, 0xbe,
  0x0f, 0xdb, 0x70, 0x3e, 0x8a, 0xcf, 0x0d, 0x3e, 0xdc, 0xf2, 0x31, 0x3e,
  0x2f, 0xdb, 0x7e, 0x3d, 0x59, 0x2b, 0x60, 0x3e, 0xd8, 0x25, 0x41, 0xbe,
  0xae, 0x3a, 0x50, 0xbe, 0xdc, 0x0f, 0x83, 0x3d, 0xe7, 0x25, 0x22, 0xbd,
  0x6d, 0xb9, 0xd4, 0x3d, 0xcc, 0xf5, 0xec, 0xbc, 0x0a, 0x94, 0x2d, 0x3c,
  0x0e, 0x23, 0x13, 0x3e, 0x60, 0x94, 0x13, 0x3e, 0xd5, 0x40, 0x63, 0xbe,
  0xff, 0xde, 0x88, 0x3d, 0x62, 0x97, 0x4a, 0xbe, 0x50, 0x2b, 0xd0, 0xbc,
  0x1a, 0xb2, 0xcb, 0x3d, 0x62, 0x7d, 0x29, 0xbd, 0x7e, 0xa7, 0x06, 0xbe,
  0xbb, 0x6d, 0x88, 0xbd, 0x9f, 0xc2, 0x14, 0x3e, 0xdf, 0x2a, 0xbd, 0x3d,
  0xca, 0x0f, 0xc7, 0x3c, 0x01, 0x2e, 0x7d, 0x3e, 0x89, 0x9b, 0x36, 0xbd,
  0x28, 0xdc, 0x76, 0x3d, 0x1c, 0x27, 0xfc, 0xbd, 0xb2, 0xe3, 0x2c, 0xbe,
  0x0f, 0xf0, 0x1e, 0xbe, 0x7b, 0x02, 0x04, 0x3e, 0xeb, 0x12, 0x63, 0xbe,
  0x9c, 0xd5, 0x8b, 0x3e, 0x88, 0x07, 0x82, 0xbe, 0x38, 0xb1, 0x1b, 0xbe,
  0x4c, 0xe3, 0x83, 0xbe, 0x78, 0x95, 0x9b, 0x3c, 0x7b, 0xa3, 0xcd, 0x3c,
  0x0b, 0x90, 0x86, 0xbc, 0x45, 0xe0, 0x80, 0x3e, 0x38, 0x34, 0xc1, 0xbe,
  0xc6, 0x83, 0x0d, 0x3e, 0x8f, 0x85, 0x7a, 0x3d, 0xb8, 0x6a, 0x9b, 0xbe,
  0x3f, 0x1d, 0xbb, 0x3d, 0x73, 0x7e, 0x8d, 0xbd, 0x43, 0x95, 0x7a, 0x3e,
  0x8d, 0xd9, 0x9a, 0xbd, 0x32, 0xf4, 0xb4, 0x3e, 0xfd, 0x97, 0x2f, 0xbe,
  0x4a, 0x31, 0xb4, 0x3d, 0x2c, 0xde, 0xa5, 0xbe, 0x34, 0xcd, 0x0b, 0x3e,
  0x28, 0x67, 0x18, 0x3a, 0xa2, 0x30, 0x83, 0x3d, 0xd3, 0xee, 0x6b, 0x3e,
  0x40, 0x8b, 0x4f, 0x3d, 0x9a, 0xd9, 0x09, 0xbe, 0x91, 0x82, 0xaa, 0xbd,
  0x9c, 0xa7, 0xd6, 0x3d, 0x62, 0x66, 0xb1, 0x3d, 0x47, 0x4c, 0x3d, 0x3c,
  0x11, 0x02, 0x8b, 0xbe, 0x10, 0xe6, 0x6f, 0x3e, 0x1f, 0x62, 0xba, 0x3e,
  0x8c, 0x20, 0xc9, 0x3d, 0x05, 0x65, 0x61, 0xbe, 0x90, 0x87, 0x4d, 0xbd,
  0xe2, 0xa2, 0x0d, 0x3e, 0x46, 0xa9, 0x87, 0xbe, 0x4c, 0x5b, 0x5c, 0x3e,
  0x3b, 0xf1, 0x19, 0x3c, 0x9f, 0x67, 0xf2, 0x3d, 0x51, 0x2c, 0xf8, 0x3d,
  0xf1, 0x7d, 0xf0, 0xbd, 0xc9, 0x42, 0x00, 0x3e, 0xec, 0x22, 0xe0, 0x3d,
  0x42, 0x2d, 0xf2, 0xba, 0x27, 0x8c, 0x82, 0x3d, 0x37, 0x8c, 0xcf, 0x3d,
  0x17, 0x16, 0x24, 0x3e, 0x48, 0x9e, 0x93, 0x3d, 0xff, 0x72, 0x09, 0x3e,
  0xe7, 0x84, 0x84, 0x3c, 0x65, 0x04, 0xdd, 0xbc, 0x72, 0x91, 0x49, 0x3d,
  0xfe, 0x78, 0x47, 0xbe, 0xb8, 0x5c, 0xbe, 0x3c, 0x25, 0xba, 0x05, 0xbe,
  0xfc, 0xdf, 0x5d, 0x3e, 0xab, 0x05, 0xb1, 0xbd, 0x32, 0x70, 0x06, 0xbe,
  0x3e, 0x00, 0x08, 0xbd, 0x29, 0xdd, 0x10, 0xbe, 0x57, 0x40, 0x90, 0xbc,
  0x3b, 0x44, 0x9f, 0xbc, 0x91, 0xeb, 0xa5, 0x3c, 0xdc, 0xf4, 0x68, 0x3e,
  0x0e, 0x06, 0x20, 0x3e, 0xee, 0xf4, 0xd8, 0x3d, 0x73, 0xa9, 0x29, 0xbc,
  0x2d, 0x4e, 0x04, 0xbe, 0xb3, 0x3c, 0x8a, 0xbd, 0x22, 0x33, 0x40, 0x3d,
  0x7e, 0x6d, 0x61, 0xbd, 0x90, 0xaf, 0xff, 0x3c, 0xc3, 0xf3, 0x04, 0xbe,
  0xb9, 0x86, 0xf2, 0xbd, 0x04, 0x25, 0x7c, 0x3c, 0x96, 0x11, 0xa5, 0xbd,
  0x41, 0x65, 0x13, 0xbe, 0x9e, 0x76, 0xce, 0xbd, 0x23, 0x38, 0x53, 0x3e,
  0x97, 0x96, 0x86, 0x3d, 0xd3, 0x0a, 0xe2, 0x3c, 0x70, 0xee, 0xac, 0xbd,
  0x7a, 0x43, 0x3c, 0x3e, 0x1a, 0xd1, 0x02, 0xbe, 0xe3, 0xce, 0x38, 0xbe,
  0xea, 0x5c, 0xaa, 0x3d, 0x71, 0xd8, 0x4e, 0x3e, 0xba, 0xcb, 0xdd, 0xbc,
  0x23, 0x31, 0x88, 0xbe, 0xfa, 0x99, 0xaf, 0xbc, 0x55, 0xee, 0x85, 0xbe,
  0x73, 0x8d, 0x06, 0xbe, 0x47, 0xbb, 0x8a, 0x3e, 0xd9, 0x0a, 0xd5, 0x3d,
  0xd8, 0xb8, 0xfd, 0xbb, 0x12, 0x78, 0x87, 0xbe, 0x4f, 0x15, 0x03, 0xbe,
  0x3e, 0x56, 0x4d, 0x3d, 0x10, 0x0a, 0xe4, 0xbd, 0xf5, 0x4b, 0x31, 0x3e,
  0x9f, 0x25, 0x02, 0x3e, 0x6d, 0x0e, 0xe6, 0xbd, 0xd8, 0x5c, 0x69, 0x3d,
  0xae, 0xb3, 0xc7, 0xbd, 0x6b, 0x38, 0x18, 0xbe, 0xe0, 0x27, 0xd7, 0x3c,
  0x19, 0xbc, 0x94, 0x3e, 0xc9, 0x59, 0x67, 0xbd, 0x81, 0xb2, 0xcb, 0x3d,
  0xec, 0xa8, 0x85, 0x3e, 0xd6, 0x80, 0x12, 0x3d, 0x52, 0x76, 0x1d, 0xbe,
  0xc2, 0x1a, 0x4c, 0xbe, 0xd4, 0xbd, 0x7b, 0x3e, 0xa5, 0x82, 0x7e, 0x3d,
  0xe8, 0x67, 0x69, 0xbe, 0xab, 0xb0, 0xec, 0x3d, 0x53, 0x6c, 0x65, 0x3e,
  0x85, 0x9b, 0x37, 0xbe, 0x72, 0xa6, 0x81, 0x3d, 0xf1, 0x1e, 0x17, 0xbe,
  0x3b, 0x03, 0x94, 0x3e, 0xbb, 0x01, 0x09, 0x3e, 0x09, 0xaf, 0x66, 0x3e,
  0x8d, 0x36, 0x09, 0xbe, 0x71, 0x21, 0xfb, 0xbd, 0xac, 0x13, 0x25, 0x3e,
  0xa8, 0x25, 0x94, 0x3d, 0xf1, 0x0d, 0xc0, 0xbc, 0x25, 0x28, 0xba, 0xbb,
  0x0b, 0x3e, 0x82, 0xbe, 0xfc, 0x21, 0x02, 0x3c, 0x96, 0xc5, 0xce, 0x3d,
  0x76, 0x37, 0xa5, 0x3d, 0x5e, 0x20, 0x83, 0xbd, 0x5e, 0xd4, 0xcd, 0x3e,
  0x46, 0xd2, 0x6e, 0x3d, 0xf9, 0xa0, 0x37, 0x3e, 0x7d, 0xfc, 0x64, 0x3e,
  0x22, 0x0b, 0x51, 0xbb, 0x31, 0x88, 0x0f, 0xbe, 0x82, 0x80, 0x74, 0x3e,
  0x4c, 0x93, 0x33, 0x3d, 0xd8, 0xed, 0xa3, 0xbe, 0x68, 0x8e, 0xfe, 0x3d,
  0x74, 0xb1, 0x16, 0x3e, 0x3d, 0x41, 0x0d, 0x3e, 0x72, 0xb8, 0x10, 0xbe,
  0xbf, 0x77, 0x63, 0x3e, 0x09, 0x1a, 0x6d, 0xbd, 0xbd, 0xe6, 0x71, 0xbc,
  0x8c, 0x92, 0x01, 0xbe, 0xa8, 0x02, 0xb8, 0x3d, 0x7e, 0xb9, 0x21, 0x3e,
  0x7c, 0x23, 0xfe, 0xbd, 0x21, 0xc8, 0x31, 0x3e, 0x54, 0x12, 0xb6, 0x3d,
  0xa2, 0xbd, 0xd9, 0xbd, 0x84, 0x64, 0x39, 0xbe, 0x35, 0x2d, 0x35, 0x3d,
  0x94, 0x08, 0x66, 0xbd, 0xe9, 0x85, 0x29, 0xbe, 0xd1, 0x29, 0x1b, 0x3e,
  0x2f, 0xe3, 0xf6, 0x3d, 0x97, 0xd3, 0x77, 0xbd, 0x31, 0xfd, 0x81, 0x3d,
  0xf6, 0xb1, 0xca, 0xbd, 0x4f, 0xa0, 0x95, 0xbd, 0xd2, 0x6c, 0x52, 0x3c,
  0xfd, 0xad, 0x9a, 0xbd, 0x2d, 0x79, 0x11, 0x3e, 0xcc, 0xd2, 0x97, 0xbe,
  0x98, 0xcd, 0x9b, 0x3e, 0x94, 0xa5, 0x56, 0xbe, 0xae, 0xa2, 0x32, 0xbe,
  0xe3, 0x95, 0xda, 0x3d, 0x00, 0xa2, 0xad, 0x3c, 0xb7, 0xb6, 0x83, 0xbe,
  0x73, 0xc3, 0x04, 0x3e, 0x78, 0xb3, 0x98, 0xbb, 0x50, 0x64, 0xa0, 0x3e,
  0xac, 0x2f, 0x97, 0x3d, 0x6c, 0xd9, 0x8d, 0x3d, 0x1f, 0xcd, 0x62, 0xbe,
  0xe0, 0x73, 0x17, 0x3e, 0xdf, 0xcd, 0x47, 0x3d, 0xb2, 0x9f, 0x26, 0x3d,
  0x4c, 0x39, 0x8a, 0x3d, 0xca, 0x3c, 0xa0, 0x3d, 0xe9, 0xaf, 0x1f, 0x3e,
  0x9d, 0x77, 0xdf, 0x3d, 0x63, 0xfa, 0x57, 0x3e, 0x10, 0x5c, 0x9b, 0xbe,
  0x5f, 0xc0, 0x51, 0xbb, 0x7e, 0x79, 0x00, 0x3c, 0x50, 0x06, 0x78, 0x3e,
  0x64, 0x29, 0x3f, 0x3e, 0x2f, 0xff, 0x8e, 0xbe, 0x7d, 0xe6, 0x9c, 0xbd,
  0x41, 0x5d, 0xcb, 0x3d, 0x0d, 0x4a, 0x2a, 0x3e, 0x64, 0x4e, 0x51, 0xbe,
  0x0f, 0x85, 0x5b, 0x3d, 0xf8, 0x52, 0x38, 0xbe, 0x14, 0xd2, 0x64, 0x3e,
  0x90, 0xa5, 0x29, 0x3e, 0x38, 0xb2, 0xe0, 0x3d, 0x3b, 0x94, 0xb6, 0xbd,
  0xd3, 0x57, 0x4c, 0xbe, 0x45, 0x60, 0x0f, 0xbe, 0x27, 0x38, 0xff, 0xbc,
  0xdf, 0xd9, 0x8b, 0xbe, 0x30, 0xd2, 0xcf, 0x3d, 0xfd, 0xd0, 0x51, 0x3e,
  0x45, 0x8a, 0x19, 0xbe, 0xed, 0x44, 0x5f, 0xbe, 0x71, 0x58, 0x29, 0x3d,
  0x62, 0xac, 0x0a, 0x3d, 0x8c, 0x53, 0xf9, 0x3d, 0xfd, 0x42, 0x55, 0x3e,
  0xa2, 0xab, 0x02, 0xbe, 0xc6, 0x5e, 0xdb, 0xbd, 0x7f, 0xce, 0x24, 0x3e,
  0x73, 0xa7, 0xda, 0x3d, 0x64, 0x6c, 0x51, 0xbe, 0x12, 0x16, 0x46, 0x3e,
  0x98, 0x04, 0xd8, 0x3d, 0x29, 0xe9, 0x44, 0x3e, 0x41, 0xf8, 0x9e, 0xbd,
  0x87, 0x3e, 0x86, 0x3e, 0xb2, 0xc0, 0x8a, 0x3d, 0xb5, 0x0b, 0x9f, 0xbd,
  0x33, 0x53, 0x88, 0xbe, 0x81, 0x0b, 0x83, 0xbe, 0x14, 0xf8, 0x6a, 0x3e,
  0xa7, 0xc1, 0xae, 0xbe, 0xa9, 0x91, 0x64, 0xbe, 0x3f, 0x97, 0x5a, 0x3c,
  0xe5, 0x5d, 0x0a, 0xbe, 0x4d, 0x1c, 0x68, 0xbe, 0xae, 0x74, 0x3a, 0xbe,
  0xdc, 0xbd, 0x37, 0x3e, 0xcd, 0xc8, 0xe0, 0xbd, 0xfc, 0xf8, 0x86, 0xbd,
  0x6e, 0x4d, 0x3a, 0x3e, 0x8a, 0x90, 0x4f, 0xbe, 0xcf, 0xb6, 0x28, 0xbe,
  0xb3, 0xf4, 0xeb, 0x3d, 0x10, 0x30, 0x2d, 0x3c, 0xf0, 0x4a, 0xe0, 0xbb,
  0x03, 0x45, 0x6c, 0xbe, 0x3a, 0xf9, 0x36, 0x3e, 0xcb, 0x4d, 0x53, 0x3d,
  0x03, 0x23, 0xb8, 0x3d, 0xab, 0x09, 0x14, 0x3d, 0x4d, 0xb0, 0x52, 0x3e,
  0xaa, 0x69, 0x2b, 0x3e, 0xe4, 0xeb, 0x15, 0xbd, 0xcf, 0xda, 0xf2, 0x3d,
  0xbb, 0x5a, 0xc1, 0xbd, 0x12, 0xd6, 0x18, 0xbe, 0xa5, 0x44, 0x93, 0xbd,
  0x6a, 0x38, 0x50, 0x3e, 0x44, 0xa8, 0x40, 0xbe, 0x09, 0x22, 0xfe, 0x3d,
  0x09, 0xec, 0x5b, 0xbe, 0x3a, 0xc0, 0xcc, 0x3d, 0xeb, 0xb7, 0x54, 0x3e,
  0xd2, 0xb6, 0x63, 0xbe, 0xfe, 0x72, 0x29, 0x3d, 0x95, 0x2e, 0x0e, 0xbe,
  0xa6, 0xf6, 0xa3, 0x3c, 0xfa, 0x79, 0xe0, 0xbc, 0xbf, 0x62, 0x32, 0xbd,
  0xa3, 0x50, 0xbb, 0xbd, 0x14, 0xe8, 0xd6, 0xbd, 0x5e, 0x8f, 0x06, 0xbe,
  0x92, 0x73, 0x33, 0x3e, 0x63, 0xc5, 0x56, 0x3e, 0x89, 0xe3, 0x96, 0x3d,
  0xae, 0x5d, 0x5e, 0x3d, 0xab, 0x3f, 0xdf, 0xbd, 0x4e, 0xc4, 0xd3, 0x3d,
  0x19, 0x08, 0x85, 0x3d, 0xed, 0xef, 0x49, 0x3d, 0xd2, 0x3a, 0x50, 0x3e,
  0xdf, 0x91, 0x47, 0x3d, 0x88, 0x89, 0xb5, 0x3b, 0xc6, 0x30, 0x00, 0xbe,
  0x1d, 0xf5, 0x3d, 0x3e, 0x2b, 0xaf, 0x4a, 0x3d, 0xcd, 0xb8, 0x83, 0x3e,
  0xe3, 0x3c, 0xf9, 0xbc, 0xea, 0x24, 0x0c, 0xbc, 0x21, 0x5d, 0x0a, 0x3e,
  0x66, 0x71, 0x0d, 0xbe, 0xec, 0xaa, 0x3c, 0xbe, 0x04, 0xfb, 0xdd, 0x3d,
  0x2c, 0xda, 0x44, 0x3e, 0xe3, 0xfb, 0xf4, 0x3d, 0xd3, 0x9f, 0x41, 0x3e,
  0x00, 0xc9, 0x2e, 0x3e, 0xe8, 0xf6, 0x1f, 0x3d, 0xb7, 0xc1, 0xb8, 0x3d,
  0xd0, 0xed, 0x0f, 0x3e, 0xf5, 0xbe, 0x4d, 0x3e, 0x60, 0xe0, 0xfe, 0xbc,
  0x1d, 0xfc, 0x5f, 0x3e, 0xa6, 0xcb, 0x0c, 0x3e, 0xc0, 0x2c, 0x0d, 0x3e,
  0x53, 0xfc, 0xd4, 0xbd, 0xba, 0x49, 0x5e, 0x3c, 0x68, 0x1b, 0x4e, 0x3c,
  0x12, 0xc2, 0x47, 0x3b, 0x2d, 0xa1, 0x88, 0x3d, 0xfb, 0x0a, 0x1d, 0x3e,
  0x5f, 0x14, 0xa9, 0x3d, 0x76, 0x2f, 0xc8, 0x3d, 0xc1, 0xdd, 0x15, 0x3d,
  0x89, 0x67, 0x6f, 0x3e, 0x54, 0x26, 0xa4, 0x3d, 0x22, 0xf1, 0x13, 0x3e,
  0x8d, 0x58, 0x53, 0x3e, 0x0d, 0xfd, 0x23, 0x3e, 0x9a, 0xd0, 0x2c, 0xbc,
  0x08, 0x30, 0x0c, 0x3e, 0x6c, 0xdd, 0xa1, 0xbd, 0x48, 0x2e, 0x87, 0xbe,
  0x12, 0x51, 0xf5, 0xbb, 0xdc, 0x2a, 0xb6, 0x3d, 0xb4, 0xb7, 0x9f, 0x3d,
  0xb0, 0xa1, 0x34, 0xbe, 0xe4, 0x2e, 0x12, 0x3e, 0x4f, 0x7c, 0x15, 0xbe,
  0x72, 0xa0, 0x30, 0x3e, 0x32, 0x65, 0xb6, 0xbc, 0xc0, 0xd8, 0x87, 0x3e,
  0xfb, 0x9a, 0x6a, 0x3c, 0x05, 0xcb, 0xa8, 0x3d, 0x4f, 0x73, 0x6a, 0x3c,
  0x8d, 0xd1, 0x97, 0x3e, 0x3c, 0x8a, 0xdf, 0x3d, 0x5d, 0x7e, 0x34, 0x3c,
  0x62, 0x62, 0x04, 0xbe, 0x12, 0xf8, 0x5d, 0x3e, 0x03, 0xa7, 0x54, 0x3e,
  0x1c, 0xaa, 0x41, 0x3d, 0x16, 0xda, 0x1a, 0xbe, 0xb4, 0xa6, 0xa3, 0x3e,
  0xcb, 0xe9, 0x69, 0xbe, 0x1e, 0x62, 0x44, 0xbe, 0xe8, 0xc9, 0xe7, 0x3d,
  0x3e, 0xd8, 0xb4, 0x3e, 0x9c, 0xd1, 0x56, 0xbe, 0x6a, 0x5b, 0x2c, 0xbe,
  0x92, 0x9d, 0x8b, 0x3e, 0x51, 0x30, 0x28, 0xbc, 0x8c, 0x60, 0xc4, 0x3d,
  0x2d, 0xc1, 0x3f, 0x3e, 0x5f, 0xca, 0x80, 0xbd, 0x72, 0x4f, 0x10, 0x3e,
  0x07, 0xd7, 0x8b, 0x3d, 0xd6, 0x94, 0xa9, 0x3e, 0x9f, 0x11, 0x82, 0x3d,
  0x30, 0xd0, 0x45, 0x3e, 0x25, 0xf8, 0x36, 0xbe, 0x30, 0x89, 0x68, 0x3d,
  0xcf, 0x0b, 0x36, 0xbd, 0x7b, 0x36, 0xc9, 0xbd, 0xed, 0x8a, 0xab, 0x3e,
  0x20, 0xdf, 0xbc, 0x3d, 0xe5, 0xca, 0xa2, 0xbe, 0xa8, 0x1b, 0x5d, 0x3e,
  0x2e, 0xc4, 0xae, 0xbd, 0x99, 0x0e, 0x4f, 0x3e, 0xf9, 0xc2, 0x58, 0xbd,
  0xd8, 0xd1, 0xe5, 0x3d, 0x5e, 0x1b, 0xae, 0xbe, 0x31, 0xe6, 0xa3, 0xbd,
  0xd9, 0xd8, 0xac, 0x3e, 0x3c, 0x2a, 0xd9, 0x3b, 0x54, 0xc2, 0x8f, 0x3e,
  0x76, 0xdc, 0xb5, 0x3c, 0xc4, 0xff, 0xd7, 0xbe, 0x17, 0x94, 0x86, 0x3e,
  0xd5, 0x67, 0xdb, 0xbe, 0x00, 0x00, 0x06, 0x00, 0x08, 0x00, 0x04, 0x00,
  0x06, 0x00, 0x00, 0x00, 0x04, 0x00, 0x00, 0x00, 0xc8, 0x00, 0x00, 0x00,
  0xad, 0xb6, 0xa9, 0xbe, 0xc2, 0xbe, 0x23, 0xbd, 0x88, 0xef, 0xe5, 0xbd,
  0x6e, 0xcf, 0xce, 0x3e, 0x17, 0x16, 0xda, 0x3d, 0xea, 0x53, 0x55, 0xbe,
  0x2e, 0x18, 0x83, 0x3c, 0x2c, 0x14, 0x3c, 0xbe, 0x7f, 0x6c, 0x06, 0x3e,
  0x95, 0xe7, 0x3a, 0xbe, 0xbf, 0xb7, 0x28, 0xbe, 0x79, 0x76, 0x6d, 0x3e,
  0x62, 0x30, 0x9d, 0xbe, 0xa5, 0x90, 0x42, 0x3e, 0xb5, 0x0d, 0x2c, 0x3e,
  0xe2, 0x36, 0xa1, 0x3e, 0x68, 0x4b, 0x3c, 0xbc, 0x05, 0xce, 0x1c, 0x3d,
  0x72, 0x07, 0x6d, 0x3d, 0xfd, 0xe7, 0xd5, 0xbd, 0x20, 0xc7, 0x55, 0x3d,
  0xb3, 0x3c, 0x75, 0xbe, 0xe9, 0x98, 0x10, 0x3e, 0x67, 0x60, 0xb8, 0x3e,
  0x30, 0xb8, 0x92, 0x3c, 0x1d, 0x4e, 0xa3, 0x3c, 0x26, 0xee, 0x81, 0xbe,
  0x59, 0xa3, 0x4e, 0xbd, 0x2e, 0x3e, 0x2d, 0xbe, 0xcb, 0x99, 0xff, 0x3c,
  0xee, 0x34, 0x43, 0x3c, 0x5f, 0xa1, 0xaa, 0xbd, 0xb5, 0x09, 0x9b, 0x3d,
  0xcf, 0x32, 0xe6, 0x3d, 0x9d, 0x47, 0x00, 0xbd, 0x46, 0x18, 0x98, 0xbd,
  0xe9, 0x63, 0x1e, 0x3d, 0x8f, 0x77, 0xa8, 0x3e, 0x35, 0x06, 0x08, 0x3d,
  0x31, 0x84, 0x4a, 0x3d, 0xa8, 0x01, 0x67, 0xbb, 0xdb, 0x1d, 0xa8, 0x3c,
  0x2d, 0x26, 0x3a, 0xbe, 0x58, 0x07, 0xce, 0x3b, 0xb0, 0x27, 0x98, 0xbd,
  0x1f, 0x8e, 0x14, 0x3d, 0xdf, 0x1d, 0xcb, 0x3d, 0x5f, 0xf2, 0x29, 0xbc,
  0xca, 0xa0, 0x0d, 0xba, 0x40, 0x01, 0x67, 0xbe, 0x68, 0xfa, 0xff, 0xff,
  0x6c, 0xfa, 0xff, 0xff, 0x0f, 0x00, 0x00, 0x00, 0x4d, 0x4c, 0x49, 0x52,
  0x20, 0x43, 0x6f, 0x6e, 0x76, 0x65, 0x72, 0x74, 0x65, 0x64, 0x2e, 0x00,
  0x01, 0x00, 0x00, 0x00, 0x14, 0x00, 0x00, 0x00, 0x00, 0x00, 0x0e, 0x00,
  0x18, 0x00, 0x14, 0x00, 0x10, 0x00, 0x0c, 0x00, 0x08, 0x00, 0x04, 0x00,
  0x0e, 0x00, 0x00, 0x00, 0x14, 0x00, 0x00, 0x00, 0x1c, 0x00, 0x00, 0x00,
  0x1c, 0x01, 0x00, 0x00, 0x20, 0x01, 0x00, 0x00, 0x24, 0x01, 0x00, 0x00,
  0x04, 0x00, 0x00, 0x00, 0x6d, 0x61, 0x69, 0x6e, 0x00, 0x00, 0x00, 0x00,
  0x05, 0x00, 0x00, 0x00, 0xd0, 0x00, 0x00, 0x00, 0x9c, 0x00, 0x00, 0x00,
  0x5c, 0x00, 0x00, 0x00, 0x38, 0x00, 0x00, 0x00, 0x04, 0x00, 0x00, 0x00,
  0x52, 0xff, 0xff, 0xff, 0x10, 0x00, 0x00, 0x00, 0x00, 0x00, 0x00, 0x08,
  0x0c, 0x00, 0x00, 0x00, 0x10, 0x00, 0x00, 0x00, 0xec, 0xfa, 0xff, 0xff,
  0x01, 0x00, 0x00, 0x00, 0x0b, 0x00, 0x00, 0x00, 0x03, 0x00, 0x00, 0x00,
  0x0a, 0x00, 0x00, 0x00, 0x01, 0x00, 0x00, 0x00, 0x03, 0x00, 0x00, 0x00,
  0xae, 0xff, 0xff, 0xff, 0x0c, 0x00, 0x00, 0x00, 0x10, 0x00, 0x00, 0x00,
  0x01, 0x00, 0x00, 0x00, 0x01, 0x00, 0x00, 0x00, 0x0a, 0x00, 0x00, 0x00,
  0x01, 0x00, 0x00, 0x00, 0x09, 0x00, 0x00, 0x00, 0xa2, 0xff, 0xff, 0xff,
  0x10, 0x00, 0x00, 0x00, 0x00, 0x00, 0x00, 0x08, 0x0c, 0x00, 0x00, 0x00,
  0x10, 0x00, 0x00, 0x00, 0x3c, 0xfb, 0xff, 0xff, 0x01, 0x00, 0x00, 0x00,
  0x09, 0x00, 0x00, 0x00, 0x03, 0x00, 0x00, 0x00, 0x08, 0x00, 0x00, 0x00,
  0x02, 0x00, 0x00, 0x00, 0x04, 0x00, 0x00, 0x00, 0x00, 0x00, 0x0a, 0x00,
  0x10, 0x00, 0x0c, 0x00, 0x08, 0x00, 0x04, 0x00, 0x0a, 0x00, 0x00, 0x00,
  0x0c, 0x00, 0x00, 0x00, 0x10, 0x00, 0x00, 0x00, 0x01, 0x00, 0x00, 0x00,
  0x01, 0x00, 0x00, 0x00, 0x08, 0x00, 0x00, 0x00, 0x01, 0x00, 0x00, 0x00,
  0x07, 0x00, 0x00, 0x00, 0x00, 0x00, 0x0e, 0x00, 0x14, 0x00, 0x00, 0x00,
  0x10, 0x00, 0x0c, 0x00, 0x0b, 0x00, 0x04, 0x00, 0x0e, 0x00, 0x00, 0x00,
  0x10, 0x00, 0x00, 0x00, 0x00, 0x00, 0x00, 0x08, 0x0c, 0x00, 0x00, 0x00,
  0x10, 0x00, 0x00, 0x00, 0xa8, 0xfb, 0xff, 0xff, 0x01, 0x00, 0x00, 0x00,
  0x07, 0x00, 0x00, 0x00, 0x03, 0x00, 0x00, 0x00, 0x00, 0x00, 0x00, 0x00,
  0x06, 0x00, 0x00, 0x00, 0x05, 0x00, 0x00, 0x00, 0x01, 0x00, 0x00, 0x00,
  0x0b, 0x00, 0x00, 0x00, 0x01, 0x00, 0x00, 0x00, 0x00, 0x00, 0x00, 0x00,
  0x0c, 0x00, 0x00, 0x00, 0x00, 0x04, 0x00, 0x00, 0xa8, 0x03, 0x00, 0x00,
  0x50, 0x03, 0x00, 0x00, 0x14, 0x03, 0x00, 0x00, 0xb8, 0x02, 0x00, 0x00,
  0x60, 0x02, 0x00, 0x00, 0x14, 0x02, 0x00, 0x00, 0x98, 0x01, 0x00, 0x00,
  0x3c, 0x01, 0x00, 0x00, 0xbc, 0x00, 0x00, 0x00, 0x60, 0x00, 0x00, 0x00,
  0x04, 0x00, 0x00, 0x00, 0x46, 0xfc, 0xff, 0xff, 0x00, 0x00, 0x00, 0x01,
  0x14, 0x00, 0x00, 0x00, 0x1c, 0x00, 0x00, 0x00, 0x1c, 0x00, 0x00, 0x00,
  0x0c, 0x00, 0x00, 0x00, 0x34, 0x00, 0x00, 0x00, 0x02, 0x00, 0x00, 0x00,
  0xff, 0xff, 0xff, 0xff, 0x01, 0x00, 0x00, 0x00, 0x30, 0xfc, 0xff, 0xff,
  0x1b, 0x00, 0x00, 0x00, 0x53, 0x74, 0x61, 0x74, 0x65, 0x66, 0x75, 0x6c,
  0x50, 0x61, 0x72, 0x74, 0x69, 0x74, 0x69, 0x6f, 0x6e, 0x65, 0x64, 0x43,
  0x61, 0x6c, 0x6c, 0x5f, 0x31, 0x3a, 0x30, 0x00, 0x02, 0x00, 0x00, 0x00,
  0x01, 0x00, 0x00, 0x00, 0x01, 0x00, 0x00, 0x00, 0x9e, 0xfc, 0xff, 0xff,
  0x00, 0x00, 0x00, 0x01, 0x14, 0x00, 0x00, 0x00, 0x1c, 0x00, 0x00, 0x00,
  0x1c, 0x00, 0x00, 0x00, 0x0b, 0x00, 0x00, 0x00, 0x34, 0x00, 0x00, 0x00,
  0x02, 0x00, 0x00, 0x00, 0xff, 0xff, 0xff, 0xff, 0x32, 0x00, 0x00, 0x00,
  0x88, 0xfc, 0xff, 0xff, 0x1b, 0x00, 0x00, 0x00, 0x73, 0x65, 0x71, 0x75,
  0x65, 0x6e, 0x74, 0x69, 0x61, 0x6c, 0x5f, 0x31, 0x2f, 0x64, 0x65, 0x6e,
  0x73, 0x65, 0x5f, 0x31, 0x5f, 0x32, 0x2f, 0x54, 0x61, 0x6e, 0x68, 0x00,
  0x02, 0x00, 0x00, 0x00, 0x01, 0x00, 0x00, 0x00, 0x32, 0x00, 0x00, 0x00,
  0xf6, 0xfc, 0xff, 0xff, 0x00, 0x00, 0x00, 0x01, 0x14, 0x00, 0x00, 0x00,
  0x1c, 0x00, 0x00, 0x00, 0x1c, 0x00, 0x00, 0x00, 0x0a, 0x00, 0x00, 0x00,
  0x58, 0x00, 0x00, 0x00, 0x02, 0x00, 0x00, 0x00, 0xff, 0xff, 0xff, 0xff,
  0x32, 0x00, 0x00, 0x00, 0xe0, 0xfc, 0xff, 0xff, 0x3c, 0x00, 0x00, 0x00,
  0x73, 0x65, 0x71, 0x75, 0x65, 0x6e, 0x74, 0x69, 0x61, 0x6c, 0x5f, 0x31,
  0x2f, 0x64, 0x65, 0x6e, 0x73, 0x65, 0x5f, 0x31, 0x5f, 0x32, 0x2f, 0x4d,
  0x61, 0x74, 0x4d, 0x75, 0x6c, 0x3b, 0x73, 0x65, 0x71, 0x75, 0x65, 0x6e,
  0x74, 0x69, 0x61, 0x6c, 0x5f, 0x31, 0x2f, 0x64, 0x65, 0x6e, 0x73, 0x65,
  0x5f, 0x31, 0x5f, 0x32, 0x2f, 0x42, 0x69, 0x61, 0x73, 0x41, 0x64, 0x64,
  0x00, 0x00, 0x00, 0x00, 0x02, 0x00, 0x00, 0x00, 0x01, 0x00, 0x00, 0x00,
  0x32, 0x00, 0x00, 0x00, 0x72, 0xfd, 0xff, 0xff, 0x00, 0x00, 0x00, 0x01,
  0x14, 0x00, 0x00, 0x00, 0x1c, 0x00, 0x00, 0x00, 0x1c, 0x00, 0x00, 0x00,
  0x09, 0x00, 0x00, 0x00, 0x34, 0x00, 0x00, 0x00, 0x02, 0x00, 0x00, 0x00,
  0xff, 0xff, 0xff, 0xff, 0x32, 0x00, 0x00, 0x00, 0x5c, 0xfd, 0xff, 0xff,
  0x19, 0x00, 0x00, 0x00, 0x73, 0x65, 0x71, 0x75, 0x65, 0x6e, 0x74, 0x69,
  0x61, 0x6c, 0x5f, 0x31, 0x2f, 0x64, 0x65, 0x6e, 0x73, 0x65, 0x5f, 0x31,
  0x2f, 0x54, 0x61, 0x6e, 0x68, 0x00, 0x00, 0x00, 0x02, 0x00, 0x00, 0x00,
  0x01, 0x00, 0x00, 0x00, 0x32, 0x00, 0x00, 0x00, 0xca, 0xfd, 0xff, 0xff,
  0x00, 0x00, 0x00, 0x01, 0x14, 0x00, 0x00, 0x00, 0x1c, 0x00, 0x00, 0x00,
  0x1c, 0x00, 0x00, 0x00, 0x08, 0x00, 0x00, 0x00, 0x54, 0x00, 0x00, 0x00,
  0x02, 0x00, 0x00, 0x00, 0xff, 0xff, 0xff, 0xff, 0x32, 0x00, 0x00, 0x00,
  0xb4, 0xfd, 0xff, 0xff, 0x38, 0x00, 0x00, 0x00, 0x73, 0x65, 0x71, 0x75,
  0x65, 0x6e, 0x74, 0x69, 0x61, 0x6c, 0x5f, 0x31, 0x2f, 0x64, 0x65, 0x6e,
  0x73, 0x65, 0x5f, 0x31, 0x2f, 0x4d, 0x61, 0x74, 0x4d, 0x75, 0x6c, 0x3b,
  0x73, 0x65, 0x71, 0x75, 0x65, 0x6e, 0x74, 0x69, 0x61, 0x6c, 0x5f, 0x31,
  0x2f, 0x64, 0x65, 0x6e, 0x73, 0x65, 0x5f, 0x31, 0x2f, 0x42, 0x69, 0x61,
  0x73, 0x41, 0x64, 0x64, 0x00, 0x00, 0x00, 0x00, 0x02, 0x00, 0x00, 0x00,
  0x01, 0x00, 0x00, 0x00, 0x32, 0x00, 0x00, 0x00, 0x96, 0xfe, 0xff, 0xff,
  0x00, 0x00, 0x00, 0x01, 0x10, 0x00, 0x00, 0x00, 0x10, 0x00, 0x00, 0x00,
  0x07, 0x00, 0x00, 0x00, 0x28, 0x00, 0x00, 0x00, 0x1c, 0xfe, 0xff, 0xff,
  0x1b, 0x00, 0x00, 0x00, 0x73, 0x65, 0x71, 0x75, 0x65, 0x6e, 0x74, 0x69,
  0x61, 0x6c, 0x5f, 0x31, 0x2f, 0x64, 0x65, 0x6e, 0x73, 0x65, 0x5f, 0x31,
  0x2f, 0x4d, 0x61, 0x74, 0x4d, 0x75, 0x6c, 0x00, 0x02, 0x00, 0x00, 0x00,
  0x32, 0x00, 0x00, 0x00, 0x01, 0x00, 0x00, 0x00, 0xde, 0xfe, 0xff, 0xff,
  0x00, 0x00, 0x00, 0x01, 0x10, 0x00, 0x00, 0x00, 0x10, 0x00, 0x00, 0x00,
  0x06, 0x00, 0x00, 0x00, 0x38, 0x00, 0x00, 0x00, 0x64, 0xfe, 0xff, 0xff,
  0x2b, 0x00, 0x00, 0x00, 0x73, 0x65, 0x71, 0x75, 0x65, 0x6e, 0x74, 0x69,
  0x61, 0x6c, 0x5f, 0x31, 0x2f, 0x64, 0x65, 0x6e, 0x73, 0x65, 0x5f, 0x31,
  0x2f, 0x42, 0x69, 0x61, 0x73, 0x41, 0x64, 0x64, 0x2f, 0x52, 0x65, 0x61,
  0x64, 0x56, 0x61, 0x72, 0x69, 0x61, 0x62, 0x6c, 0x65, 0x4f, 0x70, 0x00,
  0x01, 0x00, 0x00, 0x00, 0x32, 0x00, 0x00, 0x00, 0x32, 0xff, 0xff, 0xff,
  0x00, 0x00, 0x00, 0x01, 0x10, 0x00, 0x00, 0x00, 0x10, 0x00, 0x00, 0x00,
  0x05, 0x00, 0x00, 0x00, 0x3c, 0x00, 0x00, 0x00, 0xb8, 0xfe, 0xff, 0xff,
  0x2d, 0x00, 0x00, 0x00, 0x73, 0x65, 0x71, 0x75, 0x65, 0x6e, 0x74, 0x69,
  0x61, 0x6c, 0x5f, 0x31, 0x2f, 0x64, 0x65, 0x6e, 0x73, 0x65, 0x5f, 0x31,
  0x5f, 0x32, 0x2f, 0x42, 0x69, 0x61, 0x73, 0x41, 0x64, 0x64, 0x2f, 0x52,
  0x65, 0x61, 0x64, 0x56, 0x61, 0x72, 0x69, 0x61, 0x62, 0x6c, 0x65, 0x4f,
  0x70, 0x00, 0x00, 0x00, 0x01, 0x00, 0x00, 0x00, 0x32, 0x00, 0x00, 0x00,
  0x8a, 0xff, 0xff, 0xff, 0x00, 0x00, 0x00, 0x01, 0x10, 0x00, 0x00, 0x00,
  0x10, 0x00, 0x00, 0x00, 0x04, 0x00, 0x00, 0x00, 0x1c, 0x00, 0x00, 0x00,
  0x10, 0xff, 0xff, 0xff, 0x0f, 0x00, 0x00, 0x00, 0x61, 0x72, 0x69, 0x74,
  0x68, 0x2e, 0x63, 0x6f, 0x6e, 0x73, 0x74, 0x61, 0x6e, 0x74, 0x32, 0x00,
  0x01, 0x00, 0x00, 0x00, 0x01, 0x00, 0x00, 0x00, 0xc2, 0xff, 0xff, 0xff,
  0x00, 0x00, 0x00, 0x01, 0x10, 0x00, 0x00, 0x00, 0x10, 0x00, 0x00, 0x00,
  0x03, 0x00, 0x00, 0x00, 0x1c, 0x00, 0x00, 0x00, 0x48, 0xff, 0xff, 0xff,
  0x0f, 0x00, 0x00, 0x00, 0x61, 0x72, 0x69, 0x74, 0x68, 0x2e, 0x63, 0x6f,
  0x6e, 0x73, 0x74, 0x61, 0x6e, 0x74, 0x31, 0x00, 0x02, 0x00, 0x00, 0x00,
  0x32, 0x00, 0x00, 0x00, 0x32, 0x00, 0x00, 0x00, 0x00, 0x00, 0x16, 0x00,
  0x18, 0x00, 0x14, 0x00, 0x00, 0x00, 0x10, 0x00, 0x0c, 0x00, 0x08, 0x00,
  0x00, 0x00, 0x00, 0x00, 0x00, 0x00, 0x07, 0x00, 0x16, 0x00, 0x00, 0x00,
  0x00, 0x00, 0x00, 0x01, 0x10, 0x00, 0x00, 0x00, 0x10, 0x00, 0x00, 0x00,
  0x02, 0x00, 0x00, 0x00, 0x1c, 0x00, 0x00, 0x00, 0x9c, 0xff, 0xff, 0xff,
  0x0e, 0x00, 0x00, 0x00, 0x61, 0x72, 0x69, 0x74, 0x68, 0x2e, 0x63, 0x6f,
  0x6e, 0x73, 0x74, 0x61, 0x6e, 0x74, 0x00, 0x00, 0x02, 0x00, 0x00, 0x00,
  0x01, 0x00, 0x00, 0x00, 0x32, 0x00, 0x00, 0x00, 0x00, 0x00, 0x16, 0x00,
  0x1c, 0x00, 0x18, 0x00, 0x00, 0x00, 0x14, 0x00, 0x10, 0x00, 0x0c, 0x00,
  0x00, 0x00, 0x00, 0x00, 0x08, 0x00, 0x07, 0x00, 0x16, 0x00, 0x00, 0x00,
  0x00, 0x00, 0x00, 0x01, 0x14, 0x00, 0x00, 0x00, 0x20, 0x00, 0x00, 0x00,
  0x20, 0x00, 0x00, 0x00, 0x01, 0x00, 0x00, 0x00, 0x3c, 0x00, 0x00, 0x00,
  0x02, 0x00, 0x00, 0x00, 0xff, 0xff, 0xff, 0xff, 0x01, 0x00, 0x00, 0x00,
  0x04, 0x00, 0x04, 0x00, 0x04, 0x00, 0x00, 0x00, 0x1e, 0x00, 0x00, 0x00,
  0x73, 0x65, 0x72, 0x76, 0x69, 0x6e, 0x67, 0x5f, 0x64, 0x65, 0x66, 0x61,
  0x75, 0x6c, 0x74, 0x5f, 0x6b, 0x65, 0x72, 0x61, 0x73, 0x5f, 0x74, 0x65,
  0x6e, 0x73, 0x6f, 0x72, 0x3a, 0x30, 0x00, 0x00, 0x02, 0x00, 0x00, 0x00,
  0x01, 0x00, 0x00, 0x00, 0x01, 0x00, 0x00, 0x00, 0x02, 0x00, 0x00, 0x00,
  0x20, 0x00, 0x00, 0x00, 0x04, 0x00, 0x00, 0x00, 0xf4, 0xff, 0xff, 0xff,
  0x1c, 0x00, 0x00, 0x00, 0x00, 0x00, 0x00, 0x1c, 0x0c, 0x00, 0x0c, 0x00,
  0x0b, 0x00, 0x00, 0x00, 0x00, 0x00, 0x04, 0x00, 0x0c, 0x00, 0x00, 0x00,
  0x09, 0x00, 0x00, 0x00, 0x00, 0x00, 0x00, 0x09
};
unsigned int modelo_seno_float32_tflite_len = 12908;
